{
  "version": "1.0",
  "truncation": null,
  "padding": null,
  "added_tokens": [
    {
      "id": 0,
      "content": "[UNK]",
      "single_word": false,
      "lstrip": false,
      "rstrip": false,
      "normalized": false,
      "special": true
    },
    {
      "id": 1,
      "content": "[CLS]",
      "single_word": false,
      "lstrip": false,
      "rstrip": false,
      "normalized": false,
      "special": true
    },
    {
      "id": 2,
      "content": "[SEP]",
      "single_word": false,
      "lstrip": false,
      "rstrip": false,
      "normalized": false,
      "special": true
    },
    {
      "id": 3,
      "content": "[PAD]",
      "single_word": false,
      "lstrip": false,
      "rstrip": false,
      "normalized": false,
      "special": true
    },
    {
      "id": 4,
      "content": "[MASK]",
      "single_word": false,
      "lstrip": false,
      "rstrip": false,
      "normalized": false,
      "special": true
    }
  ],
  "normalizer": null,
  "pre_tokenizer": {
    "type": "Whitespace"
  },
  "post_processor": null,
  "decoder": null,
  "model": {
    "type": "WordPiece",
    "unk_token": "[UNK]",
    "continuing_subword_prefix": "##",
    "max_input_chars_per_word": 100,
    "vocab": {
      "[UNK]": 0,
      "[CLS]": 1,
      "[SEP]": 2,
      "[PAD]": 3,
      "[MASK]": 4,
      "!": 5,
      "\"": 6,
      "#": 7,
      "$": 8,
      "%": 9,
      "&": 10,
      "'": 11,
      "(": 12,
      ")": 13,
      "*": 14,
      "+": 15,
      ",": 16,
      "-": 17,
      ".": 18,
      "/": 19,
      "0": 20,
      "1": 21,
      "2": 22,
      "3": 23,
      "4": 24,
      "5": 25,
      "6": 26,
      "7": 27,
      "8": 28,
      "9": 29,
      ":": 30,
      ";": 31,
      "<": 32,
      "=": 33,
      ">": 34,
      "?": 35,
      "@": 36,
      "A": 37,
      "B": 38,
      "C": 39,
      "D": 40,
      "E": 41,
      "F": 42,
      "G": 43,
      "H": 44,
      "I": 45,
      "J": 46,
      "K": 47,
      "L": 48,
      "M": 49,
      "N": 50,
      "O": 51,
      "P": 52,
      "Q": 53,
      "R": 54,
      "S": 55,
      "T": 56,
      "U": 57,
      "V": 58,
      "W": 59,
      "X": 60,
      "Y": 61,
      "Z": 62,
      "[": 63,
      "\\": 64,
      "]": 65,
      "^": 66,
      "_": 67,
      "`": 68,
      "a": 69,
      "b": 70,
      "c": 71,
      "d": 72,
      "e": 73,
      "f": 74,
      "g": 75,
      "h": 76,
      "i": 77,
      "j": 78,
      "k": 79,
      "l": 80,
      "m": 81,
      "n": 82,
      "o": 83,
      "p": 84,
      "q": 85,
      "r": 86,
      "s": 87,
      "t": 88,
      "u": 89,
      "v": 90,
      "w": 91,
      "x": 92,
      "y": 93,
      "z": 94,
      "{": 95,
      "|": 96,
      "}": 97,
      "~": 98,
      "¢": 99,
      "£": 100,
      "¤": 101,
      "¥": 102,
      "§": 103,
      "¨": 104,
      "©": 105,
      "ª": 106,
      "«": 107,
      "¬": 108,
      "®": 109,
      "°": 110,
      "±": 111,
      "²": 112,
      "³": 113,
      "´": 114,
      "µ": 115,
      "¶": 116,
      "·": 117,
      "¹": 118,
      "º": 119,
      "»": 120,
      "¼": 121,
      "½": 122,
      "¾": 123,
      "¿": 124,
      "À": 125,
      "Á": 126,
      "Â": 127,
      "Ã": 128,
      "Ä": 129,
      "Å": 130,
      "Æ": 131,
      "Ç": 132,
      "È": 133,
      "É": 134,
      "Ë": 135,
      "Í": 136,
      "Î": 137,
      "Ï": 138,
      "Ó": 139,
      "Ô": 140,
      "Ö": 141,
      "×": 142,
      "Ø": 143,
      "Ú": 144,
      "Ü": 145,
      "Þ": 146,
      "ß": 147,
      "à": 148,
      "á": 149,
      "â": 150,
      "ã": 151,
      "ä": 152,
      "å": 153,
      "æ": 154,
      "ç": 155,
      "è": 156,
      "é": 157,
      "ê": 158,
      "ë": 159,
      "ì": 160,
      "í": 161,
      "î": 162,
      "ï": 163,
      "ð": 164,
      "ñ": 165,
      "ò": 166,
      "ó": 167,
      "ô": 168,
      "õ": 169,
      "ö": 170,
      "÷": 171,
      "ø": 172,
      "ù": 173,
      "ú": 174,
      "û": 175,
      "ü": 176,
      "ý": 177,
      "ÿ": 178,
      "ā": 179,
      "ă": 180,
      "ą": 181,
      "ć": 182,
      "č": 183,
      "Ď": 184,
      "ď": 185,
      "Đ": 186,
      "đ": 187,
      "Ē": 188,
      "ē": 189,
      "ĕ": 190,
      "Ė": 191,
      "ė": 192,
      "Ę": 193,
      "ę": 194,
      "Ě": 195,
      "ě": 196,
      "ğ": 197,
      "ģ": 198,
      "Ī": 199,
      "Į": 200,
      "į": 201,
      "ı": 202,
      "ĺ": 203,
      "ļ": 204,
      "Ľ": 205,
      "Ł": 206,
      "ł": 207,
      "ń": 208,
      "ň": 209,
      "Ō": 210,
      "ō": 211,
      "ő": 212,
      "œ": 213,
      "ŕ": 214,
      "Ř": 215,
      "ř": 216,
      "Ś": 217,
      "ś": 218,
      "ş": 219,
      "Š": 220,
      "š": 221,
      "Ť": 222,
      "ť": 223,
      "ū": 224,
      "ů": 225,
      "Ű": 226,
      "Ų": 227,
      "ź": 228,
      "ż": 229,
      "Ž": 230,
      "ž": 231,
      "ƒ": 232,
      "ơ": 233,
      "ƫ": 234,
      "ư": 235,
      "ǎ": 236,
      "ȉ": 237,
      "ț": 238,
      "ɔ": 239,
      "ə": 240,
      "ɜ": 241,
      "ˇ": 242,
      "ˈ": 243,
      "ː": 244,
      "˛": 245,
      "˝": 246,
      "́": 247,
      "̱": 248,
      "Η": 249,
      "Κ": 250,
      "Π": 251,
      "Σ": 252,
      "Τ": 253,
      "Ω": 254,
      "ά": 255,
      "έ": 256,
      "ή": 257,
      "ί": 258,
      "α": 259,
      "β": 260,
      "γ": 261,
      "δ": 262,
      "ε": 263,
      "ζ": 264,
      "η": 265,
      "θ": 266,
      "ι": 267,
      "κ": 268,
      "λ": 269,
      "μ": 270,
      "ν": 271,
      "ξ": 272,
      "ο": 273,
      "π": 274,
      "ρ": 275,
      "ς": 276,
      "σ": 277,
      "τ": 278,
      "υ": 279,
      "φ": 280,
      "χ": 281,
      "ω": 282,
      "ό": 283,
      "ύ": 284,
      "ώ": 285,
      "А": 286,
      "Б": 287,
      "В": 288,
      "Г": 289,
      "Д": 290,
      "Е": 291,
      "З": 292,
      "К": 293,
      "Л": 294,
      "О": 295,
      "П": 296,
      "С": 297,
      "Т": 298,
      "а": 299,
      "б": 300,
      "в": 301,
      "г": 302,
      "д": 303,
      "е": 304,
      "ж": 305,
      "з": 306,
      "и": 307,
      "й": 308,
      "к": 309,
      "л": 310,
      "м": 311,
      "н": 312,
      "о": 313,
      "п": 314,
      "р": 315,
      "с": 316,
      "т": 317,
      "у": 318,
      "ч": 319,
      "ш": 320,
      "ъ": 321,
      "ы": 322,
      "ь": 323,
      "э": 324,
      "я": 325,
      "ө": 326,
      "Ո": 327,
      "Ս": 328,
      "ְ": 329,
      "ִ": 330,
      "ֵ": 331,
      "ֶ": 332,
      "ַ": 333,
      "ָ": 334,
      "ּ": 335,
      "ׁ": 336,
      "א": 337,
      "ב": 338,
      "ג": 339,
      "ד": 340,
      "ה": 341,
      "ו": 342,
      "ז": 343,
      "ח": 344,
      "ט": 345,
      "י": 346,
      "כ": 347,
      "ל": 348,
      "ם": 349,
      "מ": 350,
      "ן": 351,
      "נ": 352,
      "ס": 353,
      "ע": 354,
      "פ": 355,
      "ק": 356,
      "ר": 357,
      "ש": 358,
      "ת": 359,
      "ة": 360,
      "ت": 361,
      "ج": 362,
      "ر": 363,
      "ز": 364,
      "غ": 365,
      "ك": 366,
      "م": 367,
      "ن": 368,
      "و": 369,
      "ي": 370,
      "ە": 371,
      "ก": 372,
      "ง": 373,
      "จ": 374,
      "ช": 375,
      "ด": 376,
      "ต": 377,
      "ธ": 378,
      "น": 379,
      "ป": 380,
      "ผ": 381,
      "ม": 382,
      "ย": 383,
      "ร": 384,
      "ว": 385,
      "ห": 386,
      "อ": 387,
      "ะ": 388,
      "า": 389,
      "ิ": 390,
      "เ": 391,
      "แ": 392,
      "ไ": 393,
      "็": 394,
      "่": 395,
      "้": 396,
      "་": 397,
      "ལ": 398,
      "ས": 399,
      "ུ": 400,
      "ྐ": 401,
      "ྤ": 402,
      "ྲ": 403,
      "ố": 404,
      "ổ": 405,
      "ộ": 406,
      "ữ": 407,
      "ự": 408,
      "ἀ": 409,
      "ἁ": 410,
      "ἄ": 411,
      "ἐ": 412,
      "ἑ": 413,
      "Ἔ": 414,
      "ἡ": 415,
      "ἰ": 416,
      "ἵ": 417,
      "Ἱ": 418,
      "ὅ": 419,
      "ὐ": 420,
      "ὑ": 421,
      "ὖ": 422,
      "ὰ": 423,
      "ὲ": 424,
      "ὴ": 425,
      "ὶ": 426,
      "ὸ": 427,
      "ὺ": 428,
      "ᾳ": 429,
      "ῃ": 430,
      "ῆ": 431,
      "ῇ": 432,
      "ῖ": 433,
      "ῥ": 434,
      "ῦ": 435,
      "ῶ": 436,
      "ῷ": 437,
      "‐": 438,
      "‑": 439,
      "‒": 440,
      "–": 441,
      "—": 442,
      "―": 443,
      "†": 444,
      "•": 445,
      "…": 446,
      "′": 447,
      "″": 448,
      "›": 449,
      "⁴": 450,
      "₂": 451,
      "€": 452,
      "™": 453,
      "→": 454,
      "↓": 455,
      "↩": 456,
      "−": 457,
      "√": 458,
      "≈": 459,
      "≠": 460,
      "⌛": 461,
      "⏳": 462,
      "┐": 463,
      "├": 464,
      "╗": 465,
      "■": 466,
      "▪": 467,
      "▸": 468,
      "►": 469,
      "▼": 470,
      "◊": 471,
      "★": 472,
      "☺": 473,
      "♥": 474,
      "✓": 475,
      "✔": 476,
      "✨": 477,
      "✿": 478,
      "❤": 479,
      "➜": 480,
      "⢠": 481,
      "、": 482,
      "〒": 483,
      "う": 484,
      "え": 485,
      "き": 486,
      "の": 487,
      "イ": 488,
      "エ": 489,
      "カ": 490,
      "ス": 491,
      "ト": 492,
      "ド": 493,
      "パ": 494,
      "ブ": 495,
      "メ": 496,
      "ラ": 497,
      "ロ": 498,
      "ン": 499,
      "ー": 500,
      "三": 501,
      "世": 502,
      "伯": 503,
      "克": 504,
      "則": 505,
      "化": 506,
      "北": 507,
      "县": 508,
      "古": 509,
      "君": 510,
      "呼": 511,
      "国": 512,
      "图": 513,
      "國": 514,
      "圖": 515,
      "场": 516,
      "場": 517,
      "大": 518,
      "官": 519,
      "富": 520,
      "市": 521,
      "干": 522,
      "广": 523,
      "廣": 524,
      "新": 525,
      "時": 526,
      "条": 527,
      "松": 528,
      "栽": 529,
      "江": 530,
      "法": 531,
      "渉": 532,
      "盆": 533,
      "祇": 534,
      "祖": 535,
      "神": 536,
      "縣": 537,
      "義": 538,
      "者": 539,
      "莎": 540,
      "藩": 541,
      "身": 542,
      "車": 543,
      "轉": 544,
      "车": 545,
      "转": 546,
      "锅": 547,
      "院": 548,
      "️": 549,
      "�": 550,
      "🌹": 551,
      "👌": 552,
      "😀": 553,
      "😉": 554,
      "😘": 555,
      "😦": 556,
      "🙂": 557,
      "🙄": 558,
      "##a": 559,
      "##s": 560,
      "##i": 561,
      "##p": 562,
      "##r": 563,
      "##n": 564,
      "##c": 565,
      "##e": 566,
      "##m": 567,
      "##k": 568,
      "##j": 569,
      "##t": 570,
      "##g": 571,
      "##l": 572,
      "##f": 573,
      "##d": 574,
      "##o": 575,
      "##u": 576,
      "##v": 577,
      "##w": 578,
      "##h": 579,
      "##b": 580,
      "##9": 581,
      "##8": 582,
      "##7": 583,
      "##3": 584,
      "##N": 585,
      "##A": 586,
      "##P": 587,
      "##ï": 588,
      "##E": 589,
      "##L": 590,
      "##M": 591,
      "##R": 592,
      "##S": 593,
      "##z": 594,
      "##x": 595,
      "##T": 596,
      "##X": 597,
      "##J": 598,
      "##U": 599,
      "##F": 600,
      "##2": 601,
      "##1": 602,
      "##y": 603,
      "##0": 604,
      "##ë": 605,
      "##ó": 606,
      "##W": 607,
      "##é": 608,
      "##O": 609,
      "##_": 610,
      "##ö": 611,
      "##!": 612,
      "##?": 613,
      "##D": 614,
      "##H": 615,
      "##C": 616,
      "##Y": 617,
      "##K": 618,
      "##G": 619,
      "##I": 620,
      "##ß": 621,
      "##.": 622,
      "##Z": 623,
      "##4": 624,
      "##/": 625,
      "##6": 626,
      "##5": 627,
      "##V": 628,
      "##B": 629,
      "##ü": 630,
      "##æ": 631,
      "##-": 632,
      "##q": 633,
      "##$": 634,
      "##à": 635,
      "##è": 636,
      "##á": 637,
      "##ä": 638,
      "##*": 639,
      "##ú": 640,
      "##'": 641,
      "##ç": 642,
      "##а": 643,
      "##ш": 644,
      "##и": 645,
      "##Ë": 646,
      "##â": 647,
      "##ל": 648,
      "##י": 649,
      "##נ": 650,
      "##ה": 651,
      "##í": 652,
      "##û": 653,
      "##)": 654,
      "##ā": 655,
      "##`": 656,
      "##º": 657,
      "##ø": 658,
      "##ə": 659,
      "##π": 660,
      "##ι": 661,
      "##μ": 662,
      "##ε": 663,
      "##λ": 664,
      "##ῖ": 665,
      "##ς": 666,
      "##]": 667,
      "##…": 668,
      "##ê": 669,
      "##Ø": 670,
      "##Ű": 671,
      "##\"": 672,
      "##>": 673,
      "##מ": 674,
      "##Ž": 675,
      "##ή": 676,
      "##θ": 677,
      "##α": 678,
      "##ν": 679,
      "##ô": 680,
      "##,": 681,
      "##ț": 682,
      "##ñ": 683,
      "##|": 684,
      "##ť": 685,
      "##:": 686,
      "##[": 687,
      "##е": 688,
      "##É": 689,
      "##祇": 690,
      "##伯": 691,
      "###": 692,
      "##ד": 693,
      "##ם": 694,
      "##š": 695,
      "##ć": 696,
      "##Q": 697,
      "##î": 698,
      "##έ": 699,
      "##τ": 700,
      "##(": 701,
      "##\\": 702,
      "##;": 703,
      "##ĕ": 704,
      "##Š": 705,
      "##ď": 706,
      "##č": 707,
      "##{": 708,
      "##}": 709,
      "##=": 710,
      "##з": 711,
      "##г": 712,
      "##я": 713,
      "##р": 714,
      "##+": 715,
      "##ρ": 716,
      "##ὶ": 717,
      "##ῆ": 718,
      "##å": 719,
      "##л": 720,
      "##к": 721,
      "##с": 722,
      "##н": 723,
      "##д": 724,
      "##—": 725,
      "##ָ": 726,
      "##ׁ": 727,
      "##ִ": 728,
      "##κ": 729,
      "##ο": 730,
      "##ώ": 731,
      "##ω": 732,
      "##ป": 733,
      "##ช": 734,
      "##Ü": 735,
      "##ù": 736,
      "##»": 737,
      "##ò": 738,
      "##@": 739,
      "##ģ": 740,
      "##Ö": 741,
      "##ė": 742,
      "##Ô": 743,
      "##ş": 744,
      "##น": 745,
      "##ว": 746,
      "##ร": 747,
      "##่": 748,
      "##ม": 749,
      "##ะ": 750,
      "##า": 751,
      "##ธ": 752,
      "##ิ": 753,
      "##ไ": 754,
      "##ต": 755,
      "##ย": 756,
      "##อ": 757,
      "##้": 758,
      "##เ": 759,
      "##ผ": 760,
      "##ด": 761,
      "##็": 762,
      "##จ": 763,
      "##ก": 764,
      "##แ": 765,
      "##ห": 766,
      "##ง": 767,
      "##υ": 768,
      "##σ": 769,
      "##т": 770,
      "##ί": 771,
      "##η": 772,
      "##Ï": 773,
      "##ό": 774,
      "##ę": 775,
      "##ã": 776,
      "##ū": 777,
      "##Ó": 778,
      "##į": 779,
      "##−": 780,
      "##´": 781,
      "##ק": 782,
      "##ס": 783,
      "##γ": 784,
      "##Ω": 785,
      "##ὐ": 786,
      "##ὸ": 787,
      "##ὴ": 788,
      "##廣": 789,
      "##場": 790,
      "##ύ": 791,
      "##ζ": 792,
      "##ổ": 793,
      "##ו": 794,
      "##ר": 795,
      "##图": 796,
      "##克": 797,
      "##古": 798,
      "##ð": 799,
      "##ý": 800,
      "##ە": 801,
      "##ك": 802,
      "##ن": 803,
      "##ὲ": 804,
      "##^": 805,
      "##ē": 806,
      "##Å": 807,
      "##ō": 808,
      "##פ": 809,
      "##ב": 810,
      "##в": 811,
      "##ч": 812,
      "##<": 813,
      "##ש": 814,
      "##广": 815,
      "##场": 816,
      "##ь": 817,
      "##ĺ": 818,
      "##ъ": 819,
      "##Ř": 820,
      "##圖": 821,
      "##ー": 822,
      "##パ": 823,
      "##メ": 824,
      "##ト": 825,
      "##ロ": 826,
      "##イ": 827,
      "##ド": 828,
      "##Ú": 829,
      "##б": 830,
      "##ח": 831,
      "##ת": 832,
      "##Ç": 833,
      "##°": 834,
      "##̱": 835,
      "##ř": 836,
      "##ά": 837,
      "##え": 838,
      "##き": 839,
      "##の": 840,
      "##法": 841,
      "##則": 842,
      "##у": 843,
      "##~": 844,
      "##о": 845,
      "##ː": 846,
      "##✓": 847,
      "##א": 848,
      "##ж": 849,
      "##й": 850,
      "##ὺ": 851,
      "##×": 852,
      "##¬": 853,
      "##†": 854,
      "##ῶ": 855,
      "##•": 856,
      "##ྤ": 857,
      "##ྲ": 858,
      "##ུ": 859,
      "##ལ": 860,
      "##ט": 861,
      "##ą": 862,
      "##ì": 863,
      "##δ": 864,
      "##–": 865,
      "##χ": 866,
      "##ğ": 867,
      "##м": 868,
      "##β": 869,
      "##È": 870,
      "##ż": 871,
      "##€": 872,
      "##ַ": 873,
      "##ְ": 874,
      "##ג": 875,
      "##ּ": 876,
      "##ן": 877,
      "##Á": 878,
      "##江": 879,
      "##市": 880,
      "##ᾳ": 881,
      "##À": 882,
      "##ῃ": 883,
      "##«": 884,
      "##院": 885,
      "##君": 886,
      "##ˇ": 887,
      "##ł": 888,
      "##%": 889,
      "##车": 890,
      "##县": 891,
      "##ļ": 892,
      "##ố": 893,
      "##Ě": 894,
      "##ז": 895,
      "##😘": 896,
      "##🌹": 897,
      "##ư": 898,
      "##ơ": 899,
      "##ÿ": 900,
      "##ƫ": 901,
      "##φ": 902,
      "##ů": 903,
      "##ラ": 904,
      "##ン": 905,
      "##カ": 906,
      "##官": 907,
      "##世": 908,
      "##者": 909,
      "##ı": 910,
      "##↩": 911,
      "##国": 912,
      "##干": 913,
      "##渉": 914,
      "##đ": 915,
      "##ń": 916,
      "##〒": 917,
      "##ῷ": 918,
      "##ɜ": 919,
      "##³": 920,
      "##≠": 921,
      "##ὖ": 922,
      "##£": 923,
      "##ǎ": 924,
      "##ě": 925,
      "##ă": 926,
      "##■": 927,
      "##&": 928,
      "##כ": 929,
      "##ֵ": 930,
      "##ֶ": 931,
      "##п": 932,
      "##ῇ": 933,
      "##®": 934,
      "##�": 935,
      "##ө": 936,
      "##Ē": 937,
      "##Í": 938,
      "##身": 939,
      "##ὰ": 940,
      "##エ": 941,
      "##›": 942,
      "##ự": 943,
      "##œ": 944,
      "##¥": 945,
      "##╗": 946,
      "##┐": 947,
      "##Ł": 948,
      "##⁴": 949,
      "##ἰ": 950,
      "##國": 951,
      "##Ã": 952,
      "##★": 953,
      "##¹": 954,
      "##ữ": 955,
      "##²": 956,
      "##ы": 957,
      "##©": 958,
      "##Ų": 959,
      "##条": 960,
      "##義": 961,
      "##時": 962,
      "##ȉ": 963,
      "##ś": 964,
      "##õ": 965,
      "##栽": 966,
      "##ὑ": 967,
      "##ῦ": 968,
      "##ྐ": 969,
      "##ň": 970,
      "##ξ": 971,
      "##√": 972,
      "##ز": 973,
      "##و": 974,
      "##ة": 975,
      "##藩": 976,
      "##ộ": 977,
      "##車": 978,
      "##縣": 979,
      "##ž": 980,
      "##ت": 981,
      "##ر": 982,
      "##ج": 983,
      "##م": 984,
      "##ő": 985,
      "##э": 986,
      "##ע": 987,
      "##ª": 988,
      "##en": 989,
      "##er": 990,
      "##an": 991,
      "##et": 992,
      "##el": 993,
      "##ij": 994,
      "de": 995,
      "##or": 996,
      "##aa": 997,
      "##in": 998,
      "##ie": 999,
      "##st": 1000,
      "##ch": 1001,
      "##at": 1002,
      "van": 1003,
      "en": 1004,
      "##it": 1005,
      "in": 1006,
      "een": 1007,
      "##oor": 1008,
      "##aar": 1009,
      "##on": 1010,
      "het": 1011,
      "##ing": 1012,
      "ge": 1013,
      "##den": 1014,
      "##de": 1015,
      "##der": 1016,
      "##al": 1017,
      "##ig": 1018,
      "##oe": 1019,
      "##ar": 1020,
      "op": 1021,
      "##le": 1022,
      "be": 1023,
      "te": 1024,
      "ver": 1025,
      "##ro": 1026,
      "##ee": 1027,
      "##ijk": 1028,
      "##is": 1029,
      "##cht": 1030,
      "is": 1031,
      "voor": 1032,
      "##ijn": 1033,
      "on": 1034,
      "##om": 1035,
      "##ken": 1036,
      "##eer": 1037,
      "##gen": 1038,
      "al": 1039,
      "##ge": 1040,
      "##re": 1041,
      "##il": 1042,
      "aan": 1043,
      "met": 1044,
      "##ol": 1045,
      "##ver": 1046,
      "##ur": 1047,
      "##un": 1048,
      "st": 1049,
      "##am": 1050,
      "##ot": 1051,
      "dat": 1052,
      "##id": 1053,
      "je": 1054,
      "zijn": 1055,
      "##and": 1056,
      "##ou": 1057,
      "##as": 1058,
      "##iet": 1059,
      "##te": 1060,
      "##og": 1061,
      "##ven": 1062,
      "##es": 1063,
      "De": 1064,
      "##ten": 1065,
      "die": 1066,
      "om": 1067,
      "##elijk": 1068,
      "##ok": 1069,
      "##ra": 1070,
      "##sch": 1071,
      "##he": 1072,
      "##ze": 1073,
      "##aat": 1074,
      "##ik": 1075,
      "uit": 1076,
      "wor": 1077,
      "##ct": 1078,
      "##op": 1079,
      "er": 1080,
      "niet": 1081,
      "he": 1082,
      "##ers": 1083,
      "##us": 1084,
      "##ent": 1085,
      "of": 1086,
      "##ste": 1087,
      "we": 1088,
      "##ru": 1089,
      "##ele": 1090,
      "##ier": 1091,
      "##ag": 1092,
      "##ft": 1093,
      "##ien": 1094,
      "##aan": 1095,
      "##rij": 1096,
      "##atie": 1097,
      "bij": 1098,
      "re": 1099,
      "##eld": 1100,
      "over": 1101,
      "##ul": 1102,
      "##uw": 1103,
      "##kt": 1104,
      "wer": 1105,
      "##ad": 1106,
      "##len": 1107,
      "##aal": 1108,
      "##sen": 1109,
      "##ic": 1110,
      "als": 1111,
      "ook": 1112,
      "##nen": 1113,
      "door": 1114,
      "##ingen": 1115,
      "##oo": 1116,
      "kun": 1117,
      "##se": 1118,
      "##eren": 1119,
      "##ak": 1120,
      "##dt": 1121,
      "waar": 1122,
      "##ap": 1123,
      "an": 1124,
      "ze": 1125,
      "heb": 1126,
      "zo": 1127,
      "##ant": 1128,
      "##im": 1129,
      "Het": 1130,
      "ik": 1131,
      "geb": 1132,
      "dan": 1133,
      "##ang": 1134,
      "onder": 1135,
      "le": 1136,
      "maar": 1137,
      "##eel": 1138,
      "naar": 1139,
      "##ige": 1140,
      "pro": 1141,
      "##em": 1142,
      "worden": 1143,
      "sch": 1144,
      "##icht": 1145,
      "##je": 1146,
      "In": 1147,
      "##ter": 1148,
      "sp": 1149,
      "##isch": 1150,
      "mo": 1151,
      "##sp": 1152,
      "##ist": 1153,
      "##ite": 1154,
      "##uur": 1155,
      "##ond": 1156,
      "kan": 1157,
      "af": 1158,
      "##ke": 1159,
      "alle": 1160,
      "##elen": 1161,
      "##eeft": 1162,
      "##orm": 1163,
      "##lijk": 1164,
      "##oen": 1165,
      "deze": 1166,
      "##be": 1167,
      "was": 1168,
      "##heid": 1169,
      "##ijd": 1170,
      "##ve": 1171,
      "##pen": 1172,
      "##wer": 1173,
      "##dere": 1174,
      "meer": 1175,
      "tot": 1176,
      "wat": 1177,
      "heeft": 1178,
      "##oed": 1179,
      "nog": 1180,
      "20": 1181,
      "##elf": 1182,
      "##ut": 1183,
      "ont": 1184,
      "wordt": 1185,
      "ma": 1186,
      "##oek": 1187,
      "##um": 1188,
      "wel": 1189,
      "##ion": 1190,
      "##ben": 1191,
      "vol": 1192,
      "##zen": 1193,
      "##sl": 1194,
      "##omen": 1195,
      "##ieuw": 1196,
      "##uit": 1197,
      "##ast": 1198,
      "hebben": 1199,
      "##ind": 1200,
      "##acht": 1201,
      "##igen": 1202,
      "##ich": 1203,
      "pl": 1204,
      "gro": 1205,
      "##oon": 1206,
      "##ere": 1207,
      "##ies": 1208,
      "dit": 1209,
      "Al": 1210,
      "##art": 1211,
      "gr": 1212,
      "##ische": 1213,
      "##ine": 1214,
      "##os": 1215,
      "##aag": 1216,
      "##ia": 1217,
      "##od": 1218,
      "##ker": 1219,
      "moet": 1220,
      "hij": 1221,
      "kunnen": 1222,
      "con": 1223,
      "me": 1224,
      "##wee": 1225,
      "bl": 1226,
      "##ort": 1227,
      "##ale": 1228,
      "daar": 1229,
      "gebru": 1230,
      "bet": 1231,
      "##aren": 1232,
      "##onder": 1233,
      "##aak": 1234,
      "men": 1235,
      "##ip": 1236,
      "##ell": 1237,
      "toe": 1238,
      "##ac": 1239,
      "wil": 1240,
      "kl": 1241,
      "##ab": 1242,
      "##een": 1243,
      "nieuw": 1244,
      "com": 1245,
      "##aten": 1246,
      "gev": 1247,
      "ter": 1248,
      "##sten": 1249,
      "##land": 1250,
      "##we": 1251,
      "##oc": 1252,
      "##du": 1253,
      "best": 1254,
      "to": 1255,
      "##men": 1256,
      "##wij": 1257,
      "eer": 1258,
      "##ir": 1259,
      "mee": 1260,
      "##els": 1261,
      "zich": 1262,
      "##dat": 1263,
      "hier": 1264,
      "##ctie": 1265,
      "veel": 1266,
      "wij": 1267,
      "##af": 1268,
      "geen": 1269,
      "##ug": 1270,
      "##elijke": 1271,
      "##jes": 1272,
      "##pl": 1273,
      "##iteit": 1274,
      "Een": 1275,
      "##amen": 1276,
      "jaar": 1277,
      "##oord": 1278,
      "zelf": 1279,
      "gebruik": 1280,
      "uw": 1281,
      "##eder": 1282,
      "##deren": 1283,
      "bed": 1284,
      "##bl": 1285,
      "andere": 1286,
      "gem": 1287,
      "##iek": 1288,
      "##aam": 1289,
      "##uis": 1290,
      "##per": 1291,
      "##eerd": 1292,
      "##ff": 1293,
      "##ouw": 1294,
      "hun": 1295,
      "En": 1296,
      "##ië": 1297,
      "werd": 1298,
      "##ders": 1299,
      "##chter": 1300,
      "##mer": 1301,
      "ons": 1302,
      "el": 1303,
      "##gt": 1304,
      "##iv": 1305,
      "versch": 1306,
      "Ik": 1307,
      "the": 1308,
      "goed": 1309,
      "##gr": 1310,
      "##racht": 1311,
      "bel": 1312,
      "gew": 1313,
      "##ber": 1314,
      "onze": 1315,
      "na": 1316,
      "##hou": 1317,
      "##uk": 1318,
      "##open": 1319,
      "gen": 1320,
      "##ran": 1321,
      "##00": 1322,
      "zou": 1323,
      "##res": 1324,
      "##ec": 1325,
      "##aakt": 1326,
      "maken": 1327,
      "twee": 1328,
      "##baar": 1329,
      "201": 1330,
      "haar": 1331,
      "hoe": 1332,
      "kle": 1333,
      "##als": 1334,
      "werk": 1335,
      "min": 1336,
      "##gev": 1337,
      "nu": 1338,
      "##ed": 1339,
      "##oog": 1340,
      "##voor": 1341,
      "##gel": 1342,
      "##ma": 1343,
      "St": 1344,
      "##oop": 1345,
      "kunt": 1346,
      "vr": 1347,
      "weer": 1348,
      "##alen": 1349,
      "ex": 1350,
      "##innen": 1351,
      "##ink": 1352,
      "had": 1353,
      "sl": 1354,
      "mijn": 1355,
      "##schap": 1356,
      "eigen": 1357,
      "We": 1358,
      "##ren": 1359,
      "##are": 1360,
      "man": 1361,
      "zal": 1362,
      "tegen": 1363,
      "beg": 1364,
      "##ings": 1365,
      "do": 1366,
      "##ne": 1367,
      "bo": 1368,
      "##ust": 1369,
      "nieuwe": 1370,
      "ar": 1371,
      "##form": 1372,
      "tijd": 1373,
      "##eten": 1374,
      "Neder": 1375,
      "##ui": 1376,
      "19": 1377,
      "##bs": 1378,
      "##erd": 1379,
      "##dig": 1380,
      "##ogelijk": 1381,
      "##ree": 1382,
      "##ijden": 1383,
      "gez": 1384,
      "dr": 1385,
      "##uren": 1386,
      "##ief": 1387,
      "##agen": 1388,
      "##uid": 1389,
      "inter": 1390,
      "per": 1391,
      "##rijk": 1392,
      "##atuur": 1393,
      "sn": 1394,
      "##ds": 1395,
      "##ire": 1396,
      "##onden": 1397,
      "bez": 1398,
      "kw": 1399,
      "On": 1400,
      "##ger": 1401,
      "##ation": 1402,
      "##vol": 1403,
      "besch": 1404,
      "gaan": 1405,
      "Op": 1406,
      "##ellen": 1407,
      "der": 1408,
      "##pp": 1409,
      "Nederland": 1410,
      "##ank": 1411,
      "##ann": 1412,
      "##rouw": 1413,
      "##oren": 1414,
      "##uro": 1415,
      "##werk": 1416,
      "plaat": 1417,
      "##eling": 1418,
      "ged": 1419,
      "##gens": 1420,
      "Dit": 1421,
      "verk": 1422,
      "Als": 1423,
      "##geven": 1424,
      "ben": 1425,
      "##idd": 1426,
      "##ass": 1427,
      "Je": 1428,
      "mogelijk": 1429,
      "beh": 1430,
      "dus": 1431,
      "##ce": 1432,
      "##..": 1433,
      "##bij": 1434,
      "##illen": 1435,
      "##ron": 1436,
      "##act": 1437,
      "##ussen": 1438,
      "##geb": 1439,
      "##ater": 1440,
      "or": 1441,
      "##io": 1442,
      "##kken": 1443,
      "##ide": 1444,
      "##ets": 1445,
      "groot": 1446,
      "moe": 1447,
      "gel": 1448,
      "eerste": 1449,
      "##ult": 1450,
      "##tijd": 1451,
      "pr": 1452,
      "##ost": 1453,
      "##ess": 1454,
      "##org": 1455,
      "zij": 1456,
      "##eem": 1457,
      "vin": 1458,
      "even": 1459,
      "##lo": 1460,
      "gaat": 1461,
      "verb": 1462,
      "##ard": 1463,
      "Er": 1464,
      "leven": 1465,
      "Ver": 1466,
      "den": 1467,
      "##van": 1468,
      "##age": 1469,
      "Voor": 1470,
      "##elt": 1471,
      "##anden": 1472,
      "mensen": 1473,
      "lang": 1474,
      "##oof": 1475,
      "##iden": 1476,
      "##waar": 1477,
      "th": 1478,
      "Maar": 1479,
      "samen": 1480,
      "krij": 1481,
      "##ud": 1482,
      "##uiten": 1483,
      "##ikk": 1484,
      "##tal": 1485,
      "##lie": 1486,
      "##ment": 1487,
      "##if": 1488,
      "Dat": 1489,
      "doen": 1490,
      "##ame": 1491,
      "##nem": 1492,
      "staat": 1493,
      "##omt": 1494,
      "##kend": 1495,
      "Be": 1496,
      "alleen": 1497,
      "##oeg": 1498,
      "pers": 1499,
      "##ow": 1500,
      "Daar": 1501,
      "dag": 1502,
      "vo": 1503,
      "laat": 1504,
      "komen": 1505,
      "##oep": 1506,
      "verschillen": 1507,
      "##itie": 1508,
      "hou": 1509,
      "##aties": 1510,
      "##me": 1511,
      "zoals": 1512,
      "##bo": 1513,
      "belang": 1514,
      "cont": 1515,
      "zien": 1516,
      "##beeld": 1517,
      "##aad": 1518,
      "vert": 1519,
      "elk": 1520,
      "hand": 1521,
      "##unt": 1522,
      "##ay": 1523,
      "Deze": 1524,
      "##zelf": 1525,
      "heel": 1526,
      "##amp": 1527,
      "##maal": 1528,
      "An": 1529,
      ").": 1530,
      "##line": 1531,
      "200": 1532,
      "##eek": 1533,
      "webs": 1534,
      "##dien": 1535,
      "##ood": 1536,
      "terug": 1537,
      "##eerde": 1538,
      "natuur": 1539,
      "soor": 1540,
      "binnen": 1541,
      "##ster": 1542,
      "##all": 1543,
      "Met": 1544,
      "##heden": 1545,
      "##cc": 1546,
      "##ullen": 1547,
      "produ": 1548,
      "##iss": 1549,
      "Ook": 1550,
      "via": 1551,
      "blij": 1552,
      "waren": 1553,
      "inform": 1554,
      "moeten": 1555,
      "##eert": 1556,
      "##komen": 1557,
      "grote": 1558,
      "Van": 1559,
      "##ina": 1560,
      "##ied": 1561,
      "su": 1562,
      "snel": 1563,
      "##vo": 1564,
      "##ragen": 1565,
      "##én": 1566,
      "##eg": 1567,
      "##ens": 1568,
      "##ark": 1569,
      "bedrij": 1570,
      "##wel": 1571,
      "##assen": 1572,
      "##int": 1573,
      "Ch": 1574,
      "##amer": 1575,
      "ru": 1576,
      "hem": 1577,
      "##ieren": 1578,
      "##erk": 1579,
      "##ont": 1580,
      "##zoek": 1581,
      "##anten": 1582,
      "##aast": 1583,
      "##pt": 1584,
      "hel": 1585,
      "hele": 1586,
      "vrij": 1587,
      "##of": 1588,
      "ad": 1589,
      "##est": 1590,
      "##etten": 1591,
      "##wikk": 1592,
      "tussen": 1593,
      "##omm": 1594,
      "Hij": 1595,
      "##lijke": 1596,
      "verschillende": 1597,
      "||": 1598,
      "Euro": 1599,
      "##erm": 1600,
      "##rek": 1601,
      "##oeken": 1602,
      "##woord": 1603,
      "##akk": 1604,
      "##ruk": 1605,
      "prob": 1606,
      "##eeds": 1607,
      "komt": 1608,
      "ou": 1609,
      "##av": 1610,
      "##allen": 1611,
      "altijd": 1612,
      "vorm": 1613,
      "plaats": 1614,
      "##au": 1615,
      "moo": 1616,
      "gele": 1617,
      "Bij": 1618,
      "##kom": 1619,
      "##ijf": 1620,
      "##stell": 1621,
      "##anis": 1622,
      "ko": 1623,
      "##ri": 1624,
      "##ert": 1625,
      "informatie": 1626,
      "##ander": 1627,
      "zeer": 1628,
      "##stand": 1629,
      "verh": 1630,
      "##ijdens": 1631,
      "##aard": 1632,
      "echt": 1633,
      "huis": 1634,
      "##ader": 1635,
      "##ubl": 1636,
      "10": 1637,
      "ken": 1638,
      "achter": 1639,
      "##odig": 1640,
      "aut": 1641,
      "hoog": 1642,
      "se": 1643,
      "gesch": 1644,
      "##iding": 1645,
      "één": 1646,
      "tra": 1647,
      "##gende": 1648,
      "Europ": 1649,
      "lig": 1650,
      "belangrijk": 1651,
      "##chten": 1652,
      "her": 1653,
      "##mp": 1654,
      "net": 1655,
      "##oten": 1656,
      "and": 1657,
      "zit": 1658,
      "##cten": 1659,
      "sle": 1660,
      "mij": 1661,
      "##ieden": 1662,
      "res": 1663,
      "land": 1664,
      "bev": 1665,
      "##onen": 1666,
      "##zien": 1667,
      "##ill": 1668,
      "fot": 1669,
      "enk": 1670,
      "open": 1671,
      "##iken": 1672,
      "##lu": 1673,
      "##aliteit": 1674,
      "aantal": 1675,
      "##ijken": 1676,
      "##gest": 1677,
      "website": 1678,
      "zonder": 1679,
      "##cent": 1680,
      "##door": 1681,
      "Zo": 1682,
      "kin": 1683,
      "reg": 1684,
      "toch": 1685,
      "comp": 1686,
      "eens": 1687,
      "omdat": 1688,
      "weg": 1689,
      "##iver": 1690,
      "ten": 1691,
      "##zig": 1692,
      "##net": 1693,
      "...": 1694,
      "ontwikk": 1695,
      "weten": 1696,
      "##erv": 1697,
      "##ade": 1698,
      "##aart": 1699,
      "Sp": 1700,
      "verg": 1701,
      "##ong": 1702,
      "##ari": 1703,
      "wereld": 1704,
      "deel": 1705,
      "##dag": 1706,
      "##ool": 1707,
      "Ze": 1708,
      "##oem": 1709,
      "##elde": 1710,
      "iets": 1711,
      "dien": 1712,
      "##ks": 1713,
      "##ive": 1714,
      "art": 1715,
      "app": 1716,
      "##iel": 1717,
      "ruim": 1718,
      "ch": 1719,
      "org": 1720,
      "##oede": 1721,
      "##our": 1722,
      "vinden": 1723,
      "Re": 1724,
      "Ge": 1725,
      "##mee": 1726,
      "##anc": 1727,
      "zullen": 1728,
      "##zicht": 1729,
      "staan": 1730,
      "##anneer": 1731,
      "un": 1732,
      "##edere": 1733,
      "##oofd": 1734,
      "##chts": 1735,
      "online": 1736,
      "ke": 1737,
      "aange": 1738,
      "gek": 1739,
      "alles": 1740,
      "Wij": 1741,
      "laten": 1742,
      "##chn": 1743,
      "##ure": 1744,
      "##ikt": 1745,
      "##ees": 1746,
      "ger": 1747,
      "##ect": 1748,
      "##aken": 1749,
      "##king": 1750,
      "verl": 1751,
      "kon": 1752,
      "),": 1753,
      "##bare": 1754,
      "sy": 1755,
      "##erg": 1756,
      "##atis": 1757,
      "Wat": 1758,
      "steeds": 1759,
      "boven": 1760,
      "##emen": 1761,
      "##ding": 1762,
      "##les": 1763,
      "verw": 1764,
      "##olog": 1765,
      "##ice": 1766,
      "##cl": 1767,
      "bep": 1768,
      "geh": 1769,
      "verm": 1770,
      "uur": 1771,
      "##ans": 1772,
      "##deel": 1773,
      "str": 1774,
      "want": 1775,
      "##ggen": 1776,
      "The": 1777,
      "buiten": 1778,
      "meest": 1779,
      "##achten": 1780,
      "nodig": 1781,
      "##werken": 1782,
      "toen": 1783,
      "Sch": 1784,
      "##over": 1785,
      "Hier": 1786,
      "spec": 1787,
      "mil": 1788,
      "mag": 1789,
      "Mar": 1790,
      "Le": 1791,
      "geven": 1792,
      "gemaakt": 1793,
      "##zet": 1794,
      "##ov": 1795,
      "werden": 1796,
      "Om": 1797,
      "##arm": 1798,
      "verder": 1799,
      "fil": 1800,
      "18": 1801,
      "fl": 1802,
      "zw": 1803,
      "hebt": 1804,
      "##qu": 1805,
      "##oot": 1806,
      "##uz": 1807,
      "get": 1808,
      "publ": 1809,
      "beste": 1810,
      "##ER": 1811,
      "jul": 1812,
      "pre": 1813,
      "Pro": 1814,
      "part": 1815,
      "Ar": 1816,
      "jaren": 1817,
      "des": 1818,
      "##ate": 1819,
      "##pro": 1820,
      "##nis": 1821,
      "lu": 1822,
      "drie": 1823,
      "##und": 1824,
      "tijdens": 1825,
      "##ocht": 1826,
      "stad": 1827,
      "##voorbeeld": 1828,
      "##ob": 1829,
      "##mm": 1830,
      "##ode": 1831,
      "Door": 1832,
      "##ins": 1833,
      "##one": 1834,
      "bedrijf": 1835,
      "vak": 1836,
      "##na": 1837,
      "##orgen": 1838,
      "ple": 1839,
      "##ieke": 1840,
      "goede": 1841,
      "##iën": 1842,
      "geld": 1843,
      "##plaat": 1844,
      "##olle": 1845,
      "##ss": 1846,
      "Bel": 1847,
      "onderzoek": 1848,
      "##gem": 1849,
      "keer": 1850,
      "##con": 1851,
      "vaak": 1852,
      "##staan": 1853,
      "erg": 1854,
      "##alis": 1855,
      "##gram": 1856,
      "kinderen": 1857,
      "elkaar": 1858,
      "##rijs": 1859,
      "##EN": 1860,
      "laatste": 1861,
      "dire": 1862,
      "##kende": 1863,
      "Na": 1864,
      "gebruikt": 1865,
      ".\"": 1866,
      "minder": 1867,
      "fe": 1868,
      "opt": 1869,
      "mis": 1870,
      "verz": 1871,
      "##aald": 1872,
      "water": 1873,
      "gegeven": 1874,
      "bere": 1875,
      "inst": 1876,
      "15": 1877,
      "##ib": 1878,
      "##ilig": 1879,
      "zelfs": 1880,
      "foto": 1881,
      "krijgen": 1882,
      "##tra": 1883,
      "##vl": 1884,
      "##gang": 1885,
      "iedere": 1886,
      "##houden": 1887,
      "hoofd": 1888,
      "rond": 1889,
      "med": 1890,
      "pol": 1891,
      "##yp": 1892,
      "##oel": 1893,
      "maakt": 1894,
      "##th": 1895,
      "##ichting": 1896,
      "ber": 1897,
      "ind": 1898,
      "gratis": 1899,
      "##angen": 1900,
      "##ook": 1901,
      "persoon": 1902,
      "##gaan": 1903,
      "eene": 1904,
      "##iend": 1905,
      "##ler": 1906,
      "verd": 1907,
      "##veel": 1908,
      "bijvoorbeeld": 1909,
      "##antie": 1910,
      "besl": 1911,
      "werken": 1912,
      "##ach": 1913,
      "##oud": 1914,
      "ap": 1915,
      "##midd": 1916,
      "##agina": 1917,
      "br": 1918,
      "##eur": 1919,
      "enkele": 1920,
      "##raf": 1921,
      "zeker": 1922,
      "##ering": 1923,
      "vast": 1924,
      "Hoe": 1925,
      "proble": 1926,
      "Fran": 1927,
      "##oss": 1928,
      "welke": 1929,
      "vrouw": 1930,
      "##rit": 1931,
      "bas": 1932,
      "boek": 1933,
      "##ese": 1934,
      "##sie": 1935,
      "vooral": 1936,
      "willen": 1937,
      "##gd": 1938,
      "##ord": 1939,
      "organis": 1940,
      "##ffen": 1941,
      "##stig": 1942,
      "##kl": 1943,
      "gee": 1944,
      "##ijnen": 1945,
      "##weg": 1946,
      "##oft": 1947,
      "soorten": 1948,
      "##bru": 1949,
      "##oos": 1950,
      "12": 1951,
      "ve": 1952,
      "##tu": 1953,
      "##elden": 1954,
      "##stelling": 1955,
      "nl": 1956,
      "echter": 1957,
      "elke": 1958,
      "##iz": 1959,
      "##ts": 1960,
      "groe": 1961,
      "##az": 1962,
      "bent": 1963,
      "oor": 1964,
      "##man": 1965,
      "##gele": 1966,
      "ste": 1967,
      "gest": 1968,
      "##aden": 1969,
      "kopen": 1970,
      "##rag": 1971,
      "act": 1972,
      "##otel": 1973,
      "##ome": 1974,
      "volgende": 1975,
      "##reven": 1976,
      "##zelfde": 1977,
      "recht": 1978,
      "tele": 1979,
      "bew": 1980,
      "volle": 1981,
      "##str": 1982,
      "gewoon": 1983,
      "houden": 1984,
      "vraag": 1985,
      "##gramma": 1986,
      "Vol": 1987,
      "##ett": 1988,
      "##sel": 1989,
      "##iedt": 1990,
      "##wijs": 1991,
      "gebruiken": 1992,
      "##aanse": 1993,
      "manier": 1994,
      "kleine": 1995,
      "bren": 1996,
      "##raag": 1997,
      "##steem": 1998,
      "##oci": 1999,
      "nemen": 2000,
      "##arte": 2001,
      "##aring": 2002,
      "midd": 2003,
      "##aas": 2004,
      "wilt": 2005,
      "##ient": 2006,
      "vl": 2007,
      "kn": 2008,
      "##schapp": 2009,
      "soort": 2010,
      "erv": 2011,
      "nam": 2012,
      "##oorden": 2013,
      "##elingen": 2014,
      "weet": 2015,
      "gehe": 2016,
      "techn": 2017,
      "eerst": 2018,
      "ne": 2019,
      "lever": 2020,
      "artik": 2021,
      "vier": 2022,
      "acc": 2023,
      "##arkt": 2024,
      "ide": 2025,
      "##inn": 2026,
      "bekend": 2027,
      "##wijl": 2028,
      "stuk": 2029,
      "Th": 2030,
      "prof": 2031,
      "bro": 2032,
      "##ons": 2033,
      "##akkelijk": 2034,
      "blijven": 2035,
      "##ub": 2036,
      "##urs": 2037,
      "week": 2038,
      "vele": 2039,
      "##slag": 2040,
      "##geving": 2041,
      "##ga": 2042,
      "##isten": 2043,
      "##ange": 2044,
      "gesp": 2045,
      "verander": 2046,
      "aanv": 2047,
      "##ister": 2048,
      "beter": 2049,
      "##ace": 2050,
      "paar": 2051,
      "aanb": 2052,
      "natuurlijk": 2053,
      "jullie": 2054,
      "Am": 2055,
      "##sche": 2056,
      "zodat": 2057,
      "##mat": 2058,
      "biedt": 2059,
      "##oms": 2060,
      "gemeen": 2061,
      "11": 2062,
      "##etje": 2063,
      "He": 2064,
      "##aire": 2065,
      "##akken": 2066,
      "kwam": 2067,
      "##ulp": 2068,
      "##ooit": 2069,
      "Te": 2070,
      "mail": 2071,
      "duid": 2072,
      "spel": 2073,
      "dagen": 2074,
      "eind": 2075,
      "gere": 2076,
      "##ject": 2077,
      "##enten": 2078,
      "##eter": 2079,
      "##aalde": 2080,
      "##oven": 2081,
      "Die": 2082,
      "naam": 2083,
      "##iteiten": 2084,
      "slechts": 2085,
      "anders": 2086,
      "vragen": 2087,
      "##vis": 2088,
      "##houd": 2089,
      "##inig": 2090,
      "##doen": 2091,
      "##zij": 2092,
      "zoek": 2093,
      "wanneer": 2094,
      "beschik": 2095,
      "Amer": 2096,
      "sc": 2097,
      "##end": 2098,
      "##hop": 2099,
      "##zaam": 2100,
      "cre": 2101,
      "Nederlandse": 2102,
      "sm": 2103,
      "hadden": 2104,
      "vindt": 2105,
      "cent": 2106,
      "wit": 2107,
      "##ore": 2108,
      "eenv": 2109,
      "fun": 2110,
      "tre": 2111,
      "##amil": 2112,
      "geeft": 2113,
      "##app": 2114,
      "##zonder": 2115,
      "klein": 2116,
      "schrij": 2117,
      "16": 2118,
      "##icatie": 2119,
      "##ck": 2120,
      "##vang": 2121,
      "##ail": 2122,
      "bezoek": 2123,
      "opge": 2124,
      "vanaf": 2125,
      "waarin": 2126,
      "maat": 2127,
      "##eest": 2128,
      "geval": 2129,
      "basis": 2130,
      "##ving": 2131,
      "##oment": 2132,
      "##ieten": 2133,
      "for": 2134,
      "##uze": 2135,
      "##get": 2136,
      "ligt": 2137,
      "maak": 2138,
      "##ijna": 2139,
      "##ack": 2140,
      "licht": 2141,
      "contact": 2142,
      "##igh": 2143,
      "bestaan": 2144,
      "##ign": 2145,
      "##oh": 2146,
      "##leiding": 2147,
      "doel": 2148,
      "Kl": 2149,
      "##br": 2150,
      "##oef": 2151,
      "uitge": 2152,
      "nooit": 2153,
      "av": 2154,
      "##tje": 2155,
      "30": 2156,
      "mooi": 2157,
      "##itu": 2158,
      "##ijkt": 2159,
      "##ick": 2160,
      "klanten": 2161,
      "##reken": 2162,
      "allemaal": 2163,
      "graag": 2164,
      "moment": 2165,
      "##ium": 2166,
      "##actie": 2167,
      "ser": 2168,
      "stand": 2169,
      "##inds": 2170,
      "##rum": 2171,
      "werkt": 2172,
      "kwaliteit": 2173,
      "##ax": 2174,
      "voort": 2175,
      "##weest": 2176,
      "##log": 2177,
      "zie": 2178,
      "speci": 2179,
      "milj": 2180,
      "colle": 2181,
      "##urg": 2182,
      "niets": 2183,
      "Belg": 2184,
      "Wil": 2185,
      "##euw": 2186,
      "##uizen": 2187,
      "euro": 2188,
      "bek": 2189,
      "mooie": 2190,
      "am": 2191,
      "zorg": 2192,
      "##ph": 2193,
      "maand": 2194,
      "mede": 2195,
      "leer": 2196,
      "Amerik": 2197,
      "##ys": 2198,
      "dig": 2199,
      "ele": 2200,
      "eff": 2201,
      "geweest": 2202,
      "direct": 2203,
      "gl": 2204,
      "##tem": 2205,
      "ging": 2206,
      "later": 2207,
      "tweede": 2208,
      "##atief": 2209,
      "17": 2210,
      "##iële": 2211,
      "ster": 2212,
      "ander": 2213,
      "gevol": 2214,
      "actie": 2215,
      "##annen": 2216,
      "producten": 2217,
      "afge": 2218,
      "jon": 2219,
      "rest": 2220,
      "bijna": 2221,
      "film": 2222,
      "ant": 2223,
      "duidelijk": 2224,
      "vind": 2225,
      "iedereen": 2226,
      "eeuw": 2227,
      "Gro": 2228,
      "##oge": 2229,
      "##ware": 2230,
      "##och": 2231,
      "##air": 2232,
      "gelijk": 2233,
      "##eken": 2234,
      "inge": 2235,
      "gebied": 2236,
      "duur": 2237,
      "##naast": 2238,
      "##ly": 2239,
      "##rijd": 2240,
      "'.": 2241,
      "##orden": 2242,
      "groep": 2243,
      "Duit": 2244,
      "link": 2245,
      "pagina": 2246,
      "##dit": 2247,
      "Un": 2248,
      "##aars": 2249,
      "##schien": 2250,
      "##ïn": 2251,
      "##uziek": 2252,
      "kie": 2253,
      "kop": 2254,
      "Alle": 2255,
      "##ouwen": 2256,
      "fin": 2257,
      "kant": 2258,
      "cl": 2259,
      "##uist": 2260,
      "speel": 2261,
      "extra": 2262,
      "gegevens": 2263,
      "soci": 2264,
      "krijgt": 2265,
      "000": 2266,
      "Br": 2267,
      "##werp": 2268,
      "##ante": 2269,
      "14": 2270,
      "##kker": 2271,
      "Uit": 2272,
      "00": 2273,
      "##reden": 2274,
      "##hand": 2275,
      "##ichten": 2276,
      "25": 2277,
      "grond": 2278,
      "##ces": 2279,
      "##bin": 2280,
      "opl": 2281,
      "zouden": 2282,
      "kennis": 2283,
      "##use": 2284,
      "Ne": 2285,
      "rel": 2286,
      "##iging": 2287,
      "Pl": 2288,
      "pat": 2289,
      "internet": 2290,
      "regel": 2291,
      "Onder": 2292,
      "##ergie": 2293,
      "Of": 2294,
      "##--": 2295,
      "Over": 2296,
      "##nieuw": 2297,
      "##oet": 2298,
      "##uin": 2299,
      "##ha": 2300,
      "##recht": 2301,
      "oude": 2302,
      "##ember": 2303,
      "Vl": 2304,
      "lief": 2305,
      "##nation": 2306,
      "El": 2307,
      "##alt": 2308,
      "auto": 2309,
      "famil": 2310,
      "doet": 2311,
      "##voer": 2312,
      "helemaal": 2313,
      "ruimte": 2314,
      "zon": 2315,
      "##ity": 2316,
      "gep": 2317,
      "waarbij": 2318,
      "vor": 2319,
      "##ën": 2320,
      "hen": 2321,
      "site": 2322,
      "##clus": 2323,
      "huid": 2324,
      "volgens": 2325,
      "##out": 2326,
      "bewerken": 2327,
      "prijs": 2328,
      "rol": 2329,
      "##aur": 2330,
      "up": 2331,
      "result": 2332,
      "##huis": 2333,
      "Bl": 2334,
      "comm": 2335,
      "ongev": 2336,
      "par": 2337,
      "##ogen": 2338,
      "blijft": 2339,
      "13": 2340,
      "waardoor": 2341,
      "minu": 2342,
      "Aan": 2343,
      "##enen": 2344,
      "hotel": 2345,
      "##genomen": 2346,
      "Af": 2347,
      "et": 2348,
      "##zeker": 2349,
      "##ivers": 2350,
      "stap": 2351,
      "##ankelijk": 2352,
      "##rie": 2353,
      "##igd": 2354,
      "gesl": 2355,
      "beteken": 2356,
      "pracht": 2357,
      "heer": 2358,
      "verwij": 2359,
      "programma": 2360,
      "##komst": 2361,
      "##cept": 2362,
      "##oudig": 2363,
      "Waar": 2364,
      "##ijst": 2365,
      "weinig": 2366,
      "digit": 2367,
      "2012": 2368,
      "##omst": 2369,
      "zeggen": 2370,
      "ga": 2371,
      "##omp": 2372,
      "##ument": 2373,
      "zitten": 2374,
      "brengen": 2375,
      "top": 2376,
      "##ian": 2377,
      "gedaan": 2378,
      "qu": 2379,
      "##stel": 2380,
      "##oogle": 2381,
      "##itter": 2382,
      "##ner": 2383,
      "terwijl": 2384,
      "blijk": 2385,
      "##ateri": 2386,
      "##lee": 2387,
      "##werking": 2388,
      "##oopt": 2389,
      "wink": 2390,
      "##ase": 2391,
      "##isc": 2392,
      "lucht": 2393,
      "##istr": 2394,
      "##ount": 2395,
      "Dan": 2396,
      "sh": 2397,
      "##sterd": 2398,
      "##its": 2399,
      "beeld": 2400,
      "wie": 2401,
      "##vers": 2402,
      "##ouch": 2403,
      "##elijks": 2404,
      "zowel": 2405,
      "##akt": 2406,
      "zegt": 2407,
      "leuk": 2408,
      "##ijen": 2409,
      "##waarden": 2410,
      "##ervice": 2411,
      "##osten": 2412,
      "##ids": 2413,
      "Europese": 2414,
      "vormen": 2415,
      "##rokken": 2416,
      "##eef": 2417,
      "doc": 2418,
      "bele": 2419,
      "tek": 2420,
      "##entie": 2421,
      "##aste": 2422,
      "enige": 2423,
      "##book": 2424,
      "kijken": 2425,
      "moest": 2426,
      "100": 2427,
      "namelijk": 2428,
      "##att": 2429,
      "##her": 2430,
      "##emand": 2431,
      "mod": 2432,
      "Google": 2433,
      "##ologie": 2434,
      "hal": 2435,
      "##foon": 2436,
      "off": 2437,
      "bieden": 2438,
      "kind": 2439,
      "##ris": 2440,
      "##daag": 2441,
      "Europa": 2442,
      "Nieuw": 2443,
      "##ator": 2444,
      "eten": 2445,
      "##inde": 2446,
      "meeste": 2447,
      "at": 2448,
      "pres": 2449,
      "gebeur": 2450,
      "##oll": 2451,
      "##werkt": 2452,
      "Is": 2453,
      "vervol": 2454,
      "beschikbaar": 2455,
      "Inter": 2456,
      "veilig": 2457,
      "bestaat": 2458,
      "vriend": 2459,
      "##rik": 2460,
      "##idden": 2461,
      "##nemen": 2462,
      "kracht": 2463,
      "kort": 2464,
      "behand": 2465,
      "bedrijven": 2466,
      "vide": 2467,
      "##ern": 2468,
      "thuis": 2469,
      "int": 2470,
      "spelen": 2471,
      "product": 2472,
      "##unten": 2473,
      "nieuws": 2474,
      "helpen": 2475,
      "druk": 2476,
      "##AN": 2477,
      "onderste": 2478,
      "##gesteld": 2479,
      "##eed": 2480,
      "jij": 2481,
      "##amers": 2482,
      "##vangen": 2483,
      "##arde": 2484,
      "begin": 2485,
      "Nu": 2486,
      "pas": 2487,
      "##sterdam": 2488,
      "##oort": 2489,
      "voorzien": 2490,
      "##val": 2491,
      "##lex": 2492,
      "##ction": 2493,
      "##stellen": 2494,
      "rust": 2495,
      "vijf": 2496,
      "markt": 2497,
      "##ww": 2498,
      "aand": 2499,
      "##ijl": 2500,
      "##atieve": 2501,
      "school": 2502,
      "##aling": 2503,
      "##ry": 2504,
      "artikel": 2505,
      "vis": 2506,
      "vanuit": 2507,
      "##inden": 2508,
      "##ummer": 2509,
      "uitgeb": 2510,
      "systeem": 2511,
      "##oning": 2512,
      "##ips": 2513,
      "muziek": 2514,
      "genoeg": 2515,
      "##cces": 2516,
      "ongeveer": 2517,
      "gezien": 2518,
      "www": 2519,
      "##ung": 2520,
      "Ex": 2521,
      "last": 2522,
      "eenvoudig": 2523,
      "##bed": 2524,
      "Amsterdam": 2525,
      "zetten": 2526,
      "##pe": 2527,
      "dec": 2528,
      "##rakt": 2529,
      "reken": 2530,
      "iemand": 2531,
      "##ress": 2532,
      "##dige": 2533,
      "delen": 2534,
      "start": 2535,
      "##oden": 2536,
      "Ad": 2537,
      "bi": 2538,
      "eigenlijk": 2539,
      "miljoen": 2540,
      "##rak": 2541,
      "##ile": 2542,
      "##bel": 2543,
      "##atten": 2544,
      "public": 2545,
      "##derd": 2546,
      "199": 2547,
      "jouw": 2548,
      "##gelijk": 2549,
      "##iode": 2550,
      "fiet": 2551,
      "zoo": 2552,
      "##pass": 2553,
      "##name": 2554,
      "##ente": 2555,
      "##ime": 2556,
      "begon": 2557,
      "##uiste": 2558,
      "kor": 2559,
      "##erende": 2560,
      "verhaal": 2561,
      "##ash": 2562,
      "##bouw": 2563,
      "##regen": 2564,
      "##olen": 2565,
      "##cte": 2566,
      "##conom": 2567,
      "Gr": 2568,
      "##asten": 2569,
      "beetje": 2570,
      "##icro": 2571,
      "##antwoord": 2572,
      "geworden": 2573,
      "##ows": 2574,
      "##iverse": 2575,
      "##tent": 2576,
      "##vens": 2577,
      "zorgen": 2578,
      "##ommige": 2579,
      "du": 2580,
      "##sy": 2581,
      "##spro": 2582,
      "feit": 2583,
      "##oemd": 2584,
      "##ateg": 2585,
      "##gelopen": 2586,
      "##kamer": 2587,
      "energie": 2588,
      "##werpen": 2589,
      "##stellingen": 2590,
      "toek": 2591,
      "##ah": 2592,
      "web": 2593,
      "tran": 2594,
      "##uter": 2595,
      "##igde": 2596,
      "reden": 2597,
      "sche": 2598,
      "grootste": 2599,
      "mot": 2600,
      "##ple": 2601,
      "##igheid": 2602,
      "##schijn": 2603,
      "2013": 2604,
      "50": 2605,
      "lich": 2606,
      "neem": 2607,
      "lie": 2608,
      "conc": 2609,
      "##bal": 2610,
      "Par": 2611,
      "aanwe": 2612,
      "##reg": 2613,
      "minuten": 2614,
      "##ath": 2615,
      "lekker": 2616,
      "##spre": 2617,
      "misschien": 2618,
      "pop": 2619,
      "##orp": 2620,
      "dro": 2621,
      "kosten": 2622,
      "##IN": 2623,
      "politie": 2624,
      "\",": 2625,
      "##up": 2626,
      "Daarnaast": 2627,
      "succes": 2628,
      "dienst": 2629,
      "##ames": 2630,
      "##esch": 2631,
      "plaatsen": 2632,
      "voed": 2633,
      "zat": 2634,
      "God": 2635,
      "24": 2636,
      "##oepen": 2637,
      "juiste": 2638,
      "##ix": 2639,
      "inf": 2640,
      ".'": 2641,
      "Wel": 2642,
      "ziet": 2643,
      "tro": 2644,
      "##min": 2645,
      "##issie": 2646,
      "##DF": 2647,
      "rec": 2648,
      "kunst": 2649,
      "##nemers": 2650,
      "volledig": 2651,
      "##ider": 2652,
      "Cl": 2653,
      "bru": 2654,
      "##sc": 2655,
      "##elijkheid": 2656,
      "eerder": 2657,
      "##leven": 2658,
      "##abl": 2659,
      "hoge": 2660,
      "mens": 2661,
      "adv": 2662,
      "kleur": 2663,
      "mogen": 2664,
      "##delen": 2665,
      "##ober": 2666,
      "##ue": 2667,
      "dicht": 2668,
      "lopen": 2669,
      "maan": 2670,
      "##vorm": 2671,
      "##reeg": 2672,
      "##erde": 2673,
      "voet": 2674,
      "geleden": 2675,
      "loc": 2676,
      "lijkt": 2677,
      "stu": 2678,
      "stellen": 2679,
      "team": 2680,
      "hart": 2681,
      "wh": 2682,
      "soms": 2683,
      "##ites": 2684,
      "uiter": 2685,
      "langs": 2686,
      "vakantie": 2687,
      "ontde": 2688,
      "idee": 2689,
      "lange": 2690,
      "geïn": 2691,
      "##rom": 2692,
      "##ouwd": 2693,
      "Sh": 2694,
      "##iele": 2695,
      "stem": 2696,
      "vlie": 2697,
      "2011": 2698,
      "dieren": 2699,
      "##onde": 2700,
      "##ruct": 2701,
      "anderen": 2702,
      "zei": 2703,
      "leu": 2704,
      "Mijn": 2705,
      "volgen": 2706,
      "',": 2707,
      "Wanneer": 2708,
      "ha": 2709,
      "##orie": 2710,
      "wijze": 2711,
      "##keur": 2712,
      "woon": 2713,
      "##leden": 2714,
      "aller": 2715,
      "betre": 2716,
      "App": 2717,
      "reis": 2718,
      "##erecht": 2719,
      "##menten": 2720,
      "jong": 2721,
      "rij": 2722,
      "##uurt": 2723,
      "##gemeen": 2724,
      "probleem": 2725,
      "##inc": 2726,
      "voldoen": 2727,
      "toekomst": 2728,
      "dingen": 2729,
      "kr": 2730,
      "kreeg": 2731,
      "Niet": 2732,
      "ab": 2733,
      "pos": 2734,
      "verbet": 2735,
      "bepaalde": 2736,
      "Zij": 2737,
      "insp": 2738,
      "##oth": 2739,
      "##oegen": 2740,
      "diverse": 2741,
      "cons": 2742,
      "Onze": 2743,
      "Meer": 2744,
      "##dracht": 2745,
      "##oerd": 2746,
      "ervaring": 2747,
      "beve": 2748,
      "##elling": 2749,
      "##punt": 2750,
      "##fen": 2751,
      "vader": 2752,
      "##ute": 2753,
      "kans": 2754,
      "dezelfde": 2755,
      "##oftware": 2756,
      "##iem": 2757,
      "zom": 2758,
      "Toen": 2759,
      "omgeving": 2760,
      "##ilijk": 2761,
      "middel": 2762,
      "eil": 2763,
      "##aaf": 2764,
      "project": 2765,
      "Volgens": 2766,
      "##vel": 2767,
      "##orgt": 2768,
      "onbe": 2769,
      "internation": 2770,
      "contro": 2771,
      "##ica": 2772,
      "gelegen": 2773,
      "\".": 2774,
      "oud": 2775,
      "##uil": 2776,
      "##ienden": 2777,
      "##iew": 2778,
      "21": 2779,
      "##ling": 2780,
      "beper": 2781,
      "##red": 2782,
      "hoogte": 2783,
      "##ril": 2784,
      "##ines": 2785,
      "hulp": 2786,
      "Pr": 2787,
      "you": 2788,
      "##eeuw": 2789,
      "combin": 2790,
      "Con": 2791,
      "tw": 2792,
      "##gegeven": 2793,
      "##ific": 2794,
      "moeilijk": 2795,
      "kiezen": 2796,
      "train": 2797,
      "financ": 2798,
      "Den": 2799,
      "##veren": 2800,
      "red": 2801,
      "PDF": 2802,
      "landen": 2803,
      "telefoon": 2804,
      "la": 2805,
      "not": 2806,
      "procent": 2807,
      "##schappen": 2808,
      "gra": 2809,
      "##bruik": 2810,
      "geheel": 2811,
      "familie": 2812,
      "##wn": 2813,
      "##anu": 2814,
      "aanwezig": 2815,
      "sinds": 2816,
      "aandacht": 2817,
      "##ico": 2818,
      "liggen": 2819,
      "naast": 2820,
      "##port": 2821,
      "geweld": 2822,
      "##ession": 2823,
      "##leg": 2824,
      "##heids": 2825,
      "lid": 2826,
      "los": 2827,
      "##ograf": 2828,
      "onge": 2829,
      "belangrijke": 2830,
      "oploss": 2831,
      "imp": 2832,
      "juist": 2833,
      "Wind": 2834,
      "##aris": 2835,
      "##indelijk": 2836,
      "##matig": 2837,
      "maanden": 2838,
      "##useum": 2839,
      "##yn": 2840,
      "groter": 2841,
      "daarom": 2842,
      "Me": 2843,
      "form": 2844,
      "##aap": 2845,
      "problemen": 2846,
      "##inst": 2847,
      "sport": 2848,
      "levens": 2849,
      "##hal": 2850,
      "##oekt": 2851,
      "##oemen": 2852,
      "denken": 2853,
      "##rouwen": 2854,
      "##itt": 2855,
      "##vent": 2856,
      "##schijnlijk": 2857,
      "teken": 2858,
      "weken": 2859,
      "##dst": 2860,
      "kaart": 2861,
      "##kant": 2862,
      "##ake": 2863,
      "activ": 2864,
      "##iers": 2865,
      "##kk": 2866,
      "voorkomen": 2867,
      "##schrij": 2868,
      "oog": 2869,
      "##auw": 2870,
      "verst": 2871,
      "wilde": 2872,
      "##ld": 2873,
      "##ukk": 2874,
      "plek": 2875,
      "les": 2876,
      "prakt": 2877,
      "blijkt": 2878,
      "gar": 2879,
      "##ctor": 2880,
      "avond": 2881,
      "##dem": 2882,
      "##pel": 2883,
      "##ging": 2884,
      "zaken": 2885,
      "super": 2886,
      "sterk": 2887,
      "##oit": 2888,
      "waarmee": 2889,
      "##iment": 2890,
      "onderwijs": 2891,
      "klaar": 2892,
      "##ette": 2893,
      "##aalt": 2894,
      "zee": 2895,
      "waarde": 2896,
      "2010": 2897,
      "perf": 2898,
      "mei": 2899,
      "appar": 2900,
      "##anen": 2901,
      "vandaag": 2902,
      "verkl": 2903,
      "##ager": 2904,
      "lezen": 2905,
      "schil": 2906,
      "Ben": 2907,
      "gevoel": 2908,
      "gemakkelijk": 2909,
      "lichaam": 2910,
      "leren": 2911,
      "norm": 2912,
      "uitgebre": 2913,
      "ieder": 2914,
      "##standig": 2915,
      "##iveau": 2916,
      "overeen": 2917,
      "##uele": 2918,
      "verantwoord": 2919,
      "##schen": 2920,
      "gebruikers": 2921,
      "vrouwen": 2922,
      "mogelijkheden": 2923,
      "flip": 2924,
      "econom": 2925,
      "Zijn": 2926,
      "moeder": 2927,
      "kru": 2928,
      "waarop": 2929,
      "vrienden": 2930,
      "arch": 2931,
      "Sam": 2932,
      "woord": 2933,
      "##etjes": 2934,
      "stud": 2935,
      "##stuk": 2936,
      "##wor": 2937,
      "##igt": 2938,
      "##iger": 2939,
      "links": 2940,
      "vers": 2941,
      "##iedenis": 2942,
      "##zetten": 2943,
      "acht": 2944,
      "##adat": 2945,
      "##urende": 2946,
      "keuze": 2947,
      "22": 2948,
      "blee": 2949,
      "it": 2950,
      "ervoor": 2951,
      "##plaats": 2952,
      "Ant": 2953,
      "Windows": 2954,
      "as": 2955,
      "hard": 2956,
      "##maken": 2957,
      "##uken": 2958,
      "voorb": 2959,
      "meerdere": 2960,
      "denk": 2961,
      "gec": 2962,
      "##old": 2963,
      "##gericht": 2964,
      "boeken": 2965,
      "versie": 2966,
      "toepass": 2967,
      "kamer": 2968,
      "nacht": 2969,
      "##druk": 2970,
      "cult": 2971,
      "##imaal": 2972,
      "organisatie": 2973,
      "##ight": 2974,
      "video": 2975,
      "di": 2976,
      "##rip": 2977,
      "##uld": 2978,
      "gener": 2979,
      "geloof": 2980,
      "leuke": 2981,
      "zelfde": 2982,
      "2009": 2983,
      "ro": 2984,
      "gezond": 2985,
      "ouders": 2986,
      "##zing": 2987,
      "ontwikkeling": 2988,
      "betekent": 2989,
      "zoeken": 2990,
      "beide": 2991,
      "wen": 2992,
      "hog": 2993,
      "##inter": 2994,
      "2014": 2995,
      "##organis": 2996,
      "verwacht": 2997,
      "media": 2998,
      "wand": 2999,
      "##burg": 3000,
      "And": 3001,
      "zorgt": 3002,
      "lok": 3003,
      "vergelijk": 3004,
      "##ima": 3005,
      "enkel": 3006,
      "##ete": 3007,
      "iP": 3008,
      "mon": 3009,
      "terecht": 3010,
      "mob": 3011,
      "bijzonder": 3012,
      "##sland": 3013,
      "##arket": 3014,
      "elekt": 3015,
      "afgelopen": 3016,
      "blog": 3017,
      "vervolgens": 3018,
      "##ser": 3019,
      "##tt": 3020,
      "##alist": 3021,
      "##anuari": 3022,
      "dik": 3023,
      "planten": 3024,
      "maakte": 3025,
      "Men": 3026,
      "Se": 3027,
      "Veel": 3028,
      "##koop": 3029,
      "klim": 3030,
      "Ste": 3031,
      "waarom": 3032,
      "##aus": 3033,
      "##rijzen": 3034,
      "##AR": 3035,
      "##ars": 3036,
      "##uni": 3037,
      "pap": 3038,
      "##vloed": 3039,
      "Amerikaanse": 3040,
      "##rist": 3041,
      "##raak": 3042,
      "##lei": 3043,
      "ondersteun": 3044,
      "##hankelijk": 3045,
      "##wezen": 3046,
      "##ptem": 3047,
      "##arch": 3048,
      "toegang": 3049,
      "##erken": 3050,
      "plan": 3051,
      "materi": 3052,
      "##kun": 3053,
      "periode": 3054,
      "##aurant": 3055,
      "vij": 3056,
      "##ende": 3057,
      "##room": 3058,
      "leden": 3059,
      "23": 3060,
      "em": 3061,
      "##rekken": 3062,
      "##abel": 3063,
      "bouw": 3064,
      "##ain": 3065,
      "##off": 3066,
      "##ivid": 3067,
      "##ptember": 3068,
      "opnieuw": 3069,
      "##iënten": 3070,
      "##kop": 3071,
      "##ene": 3072,
      "enorm": 3073,
      "zul": 3074,
      "##pers": 3075,
      "##dent": 3076,
      "zoveel": 3077,
      "vroeg": 3078,
      "popul": 3079,
      "gevonden": 3080,
      "schoon": 3081,
      "computer": 3082,
      "serie": 3083,
      "present": 3084,
      "##inder": 3085,
      "##duc": 3086,
      "band": 3087,
      "verbl": 3088,
      "##ots": 3089,
      "ontstaan": 3090,
      "beginnen": 3091,
      "Online": 3092,
      "bloed": 3093,
      "tien": 3094,
      "meter": 3095,
      "autom": 3096,
      "gemeente": 3097,
      "midden": 3098,
      "ogen": 3099,
      "prec": 3100,
      "##umenten": 3101,
      "##berg": 3102,
      "##lub": 3103,
      "Ph": 3104,
      "##gevoerd": 3105,
      "merk": 3106,
      "software": 3107,
      "##opt": 3108,
      "tekst": 3109,
      "##iter": 3110,
      "algemeen": 3111,
      "with": 3112,
      "Tijdens": 3113,
      "max": 3114,
      "draa": 3115,
      "##middels": 3116,
      "bad": 3117,
      "log": 3118,
      "sommige": 3119,
      "mogelijkheid": 3120,
      "prachtige": 3121,
      "##verd": 3122,
      "person": 3123,
      "ges": 3124,
      "##kw": 3125,
      "##artement": 3126,
      "profession": 3127,
      "einde": 3128,
      "##lement": 3129,
      "stond": 3130,
      "##volle": 3131,
      "tuin": 3132,
      "makkelijk": 3133,
      "zin": 3134,
      "echte": 3135,
      "don": 3136,
      "jou": 3137,
      "##zon": 3138,
      "uite": 3139,
      "##uss": 3140,
      "##werkers": 3141,
      "bezoekers": 3142,
      "##anderen": 3143,
      "derde": 3144,
      "##fin": 3145,
      "##zer": 3146,
      "##cties": 3147,
      "Jan": 3148,
      "verv": 3149,
      "##jecten": 3150,
      "individ": 3151,
      "##ST": 3152,
      "##wege": 3153,
      "##anks": 3154,
      "tal": 3155,
      "##ukkig": 3156,
      "Ter": 3157,
      "##rop": 3158,
      "genoemd": 3159,
      "belangrijkste": 3160,
      "##oemde": 3161,
      "verzam": 3162,
      "diensten": 3163,
      "Hol": 3164,
      "bezig": 3165,
      "commun": 3166,
      "cook": 3167,
      "##deeld": 3168,
      "that": 3169,
      "##uigen": 3170,
      "##utt": 3171,
      "##slagen": 3172,
      "houdt": 3173,
      "##ype": 3174,
      "januari": 3175,
      "park": 3176,
      "##EL": 3177,
      "huidige": 3178,
      "konden": 3179,
      "##etail": 3180,
      "all": 3181,
      "geschikt": 3182,
      "##acebook": 3183,
      "##reef": 3184,
      "##anning": 3185,
      "digitale": 3186,
      "waarvan": 3187,
      "winkel": 3188,
      "dood": 3189,
      "Cent": 3190,
      "aard": 3191,
      "gevallen": 3192,
      "kijk": 3193,
      "dank": 3194,
      "Lees": 3195,
      "##ET": 3196,
      "interess": 3197,
      "Comm": 3198,
      "waarschijnlijk": 3199,
      "ontvang": 3200,
      "##mming": 3201,
      "##bele": 3202,
      "##goed": 3203,
      "##ino": 3204,
      "besp": 3205,
      "persoonlijke": 3206,
      "bedo": 3207,
      "nood": 3208,
      "sim": 3209,
      "halen": 3210,
      "##tes": 3211,
      "##wijf": 3212,
      "april": 3213,
      "##ox": 3214,
      "verzeker": 3215,
      "##rijf": 3216,
      "september": 3217,
      "account": 3218,
      "tr": 3219,
      "##ock": 3220,
      "##ux": 3221,
      "plat": 3222,
      "vond": 3223,
      "wet": 3224,
      "##won": 3225,
      "##20": 3226,
      "leeft": 3227,
      "out": 3228,
      "post": 3229,
      "DE": 3230,
      "Or": 3231,
      "vle": 3232,
      "##view": 3233,
      "meteen": 3234,
      "daarna": 3235,
      "##staande": 3236,
      "##rein": 3237,
      "heen": 3238,
      "##grond": 3239,
      "Ital": 3240,
      "Twee": 3241,
      "korte": 3242,
      "##issen": 3243,
      "situ": 3244,
      "##erend": 3245,
      "##baarheid": 3246,
      "priv": 3247,
      "##clusief": 3248,
      "kap": 3249,
      "##aut": 3250,
      "##tjes": 3251,
      "##erst": 3252,
      "##fort": 3253,
      "##ise": 3254,
      "##izoen": 3255,
      "##kelijk": 3256,
      "##fer": 3257,
      "België": 3258,
      "##izen": 3259,
      "##co": 3260,
      "slecht": 3261,
      "co": 3262,
      "##oi": 3263,
      "##eelden": 3264,
      "ontvangen": 3265,
      "Micro": 3266,
      "Tot": 3267,
      "##met": 3268,
      "##ish": 3269,
      "gevangen": 3270,
      "hoeveel": 3271,
      "neer": 3272,
      "##iep": 3273,
      "##afel": 3274,
      "##stof": 3275,
      "##ama": 3276,
      "##ruim": 3277,
      "nauw": 3278,
      "##reed": 3279,
      "##ozen": 3280,
      "genieten": 3281,
      "ac": 3282,
      "amb": 3283,
      "disc": 3284,
      "Ind": 3285,
      "##plaatst": 3286,
      "dru": 3287,
      "half": 3288,
      "EU": 3289,
      "##ai": 3290,
      "Daarom": 3291,
      "brand": 3292,
      "Frank": 3293,
      "Veren": 3294,
      "juni": 3295,
      "standaard": 3296,
      "Sc": 3297,
      "##sluit": 3298,
      "##rift": 3299,
      "Dus": 3300,
      "##oy": 3301,
      "veroor": 3302,
      "verkrij": 3303,
      "samenwerking": 3304,
      "bus": 3305,
      "kar": 3306,
      "##sk": 3307,
      "##ioen": 3308,
      "down": 3309,
      "198": 3310,
      "neemt": 3311,
      "zes": 3312,
      "wedst": 3313,
      "ondersche": 3314,
      "indruk": 3315,
      "Gel": 3316,
      "sec": 3317,
      "40": 3318,
      "Wie": 3319,
      "##50": 3320,
      "##oppen": 3321,
      "##spron": 3322,
      "gehad": 3323,
      "ziek": 3324,
      "bron": 3325,
      "kil": 3326,
      "##kte": 3327,
      "bestuur": 3328,
      "buurt": 3329,
      "##bren": 3330,
      "verr": 3331,
      "personen": 3332,
      "sociale": 3333,
      "kom": 3334,
      "aanp": 3335,
      "klant": 3336,
      "precies": 3337,
      "imm": 3338,
      "##apen": 3339,
      "hoop": 3340,
      "loop": 3341,
      "ent": 3342,
      "##ulier": 3343,
      "##acties": 3344,
      "Su": 3345,
      "Engel": 3346,
      "rekening": 3347,
      "##ktober": 3348,
      "Boven": 3349,
      "ooit": 3350,
      "##uig": 3351,
      "scherm": 3352,
      "Zelf": 3353,
      "Verder": 3354,
      "##amera": 3355,
      "maart": 3356,
      "##sluiten": 3357,
      "Klik": 3358,
      "Joh": 3359,
      "onver": 3360,
      "moder": 3361,
      "##eens": 3362,
      "laag": 3363,
      "Car": 3364,
      "##woordig": 3365,
      "bekijken": 3366,
      "Laat": 3367,
      "##offen": 3368,
      "indien": 3369,
      "betalen": 3370,
      "Tw": 3371,
      "my": 3372,
      "valt": 3373,
      "##jaar": 3374,
      "toev": 3375,
      "##mail": 3376,
      "##zier": 3377,
      "##ijs": 3378,
      "opdracht": 3379,
      "hoeft": 3380,
      "##ologische": 3381,
      "restaurant": 3382,
      "rijk": 3383,
      "##olf": 3384,
      "##ikken": 3385,
      "arbe": 3386,
      "##reek": 3387,
      "cor": 3388,
      "pe": 3389,
      "##uldig": 3390,
      "##appen": 3391,
      "handen": 3392,
      "kost": 3393,
      "##ged": 3394,
      "keuken": 3395,
      "voldoende": 3396,
      "Facebook": 3397,
      "Net": 3398,
      "feest": 3399,
      "##roken": 3400,
      "voordat": 3401,
      "##eller": 3402,
      "Ont": 3403,
      "meestal": 3404,
      "Noord": 3405,
      "voorbeeld": 3406,
      "exper": 3407,
      "##soft": 3408,
      "##aardig": 3409,
      "ondernem": 3410,
      "##anken": 3411,
      "proces": 3412,
      "regio": 3413,
      "ass": 3414,
      "game": 3415,
      "##etter": 3416,
      "##utie": 3417,
      "kleuren": 3418,
      "kwamen": 3419,
      "jonge": 3420,
      "New": 3421,
      "##otheek": 3422,
      "##ning": 3423,
      "##ose": 3424,
      "##sloten": 3425,
      "##zaak": 3426,
      "##staat": 3427,
      "##stem": 3428,
      "overzicht": 3429,
      "bal": 3430,
      "##elk": 3431,
      "##iende": 3432,
      "centr": 3433,
      "nation": 3434,
      "sk": 3435,
      "##vallen": 3436,
      "eventu": 3437,
      "fr": 3438,
      "##OR": 3439,
      "##denten": 3440,
      "netwerk": 3441,
      "ij": 3442,
      "##bet": 3443,
      "##istor": 3444,
      "mannen": 3445,
      "##iversiteit": 3446,
      "car": 3447,
      "##pr": 3448,
      "aant": 3449,
      "wijzig": 3450,
      "##ule": 3451,
      "##ample": 3452,
      "service": 3453,
      "rechts": 3454,
      "krijg": 3455,
      "##feer": 3456,
      "##ull": 3457,
      "begint": 3458,
      "offic": 3459,
      "Naast": 3460,
      "##plicht": 3461,
      "##merken": 3462,
      "bescherm": 3463,
      "passen": 3464,
      "##wegen": 3465,
      "niveau": 3466,
      "kinder": 3467,
      "december": 3468,
      "##dam": 3469,
      "kerk": 3470,
      "punt": 3471,
      "wee": 3472,
      "verschil": 3473,
      "bevat": 3474,
      "zwem": 3475,
      "Heb": 3476,
      "schrijven": 3477,
      "##licht": 3478,
      "##lucht": 3479,
      "internationale": 3480,
      "Zuid": 3481,
      "##ras": 3482,
      "##kan": 3483,
      "##dra": 3484,
      "##ieken": 3485,
      "##stad": 3486,
      "stelt": 3487,
      "daarvan": 3488,
      "##ugd": 3489,
      "##lijn": 3490,
      "##water": 3491,
      "##zak": 3492,
      "##edia": 3493,
      "##iënt": 3494,
      "toon": 3495,
      "##iti": 3496,
      "fijn": 3497,
      "##ole": 3498,
      "##ureau": 3499,
      "specif": 3500,
      "activiteiten": 3501,
      "nummer": 3502,
      "##ble": 3503,
      "zichzelf": 3504,
      "langer": 3505,
      "##bre": 3506,
      "uitvo": 3507,
      "bank": 3508,
      "##nel": 3509,
      "##eiden": 3510,
      "horen": 3511,
      "oktober": 3512,
      "##raad": 3513,
      "##ondag": 3514,
      "Vanaf": 3515,
      "uiteindelijk": 3516,
      "hoor": 3517,
      "##AT": 3518,
      "##ustus": 3519,
      "positie": 3520,
      "bre": 3521,
      "che": 3522,
      "##stal": 3523,
      "##atisch": 3524,
      "inhoud": 3525,
      "waaronder": 3526,
      "##ieve": 3527,
      "##erdag": 3528,
      "collectie": 3529,
      "##tegr": 3530,
      "##komt": 3531,
      "reag": 3532,
      "bereiken": 3533,
      "##oelen": 3534,
      "##rucht": 3535,
      "afsp": 3536,
      "Tur": 3537,
      "pass": 3538,
      "ris": 3539,
      "zet": 3540,
      "##groep": 3541,
      "gedurende": 3542,
      "install": 3543,
      "publiceren": 3544,
      "slag": 3545,
      "verkoop": 3546,
      "##----": 3547,
      "advies": 3548,
      "wacht": 3549,
      "hetzelfde": 3550,
      "verspre": 3551,
      "##otter": 3552,
      "##okk": 3553,
      "Vlaam": 3554,
      "Ga": 3555,
      "are": 3556,
      "##inding": 3557,
      "woorden": 3558,
      "##mal": 3559,
      "##ote": 3560,
      "example": 3561,
      "geschiedenis": 3562,
      "Open": 3563,
      "lijn": 3564,
      "##gew": 3565,
      "##oto": 3566,
      "##acil": 3567,
      "directe": 3568,
      "fab": 3569,
      "lijst": 3570,
      "##sm": 3571,
      "##ous": 3572,
      "Nederlands": 3573,
      "Brit": 3574,
      "dient": 3575,
      "resultaat": 3576,
      "##otte": 3577,
      "gevolg": 3578,
      "##zondere": 3579,
      "inmiddels": 3580,
      "vlak": 3581,
      "##schappelijke": 3582,
      "Microsoft": 3583,
      "by": 3584,
      "doe": 3585,
      "km": 3586,
      "##rol": 3587,
      "##apt": 3588,
      "##ourn": 3589,
      "speciale": 3590,
      "nov": 3591,
      "begele": 3592,
      "allerlei": 3593,
      "warm": 3594,
      "zicht": 3595,
      "##chine": 3596,
      "##ures": 3597,
      "##isme": 3598,
      "scher": 3599,
      "locatie": 3600,
      "!!": 3601,
      "camp": 3602,
      "##kijk": 3603,
      "##kund": 3604,
      "stijl": 3605,
      "Want": 3606,
      "invloed": 3607,
      "##nam": 3608,
      "##arige": 3609,
      "26": 3610,
      "Gu": 3611,
      "zag": 3612,
      "dem": 3613,
      "##gesch": 3614,
      "betrokken": 3615,
      "Produ": 3616,
      "polit": 3617,
      "##gelegd": 3618,
      "##ratie": 3619,
      "##lang": 3620,
      "##vert": 3621,
      "beheer": 3622,
      "publiek": 3623,
      "Fl": 3624,
      "##ring": 3625,
      "daarmee": 3626,
      "moesten": 3627,
      "proberen": 3628,
      "aanbod": 3629,
      "Hel": 3630,
      "daarbij": 3631,
      "##eci": 3632,
      "juli": 3633,
      "wachten": 3634,
      "ervan": 3635,
      "bestellen": 3636,
      "##irc": 3637,
      "##oeid": 3638,
      "##ooi": 3639,
      "prov": 3640,
      "totaal": 3641,
      "meis": 3642,
      "betrek": 3643,
      "##bruari": 3644,
      "bur": 3645,
      "##past": 3646,
      "term": 3647,
      "oplossing": 3648,
      "..": 3649,
      "Gen": 3650,
      "taal": 3651,
      "kamp": 3652,
      "wezen": 3653,
      "##ruik": 3654,
      "##uurd": 3655,
      "##ugustus": 3656,
      "##oegd": 3657,
      "function": 3658,
      "dier": 3659,
      "##gde": 3660,
      "##oer": 3661,
      "##leur": 3662,
      "appartement": 3663,
      "regelmatig": 3664,
      ":/": 3665,
      "bijzondere": 3666,
      "##standigheden": 3667,
      "dorp": 3668,
      "trouw": 3669,
      "##kens": 3670,
      "adres": 3671,
      "Zw": 3672,
      "zwaar": 3673,
      "##gels": 3674,
      "##ork": 3675,
      "tevens": 3676,
      "##gemen": 3677,
      "stil": 3678,
      "##amm": 3679,
      "##ionele": 3680,
      "##que": 3681,
      "##indt": 3682,
      "##gend": 3683,
      "2008": 3684,
      "##akket": 3685,
      "seizoen": 3686,
      "combinatie": 3687,
      "Geen": 3688,
      "##ectie": 3689,
      "deed": 3690,
      "veranderen": 3691,
      "gebracht": 3692,
      "##estiv": 3693,
      "Gebruik": 3694,
      "##ttp": 3695,
      "Jap": 3696,
      "##aw": 3697,
      "##achte": 3698,
      "##agement": 3699,
      "contra": 3700,
      "kennen": 3701,
      "Can": 3702,
      "ontwerp": 3703,
      "gezell": 3704,
      "cookies": 3705,
      "rad": 3706,
      "##zegd": 3707,
      "aarde": 3708,
      "tus": 3709,
      "##keer": 3710,
      "##itel": 3711,
      "##aarten": 3712,
      "##aakte": 3713,
      "##ande": 3714,
      "##ges": 3715,
      "anal": 3716,
      "afstand": 3717,
      "##asting": 3718,
      "##own": 3719,
      "Touch": 3720,
      "##rijven": 3721,
      "Indien": 3722,
      "macht": 3723,
      "vorige": 3724,
      "Min": 3725,
      "test": 3726,
      "##verlen": 3727,
      "strijd": 3728,
      "##idt": 3729,
      "afw": 3730,
      "heerlijk": 3731,
      "Ber": 3732,
      "zak": 3733,
      "##ift": 3734,
      "##gemene": 3735,
      "##par": 3736,
      "##zingen": 3737,
      "schade": 3738,
      "##beh": 3739,
      "://": 3740,
      "gaf": 3741,
      "##sh": 3742,
      "##lopen": 3743,
      "##ieel": 3744,
      "gekomen": 3745,
      "voorwaarden": 3746,
      "afd": 3747,
      "bestaande": 3748,
      "richting": 3749,
      "##gelijke": 3750,
      "##woorden": 3751,
      "##raken": 3752,
      "begrij": 3753,
      "##gebied": 3754,
      "bar": 3755,
      "http": 3756,
      "koning": 3757,
      "##middel": 3758,
      "##cel": 3759,
      "##ieven": 3760,
      "##rijden": 3761,
      "##ages": 3762,
      "Art": 3763,
      "##danks": 3764,
      "##oond": 3765,
      "groepen": 3766,
      "pot": 3767,
      "##kere": 3768,
      "##isen": 3769,
      "##merk": 3770,
      "woning": 3771,
      "downlo": 3772,
      "Bovendien": 3773,
      "Sy": 3774,
      "verdw": 3775,
      "bekende": 3776,
      "antwoord": 3777,
      "28": 3778,
      "gingen": 3779,
      "vertrouwen": 3780,
      "artikelen": 3781,
      "klimaat": 3782,
      "You": 3783,
      "camera": 3784,
      "hor": 3785,
      "productie": 3786,
      "verbeteren": 3787,
      "namen": 3788,
      "##zorg": 3789,
      "##che": 3790,
      "opgenomen": 3791,
      "data": 3792,
      "document": 3793,
      "Kon": 3794,
      "Man": 3795,
      "diep": 3796,
      "tent": 3797,
      "vari": 3798,
      "##bad": 3799,
      "##ES": 3800,
      "##inkt": 3801,
      "##erse": 3802,
      "minister": 3803,
      "slaap": 3804,
      "prima": 3805,
      "Duitse": 3806,
      "toepassing": 3807,
      "past": 3808,
      "sele": 3809,
      "##avond": 3810,
      "##ING": 3811,
      "##richt": 3812,
      "geplaatst": 3813,
      "uitste": 3814,
      "leggen": 3815,
      "kamers": 3816,
      "##ielen": 3817,
      "##kracht": 3818,
      "voorbij": 3819,
      "genomen": 3820,
      "##centrum": 3821,
      "ontwikkeld": 3822,
      "geldt": 3823,
      "ople": 3824,
      "##eerden": 3825,
      "stam": 3826,
      "geluid": 3827,
      "bepaald": 3828,
      "studenten": 3829,
      "##ance": 3830,
      "schreef": 3831,
      "comfort": 3832,
      "bestand": 3833,
      "27": 3834,
      "##bb": 3835,
      "voeren": 3836,
      "Omdat": 3837,
      "Sl": 3838,
      "##markt": 3839,
      "##dr": 3840,
      "inve": 3841,
      "##asse": 3842,
      "##arketing": 3843,
      "Tra": 3844,
      "email": 3845,
      "reeds": 3846,
      "##stemming": 3847,
      "##isteren": 3848,
      "inspir": 3849,
      "oe": 3850,
      "vallen": 3851,
      "inn": 3852,
      "buitenland": 3853,
      "centrum": 3854,
      "##iemand": 3855,
      "Ap": 3856,
      "##iders": 3857,
      "##CH": 3858,
      "onderz": 3859,
      "bestelling": 3860,
      "vroe": 3861,
      "gasten": 3862,
      "meld": 3863,
      "rassen": 3864,
      "##zitter": 3865,
      "##ijven": 3866,
      "gehouden": 3867,
      "opleiding": 3868,
      "##ilige": 3869,
      "november": 3870,
      "##ude": 3871,
      "##orst": 3872,
      "tev": 3873,
      "##ijnt": 3874,
      "##ident": 3875,
      "Bekijk": 3876,
      "bedrijfs": 3877,
      "actief": 3878,
      "prijzen": 3879,
      "##ipl": 3880,
      "##aby": 3881,
      "design": 3882,
      "oorlog": 3883,
      "verblijf": 3884,
      "loopt": 3885,
      "##maat": 3886,
      "##eep": 3887,
      "2015": 3888,
      "betreft": 3889,
      "controle": 3890,
      "Per": 3891,
      "vanwege": 3892,
      "oper": 3893,
      "liefde": 3894,
      "Bar": 3895,
      "Bra": 3896,
      "##anger": 3897,
      "fir": 3898,
      "vaste": 3899,
      "##veld": 3900,
      "##zame": 3901,
      "hoger": 3902,
      "tusschen": 3903,
      "gast": 3904,
      "##ors": 3905,
      "##oeden": 3906,
      "##heen": 3907,
      "Lu": 3908,
      "ja": 3909,
      "##geld": 3910,
      "##lan": 3911,
      "##arten": 3912,
      "##reekt": 3913,
      "prest": 3914,
      "gebeurt": 3915,
      "lag": 3916,
      "##mak": 3917,
      "##tegen": 3918,
      "februari": 3919,
      "##ON": 3920,
      "plezier": 3921,
      "##oudige": 3922,
      "Toch": 3923,
      "##ora": 3924,
      "meth": 3925,
      "##ement": 3926,
      "##rib": 3927,
      "leveren": 3928,
      "eiland": 3929,
      "##vr": 3930,
      "##oeder": 3931,
      "##blad": 3932,
      "Apple": 3933,
      "il": 3934,
      "ald": 3935,
      "steun": 3936,
      "ob": 3937,
      "##school": 3938,
      "volgt": 3939,
      "Christ": 3940,
      "Pe": 3941,
      "Ten": 3942,
      "name": 3943,
      "##ieu": 3944,
      "##ampen": 3945,
      "gemidd": 3946,
      "resultaten": 3947,
      "##istische": 3948,
      "fiets": 3949,
      "zaterdag": 3950,
      "leeftijd": 3951,
      "##elaar": 3952,
      "##gemaakt": 3953,
      "Cont": 3954,
      "allen": 3955,
      "aangeb": 3956,
      "onderdeel": 3957,
      "##west": 3958,
      "##weging": 3959,
      "Holland": 3960,
      "can": 3961,
      "sfeer": 3962,
      "194": 3963,
      "##otterdam": 3964,
      "Har": 3965,
      "effect": 3966,
      "len": 3967,
      "zondag": 3968,
      "##ussel": 3969,
      "oorspron": 3970,
      "Duitsland": 3971,
      "Iedere": 3972,
      "punten": 3973,
      "richt": 3974,
      "zui": 3975,
      "##wink": 3976,
      "##boek": 3977,
      "zomer": 3978,
      "##aand": 3979,
      "##toe": 3980,
      "##lingen": 3981,
      "##genaam": 3982,
      "##idingen": 3983,
      "functie": 3984,
      "Qu": 3985,
      "##inken": 3986,
      "##igin": 3987,
      "stat": 3988,
      "rechter": 3989,
      "bestanden": 3990,
      "veranderingen": 3991,
      "##ructuur": 3992,
      "##gegevens": 3993,
      "Maak": 3994,
      "rijden": 3995,
      "##enn": 3996,
      "##plic": 3997,
      "medewerkers": 3998,
      "##fl": 3999,
      "##halen": 4000,
      "##ions": 4001,
      "ontwikkelen": 4002,
      "gericht": 4003,
      "mat": 4004,
      "##bum": 4005,
      "##IJ": 4006,
      "inclusief": 4007,
      "vern": 4008,
      "uitgevoerd": 4009,
      "##stemen": 4010,
      "leiden": 4011,
      "##avor": 4012,
      "technologie": 4013,
      "jur": 4014,
      "straat": 4015,
      "##pos": 4016,
      "##loos": 4017,
      "##iete": 4018,
      "reactie": 4019,
      "overheid": 4020,
      "toege": 4021,
      "updat": 4022,
      "La": 4023,
      "Natuur": 4024,
      "augustus": 4025,
      "geg": 4026,
      "bleek": 4027,
      "lokale": 4028,
      "wedstrijd": 4029,
      "Rome": 4030,
      "im": 4031,
      "##band": 4032,
      "##bank": 4033,
      "##waardig": 4034,
      "bericht": 4035,
      "speelt": 4036,
      "merken": 4037,
      "deur": 4038,
      "gezegd": 4039,
      "zeven": 4040,
      "persoonlijk": 4041,
      "##gent": 4042,
      "weder": 4043,
      "betere": 4044,
      "volledige": 4045,
      "individu": 4046,
      "II": 4047,
      "##loop": 4048,
      "hiervoor": 4049,
      "bepalen": 4050,
      "model": 4051,
      "begonnen": 4052,
      "Rotterdam": 4053,
      "Uw": 4054,
      "Waarom": 4055,
      "liet": 4056,
      "##weer": 4057,
      "##xt": 4058,
      "onaf": 4059,
      "##iviteit": 4060,
      "gesteld": 4061,
      "motor": 4062,
      "Frankrijk": 4063,
      "Neem": 4064,
      "breed": 4065,
      "##zijn": 4066,
      "##OS": 4067,
      "registr": 4068,
      "trekken": 4069,
      "Sinds": 4070,
      "zoekt": 4071,
      "##oenen": 4072,
      "websites": 4073,
      "Zoals": 4074,
      "Japan": 4075,
      "Dr": 4076,
      "momen": 4077,
      "##uut": 4078,
      "##aliseren": 4079,
      "Brussel": 4080,
      "praktijk": 4081,
      "tabl": 4082,
      "##orten": 4083,
      "situatie": 4084,
      "risico": 4085,
      "##azen": 4086,
      "##gin": 4087,
      "geve": 4088,
      "veren": 4089,
      "##repen": 4090,
      "##amb": 4091,
      "gebe": 4092,
      "rele": 4093,
      "zaak": 4094,
      "##naam": 4095,
      "##oom": 4096,
      "##vig": 4097,
      "studie": 4098,
      "honder": 4099,
      "rou": 4100,
      "##ille": 4101,
      "overtu": 4102,
      "thema": 4103,
      "geschreven": 4104,
      "brengt": 4105,
      "60": 4106,
      "Samen": 4107,
      "ed": 4108,
      "##ott": 4109,
      "gebas": 4110,
      "##uy": 4111,
      "##zel": 4112,
      "##gever": 4113,
      "plant": 4114,
      "this": 4115,
      "##dagen": 4116,
      "##urt": 4117,
      "##ruit": 4118,
      "boom": 4119,
      "liter": 4120,
      "##ike": 4121,
      "##sport": 4122,
      "groote": 4123,
      "Wer": 4124,
      "curs": 4125,
      "##keken": 4126,
      "2007": 4127,
      "##dienst": 4128,
      "aanbied": 4129,
      "mobiele": 4130,
      "Mon": 4131,
      "##mogelijk": 4132,
      "verplicht": 4133,
      "197": 4134,
      "koff": 4135,
      "##ografie": 4136,
      "mass": 4137,
      "##ities": 4138,
      "##okken": 4139,
      "##ecte": 4140,
      "Her": 4141,
      "##ield": 4142,
      "##wijzig": 4143,
      "komende": 4144,
      "partij": 4145,
      "aldus": 4146,
      "mult": 4147,
      "nadat": 4148,
      "spelers": 4149,
      "Des": 4150,
      "var": 4151,
      "##ane": 4152,
      "bezit": 4153,
      "resp": 4154,
      "und": 4155,
      "Amerika": 4156,
      "##estival": 4157,
      "bouwen": 4158,
      "vog": 4159,
      "##uim": 4160,
      "##elle": 4161,
      "moeite": 4162,
      "##raagd": 4163,
      "##ategorie": 4164,
      "Oost": 4165,
      "port": 4166,
      "##pagina": 4167,
      "tegelijk": 4168,
      "##tern": 4169,
      "ontm": 4170,
      "openen": 4171,
      "strand": 4172,
      "collega": 4173,
      "etc": 4174,
      "##ius": 4175,
      "##ja": 4176,
      "##ald": 4177,
      "##aringen": 4178,
      "verbonden": 4179,
      "verwijderen": 4180,
      "vest": 4181,
      "##teel": 4182,
      "const": 4183,
      "##able": 4184,
      "vrijdag": 4185,
      "financiële": 4186,
      "29": 4187,
      "erf": 4188,
      "##vlak": 4189,
      "wonen": 4190,
      "##10": 4191,
      "bevol": 4192,
      "leg": 4193,
      "##gave": 4194,
      "Internet": 4195,
      "500": 4196,
      "pijn": 4197,
      "war": 4198,
      "##wassen": 4199,
      "##inderen": 4200,
      "initi": 4201,
      "##aagd": 4202,
      "book": 4203,
      "##kanker": 4204,
      "bos": 4205,
      "zoon": 4206,
      "West": 4207,
      "helft": 4208,
      "behandeling": 4209,
      "##regelen": 4210,
      "Dank": 4211,
      "pan": 4212,
      "##ED": 4213,
      "ene": 4214,
      "elkander": 4215,
      "automatisch": 4216,
      "##asc": 4217,
      "2016": 4218,
      "verhalen": 4219,
      "won": 4220,
      "geest": 4221,
      "##agn": 4222,
      "behoef": 4223,
      "tradit": 4224,
      "unieke": 4225,
      "##straat": 4226,
      "##sych": 4227,
      "favor": 4228,
      "##aderen": 4229,
      "##mers": 4230,
      "##IS": 4231,
      "gede": 4232,
      "##spel": 4233,
      "sub": 4234,
      "Commissie": 4235,
      "indu": 4236,
      "aansp": 4237,
      "ern": 4238,
      "trans": 4239,
      "vir": 4240,
      "omstandigheden": 4241,
      "Haag": 4242,
      "histor": 4243,
      "##part": 4244,
      "onderwerp": 4245,
      "zieken": 4246,
      "perfect": 4247,
      "rapp": 4248,
      "##iness": 4249,
      "toer": 4250,
      "verband": 4251,
      "beroep": 4252,
      "Franse": 4253,
      "verantwoordelijk": 4254,
      "cultuur": 4255,
      "letter": 4256,
      "##lem": 4257,
      "stij": 4258,
      "jezelf": 4259,
      "Belgische": 4260,
      "Sams": 4261,
      "veroorz": 4262,
      "val": 4263,
      "##ogelijke": 4264,
      "##imale": 4265,
      "dagelijks": 4266,
      "wensen": 4267,
      "##fil": 4268,
      "spreken": 4269,
      "behulp": 4270,
      "betrekking": 4271,
      "Raad": 4272,
      "voordeel": 4273,
      "##hout": 4274,
      "##houding": 4275,
      "##voorwaarden": 4276,
      "prachtig": 4277,
      "veiligheid": 4278,
      "31": 4279,
      "##des": 4280,
      "##arts": 4281,
      "daardoor": 4282,
      "Staten": 4283,
      "moderne": 4284,
      "Mis": 4285,
      "fact": 4286,
      "so": 4287,
      "##iste": 4288,
      "##inen": 4289,
      "gebouw": 4290,
      "##oens": 4291,
      "eenvoudige": 4292,
      "Vlaamse": 4293,
      "Nog": 4294,
      "hy": 4295,
      "lees": 4296,
      "raad": 4297,
      "##will": 4298,
      "##ones": 4299,
      "begr": 4300,
      "##eeg": 4301,
      "partner": 4302,
      "Hotel": 4303,
      "Ke": 4304,
      "##kennen": 4305,
      "##gezet": 4306,
      "uitzicht": 4307,
      "##ranten": 4308,
      "tonen": 4309,
      "twijf": 4310,
      "##wijd": 4311,
      "##zijd": 4312,
      "##onnem": 4313,
      "##ics": 4314,
      "kleding": 4315,
      "tegenwoordig": 4316,
      "gekozen": 4317,
      "voedsel": 4318,
      "##kel": 4319,
      "##oze": 4320,
      "##formatie": 4321,
      "advis": 4322,
      "Hoewel": 4323,
      "glas": 4324,
      "economische": 4325,
      "papier": 4326,
      "wist": 4327,
      "gedeel": 4328,
      "Heer": 4329,
      "kwart": 4330,
      "bereik": 4331,
      "materiaal": 4332,
      "overal": 4333,
      "ouder": 4334,
      "Wor": 4335,
      "dw": 4336,
      "facil": 4337,
      "wijn": 4338,
      "##onderdag": 4339,
      "dochter": 4340,
      "Ja": 4341,
      "tafel": 4342,
      "##ps": 4343,
      "##tel": 4344,
      "optie": 4345,
      "Vand": 4346,
      "kent": 4347,
      "volkomen": 4348,
      "IN": 4349,
      "##kelijke": 4350,
      "##ition": 4351,
      "beelden": 4352,
      "jeugd": 4353,
      "klik": 4354,
      "##bli": 4355,
      "##komstig": 4356,
      "##vaart": 4357,
      "##teken": 4358,
      "origin": 4359,
      "tv": 4360,
      "tel": 4361,
      "reger": 4362,
      "##ical": 4363,
      "compl": 4364,
      "##ecten": 4365,
      "##visie": 4366,
      "innov": 4367,
      "##punten": 4368,
      "##ductie": 4369,
      "##waarde": 4370,
      "vertellen": 4371,
      "##intig": 4372,
      "smaak": 4373,
      "duizen": 4374,
      "fant": 4375,
      "##ners": 4376,
      "##gro": 4377,
      "##atal": 4378,
      "##ustr": 4379,
      "##ffende": 4380,
      "##schappelijk": 4381,
      "eilanden": 4382,
      "Eer": 4383,
      "hot": 4384,
      "koop": 4385,
      "mond": 4386,
      "rug": 4387,
      "vermeld": 4388,
      "have": 4389,
      "bevestig": 4390,
      "weekend": 4391,
      "baan": 4392,
      "niemand": 4393,
      "##tre": 4394,
      "##aai": 4395,
      "##iliteit": 4396,
      "##igens": 4397,
      "##randen": 4398,
      "natuurlijke": 4399,
      "speciaal": 4400,
      "zen": 4401,
      "##ower": 4402,
      "##DE": 4403,
      "stof": 4404,
      "geboren": 4405,
      "kenmerken": 4406,
      "partijen": 4407,
      "80": 4408,
      "kregen": 4409,
      "én": 4410,
      "projecten": 4411,
      "##hous": 4412,
      "behoor": 4413,
      "groei": 4414,
      "Ed": 4415,
      "OV": 4416,
      "##IT": 4417,
      "interactie": 4418,
      "regels": 4419,
      "bovendien": 4420,
      "##worpen": 4421,
      "voorbeelden": 4422,
      "Wh": 4423,
      "##rim": 4424,
      "##eloos": 4425,
      "##itief": 4426,
      "uiteen": 4427,
      "##wekken": 4428,
      "bood": 4429,
      "##ometer": 4430,
      "uitgebreid": 4431,
      "Konink": 4432,
      "kern": 4433,
      "vlo": 4434,
      "kanker": 4435,
      "afhankelijk": 4436,
      "Alles": 4437,
      "klass": 4438,
      "##wijzen": 4439,
      "strateg": 4440,
      "bewust": 4441,
      "gesprek": 4442,
      "Samsung": 4443,
      "kunsten": 4444,
      "##komsten": 4445,
      "levert": 4446,
      "dankzij": 4447,
      "immers": 4448,
      "##hr": 4449,
      "##oest": 4450,
      "##urr": 4451,
      "##aliseerd": 4452,
      "optreden": 4453,
      "gevolgen": 4454,
      "karakt": 4455,
      "Twitter": 4456,
      "gebaseerd": 4457,
      "Pa": 4458,
      "marketing": 4459,
      "wind": 4460,
      "##dering": 4461,
      "one": 4462,
      "regen": 4463,
      "##aster": 4464,
      "orde": 4465,
      "##iften": 4466,
      "##ommod": 4467,
      "steden": 4468,
      "politieke": 4469,
      "tevreden": 4470,
      "Bron": 4471,
      "mar": 4472,
      "##sn": 4473,
      "##ict": 4474,
      "##zo": 4475,
      "betrouw": 4476,
      "besluit": 4477,
      "##middelen": 4478,
      "Elke": 4479,
      "personeel": 4480,
      ".)": 4481,
      "Port": 4482,
      "Res": 4483,
      "Vrij": 4484,
      "Zie": 4485,
      "inzicht": 4486,
      "##schappij": 4487,
      "detail": 4488,
      "##kaart": 4489,
      "Super": 4490,
      "first": 4491,
      "gang": 4492,
      "your": 4493,
      "##adres": 4494,
      "daarvoor": 4495,
      "gekregen": 4496,
      "Prof": 4497,
      "uiteraard": 4498,
      "Aut": 4499,
      "rom": 4500,
      "##yl": 4501,
      "##óó": 4502,
      "##oper": 4503,
      "leiding": 4504,
      "##incip": 4505,
      "gebeuren": 4506,
      "mogelijke": 4507,
      "##prijs": 4508,
      "##kn": 4509,
      "##vrij": 4510,
      "##bes": 4511,
      "##gebruik": 4512,
      "technische": 4513,
      "Sm": 4514,
      "col": 4515,
      "eet": 4516,
      "##com": 4517,
      "##jabl": 4518,
      "##daan": 4519,
      "##AL": 4520,
      "##ID": 4521,
      "##||": 4522,
      "##ony": 4523,
      "uitzonder": 4524,
      "draag": 4525,
      "##orgd": 4526,
      "##ikking": 4527,
      "stappen": 4528,
      "ondersteuning": 4529,
      "##kunde": 4530,
      "sur": 4531,
      "##ère": 4532,
      "tem": 4533,
      "sturen": 4534,
      "##bert": 4535,
      "gedrag": 4536,
      "contin": 4537,
      "##adem": 4538,
      "Bed": 4539,
      "Sk": 4540,
      "##IE": 4541,
      "##60": 4542,
      "vooraf": 4543,
      "##onds": 4544,
      "afbeeld": 4545,
      "##rank": 4546,
      "vreem": 4547,
      "##rijke": 4548,
      "voert": 4549,
      "beleid": 4550,
      "jongeren": 4551,
      "Ut": 4552,
      "##oorte": 4553,
      "##ices": 4554,
      "tegenover": 4555,
      "dergelijke": 4556,
      "hoogste": 4557,
      "creë": 4558,
      "sterren": 4559,
      "relatie": 4560,
      "uitgebreide": 4561,
      "Verenigde": 4562,
      "Binnen": 4563,
      "Jul": 4564,
      "Via": 4565,
      "abs": 4566,
      "host": 4567,
      "us": 4568,
      "voordelen": 4569,
      "##iks": 4570,
      "bene": 4571,
      "webshop": 4572,
      "patiënten": 4573,
      "Nieuwe": 4574,
      "35": 4575,
      "dragen": 4576,
      "##erie": 4577,
      "##stra": 4578,
      "##onnen": 4579,
      "##oes": 4580,
      "##leerd": 4581,
      "blauw": 4582,
      "gezet": 4583,
      "##ront": 4584,
      "##chtend": 4585,
      "grotere": 4586,
      "bedoeld": 4587,
      "tijden": 4588,
      "verdien": 4589,
      "##itect": 4590,
      "##box": 4591,
      "##gaande": 4592,
      "corre": 4593,
      "!\"": 4594,
      "##ting": 4595,
      "##leet": 4596,
      "album": 4597,
      "##ici": 4598,
      "content": 4599,
      "beschikt": 4600,
      "bu": 4601,
      "ident": 4602,
      "pakket": 4603,
      "gepro": 4604,
      "##roid": 4605,
      "vooruit": 4606,
      "toegev": 4607,
      "##ations": 4608,
      "##gelegen": 4609,
      "kruis": 4610,
      "verkrijg": 4611,
      "Bo": 4612,
      "Oosten": 4613,
      "erop": 4614,
      "hond": 4615,
      "museum": 4616,
      "neg": 4617,
      "##gst": 4618,
      "beveilig": 4619,
      "from": 4620,
      "verlie": 4621,
      "bedrag": 4622,
      "##inks": 4623,
      "gelukkig": 4624,
      "sym": 4625,
      "Hierdoor": 4626,
      "specifieke": 4627,
      "berg": 4628,
      "##tussen": 4629,
      "##gere": 4630,
      "##atische": 4631,
      "##best": 4632,
      "All": 4633,
      "helpt": 4634,
      "herinn": 4635,
      "brow": 4636,
      "John": 4637,
      "Kar": 4638,
      "tips": 4639,
      "##wijk": 4640,
      "verster": 4641,
      "##vering": 4642,
      "ontsp": 4643,
      "volwassen": 4644,
      "##osc": 4645,
      "ervaren": 4646,
      "##zijde": 4647,
      "iPh": 4648,
      "bot": 4649,
      "sal": 4650,
      "##cess": 4651,
      "##kosten": 4652,
      "##kamers": 4653,
      "##vat": 4654,
      "defin": 4655,
      "opper": 4656,
      "##acy": 4657,
      "##kshop": 4658,
      "smart": 4659,
      "##ruimte": 4660,
      "industr": 4661,
      "Gal": 4662,
      "jarige": 4663,
      "titel": 4664,
      "##ats": 4665,
      "##ith": 4666,
      "##beleid": 4667,
      "noemen": 4668,
      "##ret": 4669,
      "##oeien": 4670,
      "##reen": 4671,
      "sneller": 4672,
      "##centr": 4673,
      "##tr": 4674,
      "##baan": 4675,
      "verleden": 4676,
      "##oude": 4677,
      "dienen": 4678,
      "vliegt": 4679,
      "wijzigingen": 4680,
      "Kort": 4681,
      "dub": 4682,
      "##oint": 4683,
      "mocht": 4684,
      "jaarlijk": 4685,
      "produc": 4686,
      "vorig": 4687,
      "inv": 4688,
      "gewijzig": 4689,
      "##rast": 4690,
      "word": 4691,
      "rechten": 4692,
      "##ippen": 4693,
      "Stichting": 4694,
      "TV": 4695,
      "winter": 4696,
      "##roon": 4697,
      "##nemer": 4698,
      "verwachten": 4699,
      "organisaties": 4700,
      "##winkel": 4701,
      ".[": 4702,
      "70": 4703,
      "zult": 4704,
      "##ije": 4705,
      "Daarna": 4706,
      "voelen": 4707,
      "Kijk": 4708,
      "Nation": 4709,
      "bracht": 4710,
      "time": 4711,
      "##vast": 4712,
      "##ooien": 4713,
      "plannen": 4714,
      "betaald": 4715,
      "##machine": 4716,
      "sluiten": 4717,
      "enthous": 4718,
      "hyp": 4719,
      "##ial": 4720,
      "deb": 4721,
      "##orn": 4722,
      "ongel": 4723,
      "##schak": 4724,
      "afst": 4725,
      "##achtig": 4726,
      "##elsel": 4727,
      "werkzaam": 4728,
      "##udio": 4729,
      "##ublic": 4730,
      "Alleen": 4731,
      "##ppen": 4732,
      "##kort": 4733,
      "##wiss": 4734,
      "gegaan": 4735,
      "##omin": 4736,
      "algemene": 4737,
      "Don": 4738,
      "##enties": 4739,
      "vertelt": 4740,
      "gehele": 4741,
      "digitaal": 4742,
      "##sproken": 4743,
      "no": 4744,
      "rode": 4745,
      "##VD": 4746,
      "instellingen": 4747,
      "##oeven": 4748,
      "##aans": 4749,
      "##ortiment": 4750,
      "bezoeken": 4751,
      "##loze": 4752,
      "##eeks": 4753,
      "helaas": 4754,
      "vergeten": 4755,
      "##vriend": 4756,
      "Cons": 4757,
      "nab": 4758,
      "ret": 4759,
      "vraagt": 4760,
      "knop": 4761,
      "onderscheiden": 4762,
      "Pol": 4763,
      "##mot": 4764,
      "##dom": 4765,
      "##atch": 4766,
      "##ild": 4767,
      "##esse": 4768,
      "##raan": 4769,
      "hierbij": 4770,
      "verscheiden": 4771,
      "gewen": 4772,
      "modellen": 4773,
      "##halve": 4774,
      "ziekte": 4775,
      "##elaars": 4776,
      "##ara": 4777,
      "vere": 4778,
      "##waard": 4779,
      "credit": 4780,
      "witte": 4781,
      "politiek": 4782,
      "Zorg": 4783,
      "##ram": 4784,
      "##aarde": 4785,
      "##igingen": 4786,
      "##unst": 4787,
      "schak": 4788,
      "gevaar": 4789,
      "elektr": 4790,
      "reageren": 4791,
      "tentoon": 4792,
      "Ger": 4793,
      "code": 4794,
      "mak": 4795,
      "##ugen": 4796,
      "##imum": 4797,
      "gezicht": 4798,
      "##cedu": 4799,
      "films": 4800,
      "liefst": 4801,
      "enorme": 4802,
      "Eind": 4803,
      "Log": 4804,
      "nat": 4805,
      "riv": 4806,
      "tar": 4807,
      "vlucht": 4808,
      "##sver": 4809,
      "##besch": 4810,
      "##rukt": 4811,
      "arm": 4812,
      "snelle": 4813,
      "beperkt": 4814,
      "vroeger": 4815,
      "##oensdag": 4816,
      "Dag": 4817,
      "dak": 4818,
      "sign": 4819,
      "type": 4820,
      "vuur": 4821,
      "##cy": 4822,
      "##by": 4823,
      "##ermen": 4824,
      "opnemen": 4825,
      "##elijkse": 4826,
      "waard": 4827,
      "##plaatsen": 4828,
      "leerlingen": 4829,
      "##haven": 4830,
      "voetbal": 4831,
      "platform": 4832,
      "som": 4833,
      "##eeld": 4834,
      "##uch": 4835,
      "opvol": 4836,
      "##gez": 4837,
      "commer": 4838,
      "verkocht": 4839,
      "arbeids": 4840,
      "Lin": 4841,
      "baby": 4842,
      "dui": 4843,
      "##hoog": 4844,
      "##derij": 4845,
      "aanzien": 4846,
      "##sem": 4847,
      "gebouwd": 4848,
      "tool": 4849,
      "denkt": 4850,
      "effic": 4851,
      "##bedrijf": 4852,
      "noodzak": 4853,
      "pak": 4854,
      "##zigen": 4855,
      "uitdag": 4856,
      "reacties": 4857,
      "##systeem": 4858,
      "zulke": 4859,
      "##woners": 4860,
      "rapport": 4861,
      "45": 4862,
      "ca": 4863,
      "##ton": 4864,
      "vervangen": 4865,
      "##ouden": 4866,
      "##agne": 4867,
      "hiervan": 4868,
      "milieu": 4869,
      "normaal": 4870,
      "90": 4871,
      "Val": 4872,
      "lo": 4873,
      "##huizen": 4874,
      "##30": 4875,
      "##outen": 4876,
      "##slaan": 4877,
      "2006": 4878,
      "##ijfers": 4879,
      "bewon": 4880,
      "Internation": 4881,
      "training": 4882,
      "termijn": 4883,
      "Wereld": 4884,
      "Hand": 4885,
      "##code": 4886,
      "##reet": 4887,
      "iPhone": 4888,
      "Haar": 4889,
      "Reg": 4890,
      "##to": 4891,
      "getal": 4892,
      "assortiment": 4893,
      "verkrijgbaar": 4894,
      "Che": 4895,
      "Dist": 4896,
      "gas": 4897,
      "##rekt": 4898,
      "##rake": 4899,
      "##akker": 4900,
      "196": 4901,
      "vrijwill": 4902,
      "##urgers": 4903,
      "twintig": 4904,
      "##óór": 4905,
      "CO": 4906,
      "Mo": 4907,
      "Pers": 4908,
      "aute": 4909,
      "douch": 4910,
      "##ave": 4911,
      "opv": 4912,
      "##olie": 4913,
      "gebruiks": 4914,
      "boot": 4915,
      "##ript": 4916,
      "##verlening": 4917,
      "US": 4918,
      "just": 4919,
      "kader": 4920,
      "##mod": 4921,
      "##schrift": 4922,
      "Inst": 4923,
      "ontb": 4924,
      "##brief": 4925,
      "voorbere": 4926,
      "mate": 4927,
      "##gl": 4928,
      "##AM": 4929,
      "opzicht": 4930,
      "##000": 4931,
      "##bijt": 4932,
      "Sport": 4933,
      "Museum": 4934,
      "##IG": 4935,
      "gewone": 4936,
      "##eltjes": 4937,
      "rustig": 4938,
      "interessant": 4939,
      "nad": 4940,
      "##iam": 4941,
      "straf": 4942,
      "verkeer": 4943,
      "##gebracht": 4944,
      "Afrik": 4945,
      "simpel": 4946,
      "kilometer": 4947,
      "Bru": 4948,
      "doll": 4949,
      "##onie": 4950,
      "##oei": 4951,
      "geboorte": 4952,
      "##keus": 4953,
      "koffie": 4954,
      "gedeelte": 4955,
      "Ma": 4956,
      "Pas": 4957,
      "club": 4958,
      "donderdag": 4959,
      "graf": 4960,
      "lijken": 4961,
      "psych": 4962,
      "georganis": 4963,
      "temp": 4964,
      "overw": 4965,
      "Chin": 4966,
      "bereikt": 4967,
      "brief": 4968,
      "accommod": 4969,
      "broer": 4970,
      "schrijft": 4971,
      "social": 4972,
      "perfecte": 4973,
      "Android": 4974,
      "communicatie": 4975,
      "Ab": 4976,
      "dis": 4977,
      "##iaanse": 4978,
      "##ertijd": 4979,
      "uitger": 4980,
      "afkomstig": 4981,
      "voelt": 4982,
      "vrije": 4983,
      "intro": 4984,
      "apparaat": 4985,
      "nationale": 4986,
      "Misschien": 4987,
      "09": 4988,
      "categorie": 4989,
      "nutt": 4990,
      "##gra": 4991,
      "##hoek": 4992,
      "##stree": 4993,
      "integr": 4994,
      "##tens": 4995,
      "China": 4996,
      "speler": 4997,
      "eindelijk": 4998,
      "miljard": 4999,
      "burger": 5000,
      "hang": 5001,
      "live": 5002,
      "##wagen": 5003,
      "##CT": 5004,
      "##ktop": 5005,
      "magaz": 5006,
      "tablet": 5007,
      "karakter": 5008,
      "asp": 5009,
      "typ": 5010,
      "##ura": 5011,
      "##wijze": 5012,
      "goedkop": 5013,
      "stukje": 5014,
      "effectie": 5015,
      "begrijpen": 5016,
      "smartph": 5017,
      "Sn": 5018,
      "cm": 5019,
      "dist": 5020,
      "zuid": 5021,
      "##AS": 5022,
      "##isse": 5023,
      "##ressie": 5024,
      "verkopen": 5025,
      "provinc": 5026,
      "beneden": 5027,
      "zu": 5028,
      "##iner": 5029,
      "##dek": 5030,
      "##illa": 5031,
      "Span": 5032,
      "maatregelen": 5033,
      "info": 5034,
      "schild": 5035,
      "##stukken": 5036,
      "Ac": 5037,
      "Com": 5038,
      "Fil": 5039,
      "burgers": 5040,
      "shop": 5041,
      "##ringen": 5042,
      "##RO": 5043,
      "ing": 5044,
      "##alm": 5045,
      "##leving": 5046,
      "onderdelen": 5047,
      "slacht": 5048,
      "middelen": 5049,
      "geslacht": 5050,
      "maximaal": 5051,
      "centraal": 5052,
      "Iedereen": 5053,
      "CD": 5054,
      "dacht": 5055,
      "winnen": 5056,
      "##regel": 5057,
      "welkom": 5058,
      "toeg": 5059,
      "##programma": 5060,
      "bleef": 5061,
      "downloaden": 5062,
      "Kan": 5063,
      "ess": 5064,
      "##ek": 5065,
      "inc": 5066,
      "gebruiker": 5067,
      "compleet": 5068,
      "vergro": 5069,
      "bevolking": 5070,
      "Utrecht": 5071,
      "Comp": 5072,
      "Hal": 5073,
      "nod": 5074,
      "##gh": 5075,
      "beoord": 5076,
      "voorzitter": 5077,
      "stro": 5078,
      "recept": 5079,
      "##sluiting": 5080,
      "Rec": 5081,
      "dun": 5082,
      "##maakt": 5083,
      "recl": 5084,
      "##low": 5085,
      "besloten": 5086,
      "verandering": 5087,
      "winkels": 5088,
      "fys": 5089,
      "fout": 5090,
      "uren": 5091,
      "##dieren": 5092,
      "vertegen": 5093,
      "##resent": 5094,
      "hout": 5095,
      "partic": 5096,
      "sterke": 5097,
      "terrein": 5098,
      "werking": 5099,
      "gezin": 5100,
      "princip": 5101,
      "##ally": 5102,
      "Dankzij": 5103,
      "regering": 5104,
      "As": 5105,
      "Mil": 5106,
      "mor": 5107,
      "vac": 5108,
      "##hoven": 5109,
      "##ilen": 5110,
      "overl": 5111,
      "afle": 5112,
      "handig": 5113,
      "prem": 5114,
      "jongens": 5115,
      "ideeën": 5116,
      "materialen": 5117,
      "Land": 5118,
      "ph": 5119,
      "##zers": 5120,
      "##oorlog": 5121,
      "##denken": 5122,
      "groen": 5123,
      "stukken": 5124,
      "meisje": 5125,
      "nou": 5126,
      "ton": 5127,
      "##dragen": 5128,
      "##ana": 5129,
      "stop": 5130,
      "brood": 5131,
      "fietsen": 5132,
      "temper": 5133,
      "bewoners": 5134,
      "kerst": 5135,
      "reeks": 5136,
      "soep": 5137,
      "##orr": 5138,
      "##ella": 5139,
      "wijzigen": 5140,
      "##insdag": 5141,
      "Isra": 5142,
      "##derdaad": 5143,
      "gelegenheid": 5144,
      "For": 5145,
      "micro": 5146,
      "vrucht": 5147,
      "##park": 5148,
      "##kingen": 5149,
      "##chte": 5150,
      "altern": 5151,
      "##rest": 5152,
      "volg": 5153,
      "gene": 5154,
      "##voerder": 5155,
      "zonne": 5156,
      "liever": 5157,
      "Fe": 5158,
      "Mich": 5159,
      "##ala": 5160,
      "##leed": 5161,
      "overigens": 5162,
      "##zend": 5163,
      "verloren": 5164,
      "lux": 5165,
      "feiten": 5166,
      "gezondheid": 5167,
      "Ele": 5168,
      "VS": 5169,
      "hoek": 5170,
      "vre": 5171,
      "vóór": 5172,
      "##richting": 5173,
      "##atures": 5174,
      "sprake": 5175,
      "##spraak": 5176,
      "##achtige": 5177,
      "##rend": 5178,
      "verbinding": 5179,
      "##namelijk": 5180,
      "Mart": 5181,
      "Ven": 5182,
      "eisen": 5183,
      "muur": 5184,
      "noord": 5185,
      "##ique": 5186,
      "##riek": 5187,
      "##aats": 5188,
      "##ads": 5189,
      "veranderd": 5190,
      "Even": 5191,
      "Park": 5192,
      "York": 5193,
      "circ": 5194,
      "daad": 5195,
      "##aders": 5196,
      "##ieur": 5197,
      "##arn": 5198,
      "##verzeker": 5199,
      "##aanderen": 5200,
      "reizen": 5201,
      "doordat": 5202,
      "hieronder": 5203,
      "vaker": 5204,
      "Phil": 5205,
      "eventueel": 5206,
      "fantast": 5207,
      "01": 5208,
      "##fe": 5209,
      "slot": 5210,
      "maandag": 5211,
      "##ateriaal": 5212,
      "badkamer": 5213,
      "Tweede": 5214,
      "contract": 5215,
      "OVER": 5216,
      "Bi": 5217,
      "Bre": 5218,
      "Ol": 5219,
      "Sw": 5220,
      "krit": 5221,
      "##PS": 5222,
      "##ocol": 5223,
      "hoewel": 5224,
      "instru": 5225,
      "##klier": 5226,
      "Vandaag": 5227,
      "fruit": 5228,
      "##haald": 5229,
      "##zw": 5230,
      "##ona": 5231,
      "hunne": 5232,
      "Engels": 5233,
      "proef": 5234,
      "##lexib": 5235,
      "Ve": 5236,
      "VER": 5237,
      "##iale": 5238,
      "##urele": 5239,
      "mening": 5240,
      "eigenaar": 5241,
      "manieren": 5242,
      "195": 5243,
      "besliss": 5244,
      "oplossingen": 5245,
      "Gelukkig": 5246,
      "commerc": 5247,
      "Bro": 5248,
      "Nadat": 5249,
      "##elat": 5250,
      "##opp": 5251,
      "##iens": 5252,
      "zekere": 5253,
      "zogenaam": 5254,
      "geluk": 5255,
      "achtergrond": 5256,
      "kantoor": 5257,
      "heerlijke": 5258,
      "ontdekt": 5259,
      "geweldig": 5260,
      "professionele": 5261,
      "##brengen": 5262,
      "Product": 5263,
      "Werk": 5264,
      "cas": 5265,
      "morgen": 5266,
      "page": 5267,
      "##hol": 5268,
      "##stoffen": 5269,
      "verf": 5270,
      "stra": 5271,
      "##rijving": 5272,
      "##ada": 5273,
      "##ema": 5274,
      "groene": 5275,
      "vrijwel": 5276,
      "##ava": 5277,
      "concurr": 5278,
      "##kundige": 5279,
      "methode": 5280,
      "favoriete": 5281,
      "##rimin": 5282,
      "-,": 5283,
      "Jac": 5284,
      "dre": 5285,
      "##put": 5286,
      "##és": 5287,
      "been": 5288,
      "##test": 5289,
      "welk": 5290,
      "betaling": 5291,
      "##eltje": 5292,
      "Vlaanderen": 5293,
      ",\"": 5294,
      "At": 5295,
      "darm": 5296,
      "est": 5297,
      "niks": 5298,
      "##OL": 5299,
      "##stro": 5300,
      "mezelf": 5301,
      "bloemen": 5302,
      "klachten": 5303,
      "natuurkeus": 5304,
      "jongen": 5305,
      "gesloten": 5306,
      "##ministr": 5307,
      "eventuele": 5308,
      "aantrek": 5309,
      "##malige": 5310,
      "zichtbaar": 5311,
      "Natuurlijk": 5312,
      "Kamer": 5313,
      "leef": 5314,
      "##press": 5315,
      "##zus": 5316,
      "##vertent": 5317,
      "##ammer": 5318,
      "gewicht": 5319,
      "flink": 5320,
      "techniek": 5321,
      "control": 5322,
      "##ownlo": 5323,
      "aangeboden": 5324,
      "cursus": 5325,
      "absol": 5326,
      ",-": 5327,
      "Del": 5328,
      "HD": 5329,
      "god": 5330,
      "##sers": 5331,
      "##bol": 5332,
      "ingericht": 5333,
      "voornamelijk": 5334,
      "bijdra": 5335,
      "##imm": 5336,
      "##ked": 5337,
      "Vooral": 5338,
      "complex": 5339,
      "Tegen": 5340,
      "apparaten": 5341,
      "elektron": 5342,
      "Zelfs": 5343,
      "toevoegen": 5344,
      "radio": 5345,
      "Naar": 5346,
      "journ": 5347,
      "##roep": 5348,
      "##kond": 5349,
      "##way": 5350,
      "##sters": 5351,
      "##oorten": 5352,
      "##ary": 5353,
      "vervoer": 5354,
      "stuur": 5355,
      "ergens": 5356,
      "volk": 5357,
      "zwart": 5358,
      "toegevoegd": 5359,
      "huw": 5360,
      "##uf": 5361,
      "##vak": 5362,
      "##vuldig": 5363,
      "workshop": 5364,
      "will": 5365,
      "##duid": 5366,
      "langzaam": 5367,
      "bevatten": 5368,
      "milit": 5369,
      "initiatief": 5370,
      "Paul": 5371,
      "dollar": 5372,
      "bijdrage": 5373,
      "##stijd": 5374,
      "aanra": 5375,
      "steen": 5376,
      "##oeding": 5377,
      "##plant": 5378,
      "##pport": 5379,
      "##ontro": 5380,
      "reser": 5381,
      "krant": 5382,
      "vijft": 5383,
      "hoeveelheid": 5384,
      "Gem": 5385,
      "Mag": 5386,
      "Mac": 5387,
      "kwij": 5388,
      "pakken": 5389,
      "ren": 5390,
      "viel": 5391,
      "##ube": 5392,
      "##vinden": 5393,
      "##ummers": 5394,
      "##acte": 5395,
      "praten": 5396,
      "aangezien": 5397,
      "Universiteit": 5398,
      "##risis": 5399,
      "directeur": 5400,
      "creëren": 5401,
      "Kle": 5402,
      "San": 5403,
      "cap": 5404,
      "kaarten": 5405,
      "lin": 5406,
      "##ior": 5407,
      "##nummer": 5408,
      "##itten": 5409,
      "betaal": 5410,
      "gevraagd": 5411,
      "##volgens": 5412,
      "ervaringen": 5413,
      "bescherming": 5414,
      "zwembad": 5415,
      "##bliotheek": 5416,
      "lage": 5417,
      "pens": 5418,
      "wou": 5419,
      "wonder": 5420,
      "##ament": 5421,
      "##andid": 5422,
      "##steen": 5423,
      "terras": 5424,
      "Sint": 5425,
      "##aven": 5426,
      "##gte": 5427,
      "##eth": 5428,
      "##etsen": 5429,
      "alsof": 5430,
      "gebieden": 5431,
      "##onnement": 5432,
      "olie": 5433,
      "##yt": 5434,
      "##ieuze": 5435,
      "enz": 5436,
      "##alisten": 5437,
      "voorl": 5438,
      "heden": 5439,
      "2005": 5440,
      "parkeer": 5441,
      "##sluitend": 5442,
      "traditionele": 5443,
      "huur": 5444,
      "##BO": 5445,
      "##erland": 5446,
      "##ded": 5447,
      "##eenkomst": 5448,
      "wereldwijd": 5449,
      "IS": 5450,
      "dé": 5451,
      "lagen": 5452,
      "serv": 5453,
      "woensdag": 5454,
      "##bro": 5455,
      "beweging": 5456,
      "aanm": 5457,
      "beschreven": 5458,
      "##ife": 5459,
      "middag": 5460,
      "mooiste": 5461,
      "documenten": 5462,
      "geweldige": 5463,
      "Italië": 5464,
      "##langs": 5465,
      "Heeft": 5466,
      "Peter": 5467,
      "dur": 5468,
      "##fun": 5469,
      "##genen": 5470,
      "##play": 5471,
      "##houdt": 5472,
      "Webs": 5473,
      "##alisatie": 5474,
      "Col": 5475,
      "Sim": 5476,
      "Soms": 5477,
      "rood": 5478,
      "wiss": 5479,
      "##ping": 5480,
      "##za": 5481,
      "##zins": 5482,
      "##itch": 5483,
      "opgericht": 5484,
      "televisie": 5485,
      "president": 5486,
      "overeenkomst": 5487,
      "vlees": 5488,
      "My": 5489,
      "Russ": 5490,
      "ding": 5491,
      "##TC": 5492,
      "##ijt": 5493,
      "uitst": 5494,
      "ontworpen": 5495,
      "deelnemers": 5496,
      "desktop": 5497,
      "stads": 5498,
      "ideale": 5499,
      "gesproken": 5500,
      "duurzaam": 5501,
      "voeding": 5502,
      "Hou": 5503,
      "adem": 5504,
      "##do": 5505,
      "##onn": 5506,
      "##rab": 5507,
      "gebruikte": 5508,
      "sluit": 5509,
      "Frans": 5510,
      "redenen": 5511,
      "populair": 5512,
      "ontvangt": 5513,
      "Britse": 5514,
      "veroorzaakt": 5515,
      "dome": 5516,
      "##yse": 5517,
      "aanget": 5518,
      "##...": 5519,
      "eveneens": 5520,
      "gemiddelde": 5521,
      "Ser": 5522,
      "del": 5523,
      "sa": 5524,
      "wens": 5525,
      "##wet": 5526,
      "stoppen": 5527,
      "##schuw": 5528,
      "heet": 5529,
      "##uleren": 5530,
      "leidt": 5531,
      "ontbijt": 5532,
      "193": 5533,
      "sex": 5534,
      "zwarte": 5535,
      "rondom": 5536,
      "EN": 5537,
      "Mal": 5538,
      "games": 5539,
      "##12": 5540,
      "##).": 5541,
      "inzet": 5542,
      "inderdaad": 5543,
      "eenige": 5544,
      "##oorn": 5545,
      "##inger": 5546,
      "Enk": 5547,
      "....": 5548,
      "syn": 5549,
      "geef": 5550,
      "architect": 5551,
      "aanbiedingen": 5552,
      "kat": 5553,
      "##hof": 5554,
      "rem": 5555,
      "gebouwen": 5556,
      "2000": 5557,
      "exc": 5558,
      "opties": 5559,
      "kopp": 5560,
      "lastname": 5561,
      "hogere": 5562,
      "firstname": 5563,
      "kwijt": 5564,
      "Hen": 5565,
      "Sommige": 5566,
      "pad": 5567,
      "rand": 5568,
      "sold": 5569,
      "vit": 5570,
      "geopen": 5571,
      "nieuwste": 5572,
      "werknemers": 5573,
      "Ons": 5574,
      "##meester": 5575,
      "betreffende": 5576,
      "iPad": 5577,
      "faciliteiten": 5578,
      "slachtoff": 5579,
      "Vr": 5580,
      "hum": 5581,
      "##leggen": 5582,
      "starten": 5583,
      "##elende": 5584,
      "##uters": 5585,
      "blad": 5586,
      "blader": 5587,
      "##ranje": 5588,
      "##adering": 5589,
      "filmp": 5590,
      "Antwerpen": 5591,
      "Pet": 5592,
      "fol": 5593,
      "##ankt": 5594,
      "##alingen": 5595,
      "vernieuw": 5596,
      "##elend": 5597,
      "bloem": 5598,
      "draad": 5599,
      "wetenschap": 5600,
      "Word": 5601,
      "noch": 5602,
      "sat": 5603,
      "wijk": 5604,
      "##riften": 5605,
      "##mans": 5606,
      "##hang": 5607,
      "##EG": 5608,
      "##iker": 5609,
      "##ape": 5610,
      "daarin": 5611,
      "ontwikkelingen": 5612,
      "beschikken": 5613,
      "show": 5614,
      "interessante": 5615,
      "32": 5616,
      "Fin": 5617,
      "Sur": 5618,
      "sens": 5619,
      "verlen": 5620,
      "ondanks": 5621,
      "##rechten": 5622,
      "verkie": 5623,
      "univers": 5624,
      "profiel": 5625,
      "Unie": 5626,
      "kiest": 5627,
      "##duceerd": 5628,
      "Bus": 5629,
      "Colle": 5630,
      "Med": 5631,
      "cond": 5632,
      "##ias": 5633,
      "##lijst": 5634,
      "##ano": 5635,
      "##atr": 5636,
      "zeg": 5637,
      "toestel": 5638,
      "beschouwd": 5639,
      "bevindt": 5640,
      "gekocht": 5641,
      "zware": 5642,
      "Willem": 5643,
      "impact": 5644,
      "uitvoeren": 5645,
      "historische": 5646,
      "browser": 5647,
      "akk": 5648,
      "##avan": 5649,
      "##del": 5650,
      "##wereld": 5651,
      "daarop": 5652,
      "belasting": 5653,
      "houten": 5654,
      "aanvraag": 5655,
      "gerecht": 5656,
      "ontdekken": 5657,
      "installatie": 5658,
      "noodzakelijk": 5659,
      "Wi": 5660,
      "bud": 5661,
      "flexib": 5662,
      "kust": 5663,
      "vet": 5664,
      "##ueel": 5665,
      "##zaken": 5666,
      "opst": 5667,
      "##oker": 5668,
      "ref": 5669,
      "##waardige": 5670,
      "oorzaak": 5671,
      "##ynam": 5672,
      "economie": 5673,
      "goud": 5674,
      "lijnen": 5675,
      "sjabl": 5676,
      "##ness": 5677,
      "##orte": 5678,
      "##reat": 5679,
      "aanleiding": 5680,
      "##rukken": 5681,
      "schip": 5682,
      "conf": 5683,
      "##boom": 5684,
      "snelheid": 5685,
      "ondersteunen": 5686,
      "aanpassen": 5687,
      "Helaas": 5688,
      "prestaties": 5689,
      "behoefte": 5690,
      "gewijzigd": 5691,
      "georganiseerd": 5692,
      "03": 5693,
      "Kw": 5694,
      "Tim": 5695,
      "harde": 5696,
      "maal": 5697,
      "##chines": 5698,
      "##gevers": 5699,
      "##reis": 5700,
      "##elect": 5701,
      "process": 5702,
      "##ctief": 5703,
      "Jezus": 5704,
      "Daarbij": 5705,
      "##ensie": 5706,
      "landschap": 5707,
      "gevestig": 5708,
      "nabij": 5709,
      "Spanje": 5710,
      "##ize": 5711,
      "bewerkt": 5712,
      "##unch": 5713,
      "##iets": 5714,
      "##ikel": 5715,
      "##iër": 5716,
      "Vervolgens": 5717,
      "organiseren": 5718,
      "Techn": 5719,
      "liep": 5720,
      "##streeks": 5721,
      "Blu": 5722,
      "Koning": 5723,
      "back": 5724,
      "kal": 5725,
      "ware": 5726,
      "##gaat": 5727,
      "##gene": 5728,
      "station": 5729,
      "##ussie": 5730,
      "meet": 5731,
      "##onderzoek": 5732,
      "dert": 5733,
      "samenleving": 5734,
      "##gestelde": 5735,
      "verwijderd": 5736,
      "variant": 5737,
      "uitstekende": 5738,
      "aansprak": 5739,
      "##atalog": 5740,
      "04": 5741,
      "Co": 5742,
      "PS": 5743,
      "boord": 5744,
      "wett": 5745,
      "##80": 5746,
      "verslag": 5747,
      "##ims": 5748,
      "##empl": 5749,
      "##ossen": 5750,
      "##stens": 5751,
      "prins": 5752,
      "Europe": 5753,
      "##gestaan": 5754,
      "trein": 5755,
      "Wilt": 5756,
      "Nieuws": 5757,
      "schilder": 5758,
      "momenteel": 5759,
      "zogenaamde": 5760,
      "Post": 5761,
      "fi": 5762,
      "item": 5763,
      "keren": 5764,
      "kab": 5765,
      "##vrouw": 5766,
      "##bar": 5767,
      "##EM": 5768,
      "##ysteem": 5769,
      "##gekomen": 5770,
      "##oging": 5771,
      "zover": 5772,
      "grens": 5773,
      "geme": 5774,
      "tijdper": 5775,
      "Grote": 5776,
      "draaien": 5777,
      "##--------": 5778,
      "route": 5779,
      "36": 5780,
      "75": 5781,
      "Huis": 5782,
      "ist": 5783,
      "paard": 5784,
      "veld": 5785,
      "##uff": 5786,
      "##ël": 5787,
      "##ikte": 5788,
      "##spl": 5789,
      "Andere": 5790,
      "aangegeven": 5791,
      "##organisatie": 5792,
      "uitvoering": 5793,
      "onderzoeken": 5794,
      "oppervlak": 5795,
      "naa": 5796,
      "nag": 5797,
      "noem": 5798,
      "eenmaal": 5799,
      "##plicatie": 5800,
      "vermogen": 5801,
      "cel": 5802,
      "dinsdag": 5803,
      "##ca": 5804,
      "##gar": 5805,
      "##bureau": 5806,
      "##erij": 5807,
      "verzoek": 5808,
      "persoons": 5809,
      "generatie": 5810,
      "positieve": 5811,
      "vertegenwoord": 5812,
      "Gron": 5813,
      "Mer": 5814,
      "Mus": 5815,
      "Mad": 5816,
      "Rober": 5817,
      "zacht": 5818,
      "##risten": 5819,
      "dek": 5820,
      "##iegel": 5821,
      "##oma": 5822,
      "overst": 5823,
      "##apie": 5824,
      "spannen": 5825,
      "concept": 5826,
      "##merking": 5827,
      "werkelijk": 5828,
      "geleid": 5829,
      "Europees": 5830,
      "privé": 5831,
      "invest": 5832,
      "Soci": 5833,
      "##pan": 5834,
      "##IL": 5835,
      "##igers": 5836,
      "verj": 5837,
      "stim": 5838,
      "stonden": 5839,
      "##uif": 5840,
      "vormt": 5841,
      "ziekenhuis": 5842,
      "Goed": 5843,
      "banken": 5844,
      "huizen": 5845,
      "##ba": 5846,
      "onmiddel": 5847,
      "leger": 5848,
      "wellicht": 5849,
      "toestemming": 5850,
      "vocht": 5851,
      "##boven": 5852,
      "Arch": 5853,
      "apart": 5854,
      "gebeurten": 5855,
      "##landers": 5856,
      "Let": 5857,
      "SP": 5858,
      "Tele": 5859,
      "but": 5860,
      "lot": 5861,
      "vullen": 5862,
      "##bord": 5863,
      "gef": 5864,
      "gewerkt": 5865,
      "datum": 5866,
      "##rust": 5867,
      "##aalf": 5868,
      "advertent": 5869,
      "access": 5870,
      "##atting": 5871,
      "Parijs": 5872,
      "afdeling": 5873,
      "World": 5874,
      "?\"": 5875,
      "Kies": 5876,
      "Off": 5877,
      "fa": 5878,
      "hoort": 5879,
      "##lig": 5880,
      "##vd": 5881,
      "##heer": 5882,
      "bewijzen": 5883,
      "##akers": 5884,
      "##anties": 5885,
      "##werker": 5886,
      "##ertific": 5887,
      "##schrijven": 5888,
      "gevangenen": 5889,
      "gezellig": 5890,
      "complete": 5891,
      "interactieve": 5892,
      "toegankelijk": 5893,
      "Will": 5894,
      "kwest": 5895,
      "melk": 5896,
      "zagen": 5897,
      "##oa": 5898,
      "##war": 5899,
      "##itte": 5900,
      "##blijven": 5901,
      "doch": 5902,
      "Ondanks": 5903,
      "beschermen": 5904,
      "verrassen": 5905,
      "onafhankelijk": 5906,
      "reclame": 5907,
      "##ownload": 5908,
      "Gesch": 5909,
      "Tran": 5910,
      "bon": 5911,
      "sier": 5912,
      "winst": 5913,
      "##izig": 5914,
      "##ating": 5915,
      "##gek": 5916,
      "uitbre": 5917,
      "onderhoud": 5918,
      "##merkt": 5919,
      "werkte": 5920,
      "drinken": 5921,
      "##cci": 5922,
      "vrijheid": 5923,
      "##ancier": 5924,
      "##schrijving": 5925,
      "Mensen": 5926,
      "indrukwekken": 5927,
      "twijfel": 5928,
      "06": 5929,
      "##ira": 5930,
      "##fol": 5931,
      "geloo": 5932,
      "##arkten": 5933,
      "sector": 5934,
      "strip": 5935,
      "relatief": 5936,
      "dienstverlening": 5937,
      "##kwaliteit": 5938,
      "individuele": 5939,
      "vogels": 5940,
      "Enkele": 5941,
      "08": 5942,
      "Buiten": 5943,
      "Part": 5944,
      "Water": 5945,
      "hangen": 5946,
      "##kers": 5947,
      "##ucht": 5948,
      "stroom": 5949,
      "##ooster": 5950,
      "gram": 5951,
      "slim": 5952,
      "keur": 5953,
      "Engelse": 5954,
      "Tom": 5955,
      "aft": 5956,
      "sites": 5957,
      "wint": 5958,
      "##kamp": 5959,
      "enig": 5960,
      "inz": 5961,
      "bewezen": 5962,
      "spreekt": 5963,
      "##gebouwd": 5964,
      "Best": 5965,
      "Char": 5966,
      "systemen": 5967,
      "##etting": 5968,
      "##raagt": 5969,
      "Tevens": 5970,
      "stemmen": 5971,
      "internationaal": 5972,
      "privacy": 5973,
      "ijs": 5974,
      "selectie": 5975,
      "luxe": 5976,
      "02": 5977,
      "Air": 5978,
      "sol": 5979,
      "##uv": 5980,
      "gecon": 5981,
      "bewijs": 5982,
      "stab": 5983,
      "wegen": 5984,
      "ontwerpen": 5985,
      "##ankelijke": 5986,
      "##ultuur": 5987,
      "##ificatie": 5988,
      "verhoog": 5989,
      "openbaar": 5990,
      "openbare": 5991,
      "aangepast": 5992,
      "gespeeld": 5993,
      "populaire": 5994,
      "Centr": 5995,
      "##beheer": 5996,
      "ill": 5997,
      "books": 5998,
      "Ass": 5999,
      "Zonder": 6000,
      "bomen": 6001,
      "trek": 6002,
      "vonden": 6003,
      "##no": 6004,
      "##ueling": 6005,
      "verdere": 6006,
      "##verh": 6007,
      "stoffen": 6008,
      "klasse": 6009,
      "verschijnen": 6010,
      "slaan": 6011,
      "##gebouw": 6012,
      "##produ": 6013,
      "onderzoekers": 6014,
      "##ituut": 6015,
      "elementen": 6016,
      "gevolgd": 6017,
      "Uiter": 6018,
      "accept": 6019,
      "aanpak": 6020,
      "Home": 6021,
      "cijfers": 6022,
      "kandid": 6023,
      "ss": 6024,
      "##ror": 6025,
      "##OOR": 6026,
      "##ated": 6027,
      "behouden": 6028,
      "##ants": 6029,
      "exempl": 6030,
      "interview": 6031,
      "behal": 6032,
      "medic": 6033,
      "draait": 6034,
      "scherp": 6035,
      "trouwens": 6036,
      "invester": 6037,
      "editie": 6038,
      "rivier": 6039,
      "gemeent": 6040,
      "07": 6041,
      "300": 6042,
      "Doch": 6043,
      "Gl": 6044,
      "It": 6045,
      "Out": 6046,
      "bureau": 6047,
      "kol": 6048,
      "##aft": 6049,
      "##vle": 6050,
      "##UR": 6051,
      "verle": 6052,
      "##rem": 6053,
      "aansch": 6054,
      "uitsluitend": 6055,
      "##beg": 6056,
      "##proces": 6057,
      "##ther": 6058,
      "avont": 6059,
      "nauwelijks": 6060,
      "##kundigen": 6061,
      "Zwits": 6062,
      "Oostenrijk": 6063,
      "nodige": 6064,
      "behalve": 6065,
      "Eén": 6066,
      "Ken": 6067,
      "da": 6068,
      "fan": 6069,
      "##ball": 6070,
      "##elings": 6071,
      "bekeken": 6072,
      "##aker": 6073,
      "##result": 6074,
      "qua": 6075,
      "voedings": 6076,
      "fabrik": 6077,
      "##cedure": 6078,
      "Du": 6079,
      "tij": 6080,
      "##lt": 6081,
      "##orven": 6082,
      "verp": 6083,
      "##asis": 6084,
      "leider": 6085,
      "##odium": 6086,
      "geniet": 6087,
      "sneeuw": 6088,
      "##rière": 6089,
      "gering": 6090,
      "berichten": 6091,
      "advoc": 6092,
      "drug": 6093,
      "accommodatie": 6094,
      "schildklier": 6095,
      "akkoord": 6096,
      "Rad": 6097,
      "melden": 6098,
      "##gers": 6099,
      "##ley": 6100,
      "##schoon": 6101,
      "erin": 6102,
      "##icit": 6103,
      "##kering": 6104,
      "blik": 6105,
      "terugk": 6106,
      "geleverd": 6107,
      "kool": 6108,
      "trap": 6109,
      "sleut": 6110,
      "officiële": 6111,
      "Foto": 6112,
      "Mob": 6113,
      "Up": 6114,
      "drank": 6115,
      "fra": 6116,
      "luid": 6117,
      "tab": 6118,
      "tient": 6119,
      "##zi": 6120,
      "##ür": 6121,
      "##stelsel": 6122,
      "voorstellen": 6123,
      "##unning": 6124,
      "##idde": 6125,
      "omhoog": 6126,
      "##heb": 6127,
      "gebrek": 6128,
      "legt": 6129,
      "wilden": 6130,
      "Welkom": 6131,
      "donker": 6132,
      "honderd": 6133,
      "ontmoet": 6134,
      "##oken": 6135,
      "##yc": 6136,
      "erbij": 6137,
      "ontstaat": 6138,
      "vliegen": 6139,
      "douche": 6140,
      "Rijk": 6141,
      "Sa": 6142,
      "kast": 6143,
      "ronde": 6144,
      "voegen": 6145,
      "##ward": 6146,
      "##ör": 6147,
      "##ilver": 6148,
      "##schreven": 6149,
      "spoor": 6150,
      "ruime": 6151,
      "##etters": 6152,
      "redelijk": 6153,
      "##oires": 6154,
      "originele": 6155,
      "details": 6156,
      "Media": 6157,
      "Zod": 6158,
      "honden": 6159,
      "##pat": 6160,
      "##inten": 6161,
      "##stan": 6162,
      "##ales": 6163,
      "##ulling": 6164,
      "waarheid": 6165,
      "schad": 6166,
      "totale": 6167,
      "##affen": 6168,
      "bodem": 6169,
      "##bsid": 6170,
      "##vloe": 6171,
      "functies": 6172,
      "normale": 6173,
      "Terwijl": 6174,
      "pensioen": 6175,
      "Acc": 6176,
      "Bur": 6177,
      "IT": 6178,
      "Wet": 6179,
      "lat": 6180,
      "ochtend": 6181,
      "zuur": 6182,
      "##comm": 6183,
      "##go": 6184,
      "##Tube": 6185,
      "dans": 6186,
      "bladeren": 6187,
      "##ocr": 6188,
      "goedkoop": 6189,
      "geloven": 6190,
      "dagelijkse": 6191,
      "2003": 6192,
      "verlaten": 6193,
      "trots": 6194,
      "oudste": 6195,
      "verzamelen": 6196,
      "verkrijgen": 6197,
      "wezens": 6198,
      "Website": 6199,
      "geopend": 6200,
      "95": 6201,
      "loon": 6202,
      "leek": 6203,
      "##kle": 6204,
      "##enzen": 6205,
      "##ieerd": 6206,
      "inwoners": 6207,
      "##ouders": 6208,
      "overige": 6209,
      "##zending": 6210,
      "meub": 6211,
      "##....": 6212,
      "handel": 6213,
      "2004": 6214,
      "netwerken": 6215,
      "partners": 6216,
      "betekenis": 6217,
      "korting": 6218,
      "voorzieningen": 6219,
      "Engeland": 6220,
      "update": 6221,
      "strategie": 6222,
      "Hun": 6223,
      "Londen": 6224,
      "Mark": 6225,
      "bod": 6226,
      "ras": 6227,
      "voren": 6228,
      "##ham": 6229,
      "testen": 6230,
      "aankoop": 6231,
      "##hem": 6232,
      "ers": 6233,
      "##ulden": 6234,
      "plus": 6235,
      "tegenstelling": 6236,
      "##asteel": 6237,
      "##pleeg": 6238,
      "droog": 6239,
      "toont": 6240,
      "Gucci": 6241,
      "YouTube": 6242,
      "klassieke": 6243,
      "tentoonstelling": 6244,
      "Chinese": 6245,
      "daadwerk": 6246,
      "AD": 6247,
      "Dav": 6248,
      "Eg": 6249,
      "bier": 6250,
      "caf": 6251,
      "##pas": 6252,
      "##materiaal": 6253,
      "##rok": 6254,
      "aanbe": 6255,
      "west": 6256,
      "##atieven": 6257,
      "onderwerpen": 6258,
      "scholen": 6259,
      "##veilig": 6260,
      "##ipp": 6261,
      "bedre": 6262,
      "bedien": 6263,
      "prett": 6264,
      "probeert": 6265,
      "vermoeid": 6266,
      "Maria": 6267,
      "schrijf": 6268,
      "voortd": 6269,
      "centrale": 6270,
      "##mogelijkheden": 6271,
      "tegelijkertijd": 6272,
      "):": 6273,
      "BE": 6274,
      "Fr": 6275,
      "Kom": 6276,
      "bak": 6277,
      "fles": 6278,
      "lied": 6279,
      "sing": 6280,
      "##sbe": 6281,
      "##rand": 6282,
      "##ym": 6283,
      "##genoot": 6284,
      "##verb": 6285,
      "overleden": 6286,
      "##gelaten": 6287,
      "voeten": 6288,
      "oudere": 6289,
      "150": 6290,
      "##geleverd": 6291,
      "mailadres": 6292,
      "##lymp": 6293,
      "##vormen": 6294,
      "##vorming": 6295,
      "Denk": 6296,
      "Turk": 6297,
      "!!!": 6298,
      "##genda": 6299,
      "##bbers": 6300,
      "Koninkrijk": 6301,
      "34": 6302,
      "Bal": 6303,
      "Eigen": 6304,
      "Heel": 6305,
      "Max": 6306,
      "VAN": 6307,
      "look": 6308,
      "pc": 6309,
      "zand": 6310,
      "##iot": 6311,
      "##inet": 6312,
      "##roffen": 6313,
      "onderling": 6314,
      "vertrouw": 6315,
      "##diensten": 6316,
      "Marcel": 6317,
      "business": 6318,
      "restaurants": 6319,
      "zakelijke": 6320,
      "duizenden": 6321,
      "behoorlijk": 6322,
      "aar": 6323,
      "wal": 6324,
      "##mag": 6325,
      "uitgest": 6326,
      "waarvoor": 6327,
      "schoenen": 6328,
      "##ugh": 6329,
      "gezamen": 6330,
      "beschikking": 6331,
      "verlies": 6332,
      "emot": 6333,
      "opzichte": 6334,
      "ST": 6335,
      "Verd": 6336,
      "git": 6337,
      "koud": 6338,
      "kijkt": 6339,
      "leert": 6340,
      "##GB": 6341,
      "##oorde": 6342,
      "##verw": 6343,
      "zijne": 6344,
      "##indingen": 6345,
      "##ellingen": 6346,
      "##urend": 6347,
      "levense": 6348,
      "bevor": 6349,
      "ingezet": 6350,
      "lastig": 6351,
      "twaalf": 6352,
      "individuen": 6353,
      "borst": 6354,
      "lager": 6355,
      "##lam": 6356,
      "##vingen": 6357,
      "##yr": 6358,
      "##itor": 6359,
      "very": 6360,
      "refer": 6361,
      "mode": 6362,
      "hierdoor": 6363,
      "gelden": 6364,
      "##obby": 6365,
      "ideaal": 6366,
      "geregeld": 6367,
      "kleinere": 6368,
      "Play": 6369,
      "haven": 6370,
      "verspreid": 6371,
      "Distler": 6372,
      "Afrika": 6373,
      "Act": 6374,
      "gaten": 6375,
      "noorden": 6376,
      "##station": 6377,
      "##aps": 6378,
      "gevorm": 6379,
      "##plan": 6380,
      "management": 6381,
      "gezonde": 6382,
      "kwal": 6383,
      "grootte": 6384,
      "resol": 6385,
      "opening": 6386,
      "uniek": 6387,
      "gerust": 6388,
      "bergen": 6389,
      "applic": 6390,
      "groeien": 6391,
      "geïnter": 6392,
      "graden": 6393,
      "vergelijken": 6394,
      "meisjes": 6395,
      "gezellige": 6396,
      "updates": 6397,
      "hotels": 6398,
      "afbeeldingen": 6399,
      "temperatuur": 6400,
      "bang": 6401,
      "ler": 6402,
      "##wen": 6403,
      "##bon": 6404,
      "##ini": 6405,
      "##verkeer": 6406,
      "##plo": 6407,
      "##ementen": 6408,
      "geheugen": 6409,
      "profit": 6410,
      "gespeci": 6411,
      "##matige": 6412,
      "duurt": 6413,
      "avonds": 6414,
      "fijne": 6415,
      "hangt": 6416,
      "principe": 6417,
      "cou": 6418,
      "lanc": 6419,
      "richten": 6420,
      "##fect": 6421,
      "##OO": 6422,
      "##ature": 6423,
      "voorsp": 6424,
      "aangev": 6425,
      "##amine": 6426,
      "minstens": 6427,
      "Web": 6428,
      "compet": 6429,
      "plekken": 6430,
      "This": 6431,
      "##daagse": 6432,
      "##ustral": 6433,
      "smartphone": 6434,
      "crisis": 6435,
      "hield": 6436,
      "winn": 6437,
      "##da": 6438,
      "##ely": 6439,
      "##onk": 6440,
      "bem": 6441,
      "##verm": 6442,
      "##scherm": 6443,
      "##ople": 6444,
      "waarna": 6445,
      "program": 6446,
      "##spir": 6447,
      "kansen": 6448,
      "Nederlanders": 6449,
      "192": 6450,
      "##ologisch": 6451,
      "aanvragen": 6452,
      "Groot": 6453,
      "Welke": 6454,
      "ontdek": 6455,
      "warme": 6456,
      "industrie": 6457,
      "gewenste": 6458,
      "Cas": 6459,
      "bord": 6460,
      "card": 6461,
      "rot": 6462,
      "veert": 6463,
      "zus": 6464,
      "##trek": 6465,
      "##oederen": 6466,
      "##geen": 6467,
      "schaal": 6468,
      "helder": 6469,
      "##luchten": 6470,
      "bereid": 6471,
      "inspiratie": 6472,
      "Camp": 6473,
      "Dut": 6474,
      "Kn": 6475,
      "Piet": 6476,
      "Ro": 6477,
      "Top": 6478,
      "det": 6479,
      "more": 6480,
      "ol": 6481,
      "tru": 6482,
      "##son": 6483,
      "##ih": 6484,
      "##US": 6485,
      "##atoren": 6486,
      "##aarden": 6487,
      "datab": 6488,
      "review": 6489,
      "schen": 6490,
      "ontst": 6491,
      "bellen": 6492,
      "##voering": 6493,
      "duurzame": 6494,
      "##handel": 6495,
      "relig": 6496,
      "geslachten": 6497,
      "Mc": 6498,
      "Noor": 6499,
      "has": 6500,
      "vent": 6501,
      "##mis": 6502,
      "##zie": 6503,
      "ingev": 6504,
      "##alle": 6505,
      "##ilis": 6506,
      "waarden": 6507,
      "klas": 6508,
      "klinkt": 6509,
      "minste": 6510,
      "verbeter": 6511,
      "Bijvoorbeeld": 6512,
      "Hierbij": 6513,
      "acties": 6514,
      "telef": 6515,
      "##uliere": 6516,
      "##aptop": 6517,
      "verliezen": 6518,
      "Austral": 6519,
      "IJ": 6520,
      "Jer": 6521,
      "Lim": 6522,
      "Mocht": 6523,
      "OP": 6524,
      "fig": 6525,
      "foc": 6526,
      "festival": 6527,
      "ven": 6528,
      "##ao": 6529,
      "##pten": 6530,
      "##kr": 6531,
      "##AP": 6532,
      "##stijl": 6533,
      "geste": 6534,
      "##genoten": 6535,
      "realiseren": 6536,
      "##icus": 6537,
      "schrift": 6538,
      "afzonder": 6539,
      "afval": 6540,
      "##ume": 6541,
      "##ieuwd": 6542,
      "plots": 6543,
      "daarnaast": 6544,
      "##uizing": 6545,
      "interieur": 6546,
      "seks": 6547,
      "slechte": 6548,
      "Minister": 6549,
      "##positie": 6550,
      "provincie": 6551,
      "budget": 6552,
      "Uiteraard": 6553,
      "Av": 6554,
      "Bet": 6555,
      "Gent": 6556,
      "doos": 6557,
      "taak": 6558,
      "zaten": 6559,
      "##selen": 6560,
      "##hel": 6561,
      "##bond": 6562,
      "opslag": 6563,
      "##une": 6564,
      "##uwe": 6565,
      "doorgaan": 6566,
      "##iëren": 6567,
      "bezocht": 6568,
      "optimaal": 6569,
      "aanbieden": 6570,
      "##keurig": 6571,
      "discussie": 6572,
      "##lopende": 6573,
      "begrip": 6574,
      "55": 6575,
      "Club": 6576,
      "Nee": 6577,
      "go": 6578,
      "kranten": 6579,
      "po": 6580,
      "##iaal": 6581,
      "##iber": 6582,
      "##70": 6583,
      "##BS": 6584,
      "##itaal": 6585,
      "##schriften": 6586,
      "klikken": 6587,
      "##houder": 6588,
      "boer": 6589,
      "Nederl": 6590,
      "bevinden": 6591,
      "gehaald": 6592,
      "##alisme": 6593,
      "##wijls": 6594,
      "server": 6595,
      "halve": 6596,
      "verklaring": 6597,
      "oefen": 6598,
      "##film": 6599,
      "Eerste": 6600,
      "werkzaamheden": 6601,
      "Robert": 6602,
      "Cor": 6603,
      "ner": 6604,
      "rit": 6605,
      "taken": 6606,
      "##ilet": 6607,
      "##elletjes": 6608,
      "##uzik": 6609,
      "onderzoeks": 6610,
      "vierde": 6611,
      "speelde": 6612,
      "dikke": 6613,
      "##malig": 6614,
      "virtu": 6615,
      "uitdaging": 6616,
      "3D": 6617,
      "Midd": 6618,
      "PC": 6619,
      "cellen": 6620,
      "wetten": 6621,
      "##deling": 6622,
      "##él": 6623,
      "inse": 6624,
      "##urn": 6625,
      "##una": 6626,
      "##hebbers": 6627,
      "derden": 6628,
      "gedachten": 6629,
      "vertelde": 6630,
      "Vanuit": 6631,
      "autor": 6632,
      "Reag": 6633,
      "jaarlijks": 6634,
      "AN": 6635,
      "ES": 6636,
      "No": 6637,
      "Rob": 6638,
      "Vi": 6639,
      "nummers": 6640,
      "##aters": 6641,
      "bewegen": 6642,
      "toestand": 6643,
      "hoef": 6644,
      "herken": 6645,
      "aangesloten": 6646,
      "##azz": 6647,
      "abonnement": 6648,
      "##wijfeld": 6649,
      "respect": 6650,
      "huwelijk": 6651,
      "Gra": 6652,
      "War": 6653,
      "high": 6654,
      "talen": 6655,
      "geë": 6656,
      "opent": 6657,
      "opmerk": 6658,
      "##very": 6659,
      "##aming": 6660,
      "##othe": 6661,
      "##aciteit": 6662,
      "navig": 6663,
      "##essie": 6664,
      "landbouw": 6665,
      "tenzij": 6666,
      "verwant": 6667,
      "##arming": 6668,
      "getoond": 6669,
      "vergelijking": 6670,
      "verniet": 6671,
      "Eindhoven": 6672,
      "Israël": 6673,
      "verjaard": 6674,
      "Hy": 6675,
      "Java": 6676,
      "hopen": 6677,
      "ment": 6678,
      "##sd": 6679,
      "##doet": 6680,
      "##bus": 6681,
      "##ory": 6682,
      "aang": 6683,
      "uitleg": 6684,
      "##iere": 6685,
      "##oods": 6686,
      "ondernemers": 6687,
      "menu": 6688,
      "they": 6689,
      "slapen": 6690,
      "there": 6691,
      "##oegde": 6692,
      "woont": 6693,
      "garantie": 6694,
      "kunstenaars": 6695,
      "05": 6696,
      "Vor": 6697,
      "golf": 6698,
      "mal": 6699,
      "vro": 6700,
      "##dan": 6701,
      "##vaardig": 6702,
      "vertal": 6703,
      "voorkeur": 6704,
      "##verg": 6705,
      "##esp": 6706,
      "##ionale": 6707,
      "toetsen": 6708,
      "eigenschappen": 6709,
      "##ays": 6710,
      "##voeren": 6711,
      "##erman": 6712,
      "fly": 6713,
      "##doende": 6714,
      "gepublic": 6715,
      "##entieel": 6716,
      "vlieg": 6717,
      "bedoeling": 6718,
      "lengte": 6719,
      "gevestigd": 6720,
      "48": 6721,
      "Doe": 6722,
      "Geef": 6723,
      "Pale": 6724,
      "So": 6725,
      "vaardig": 6726,
      "zaad": 6727,
      "##lijnen": 6728,
      "##ves": 6729,
      "##bere": 6730,
      "##NA": 6731,
      "overleg": 6732,
      "schijf": 6733,
      "schitt": 6734,
      "##volutie": 6735,
      "##activ": 6736,
      "gereed": 6737,
      "optim": 6738,
      "medische": 6739,
      "toekomstige": 6740,
      "campagne": 6741,
      "onmiddellijk": 6742,
      "Rus": 6743,
      "neder": 6744,
      "tam": 6745,
      "tick": 6746,
      "##service": 6747,
      "##comp": 6748,
      "deal": 6749,
      "##olang": 6750,
      "onderstaande": 6751,
      "##ution": 6752,
      "hoeven": 6753,
      "expl": 6754,
      "##eemt": 6755,
      "houd": 6756,
      "##mede": 6757,
      "##ology": 6758,
      "teksten": 6759,
      "about": 6760,
      "##persoon": 6761,
      "onderneming": 6762,
      "afspraak": 6763,
      "Artikel": 6764,
      "toegepast": 6765,
      "boodschap": 6766,
      "Besch": 6767,
      "CV": 6768,
      "Ren": 6769,
      "Red": 6770,
      "Vis": 6771,
      "ker": 6772,
      "##fab": 6773,
      "##14": 6774,
      "##orde": 6775,
      "bese": 6776,
      "##versie": 6777,
      "##ouder": 6778,
      "uitdruk": 6779,
      "##ulk": 6780,
      "##oost": 6781,
      "##apens": 6782,
      "##spect": 6783,
      "Albert": 6784,
      "menig": 6785,
      "verscheen": 6786,
      "Daarmee": 6787,
      "hemel": 6788,
      "verandert": 6789,
      "nieuwsbrief": 6790,
      "schepen": 6791,
      "uiterst": 6792,
      "onbeper": 6793,
      "lessen": 6794,
      "Producten": 6795,
      "zuiden": 6796,
      "continu": 6797,
      "Groningen": 6798,
      "Ster": 6799,
      "Was": 6800,
      "huren": 6801,
      "our": 6802,
      "sug": 6803,
      "wagen": 6804,
      "##raaf": 6805,
      "##mond": 6806,
      "##va": 6807,
      "teveel": 6808,
      "eruit": 6809,
      "##ruis": 6810,
      "##ience": 6811,
      "rep": 6812,
      "nogal": 6813,
      "wetenschappelijke": 6814,
      "volgend": 6815,
      "presentatie": 6816,
      "vloer": 6817,
      "Hoog": 6818,
      "One": 6819,
      "fris": 6820,
      "kies": 6821,
      "las": 6822,
      "make": 6823,
      "tax": 6824,
      "##wacht": 6825,
      "##anne": 6826,
      "##eters": 6827,
      "##stru": 6828,
      "verre": 6829,
      "versl": 6830,
      "##genoemde": 6831,
      "bestur": 6832,
      "hiermee": 6833,
      "##iefde": 6834,
      "verdiep": 6835,
      "gemeenten": 6836,
      "afgesloten": 6837,
      "archief": 6838,
      "makkelijker": 6839,
      "brede": 6840,
      "draagt": 6841,
      "Russische": 6842,
      "AM": 6843,
      "cir": 6844,
      "dames": 6845,
      "leeg": 6846,
      "set": 6847,
      "##nog": 6848,
      "##feest": 6849,
      "##vies": 6850,
      "##blik": 6851,
      "werkgever": 6852,
      "weergegeven": 6853,
      "Gew": 6854,
      "toenemen": 6855,
      "rechtstreeks": 6856,
      "maatschappij": 6857,
      "##rieken": 6858,
      "behandeld": 6859,
      "uiterlijk": 6860,
      "fabriek": 6861,
      "telkens": 6862,
      "verdienen": 6863,
      "ontspannen": 6864,
      "Check": 6865,
      "Licht": 6866,
      "Site": 6867,
      "dok": 6868,
      "es": 6869,
      "hare": 6870,
      "tracht": 6871,
      "##post": 6872,
      "##zaal": 6873,
      "##aaien": 6874,
      "inkomen": 6875,
      "beiden": 6876,
      "alweer": 6877,
      "Deel": 6878,
      "##ulaire": 6879,
      "##antische": 6880,
      "verschijnt": 6881,
      "##netje": 6882,
      "recente": 6883,
      "brug": 6884,
      "dikwijls": 6885,
      "Italiaanse": 6886,
      "-'": 6887,
      "Aange": 6888,
      "Il": 6889,
      "gun": 6890,
      "pen": 6891,
      "##aim": 6892,
      "##dro": 6893,
      "##etische": 6894,
      "alvast": 6895,
      "aandeel": 6896,
      "lekk": 6897,
      "##spar": 6898,
      "totdat": 6899,
      "##ioneel": 6900,
      "##ommigen": 6901,
      "fotograf": 6902,
      "verzorg": 6903,
      "geheim": 6904,
      "sociaal": 6905,
      "transport": 6906,
      "consumenten": 6907,
      "verantwoordelijkheid": 6908,
      "vijand": 6909,
      "seconden": 6910,
      "select": 6911,
      "kwestie": 6912,
      "daadwerkelijk": 6913,
      "Hong": 6914,
      "Uite": 6915,
      "laptop": 6916,
      "##iff": 6917,
      "##uste": 6918,
      "##bi": 6919,
      "##__": 6920,
      "##staten": 6921,
      "##onne": 6922,
      "beïn": 6923,
      "stel": 6924,
      "reizig": 6925,
      "schijnt": 6926,
      "##osof": 6927,
      "betaalt": 6928,
      "toegestaan": 6929,
      "comment": 6930,
      "##weet": 6931,
      "eerlijk": 6932,
      "Stad": 6933,
      "gedacht": 6934,
      "##udi": 6935,
      "##anciers": 6936,
      "expert": 6937,
      "functionaliteit": 6938,
      "oorspronkelijke": 6939,
      "darmkanker": 6940,
      "99": 6941,
      "Bos": 6942,
      "Hans": 6943,
      "ON": 6944,
      "ei": 6945,
      "fouten": 6946,
      "hoof": 6947,
      "pil": 6948,
      "##eet": 6949,
      "##back": 6950,
      "##ye": 6951,
      "##ét": 6952,
      "deden": 6953,
      "##leer": 6954,
      "voormalige": 6955,
      "onlangs": 6956,
      "##verk": 6957,
      "bijdragen": 6958,
      "spons": 6959,
      "blok": 6960,
      "minimaal": 6961,
      "tijdje": 6962,
      "##handeling": 6963,
      "zooals": 6964,
      "Client": 6965,
      "begeleiding": 6966,
      "International": 6967,
      "verjaardag": 6968,
      "Uiteindelijk": 6969,
      "banden": 6970,
      "mont": 6971,
      "raken": 6972,
      "##kst": 6973,
      "##ual": 6974,
      "##bak": 6975,
      "structuur": 6976,
      "dieet": 6977,
      "omvat": 6978,
      "##rad": 6979,
      "angst": 6980,
      "##vest": 6981,
      "boeren": 6982,
      "kwaad": 6983,
      "##izer": 6984,
      "vriendelijk": 6985,
      "Prins": 6986,
      "maximale": 6987,
      "aardapp": 6988,
      "##partij": 6989,
      "vermoeidheid": 6990,
      "AL": 6991,
      "Bent": 6992,
      "Joze": 6993,
      "home": 6994,
      "lic": 6995,
      "moed": 6996,
      "rang": 6997,
      "##han": 6998,
      "##In": 6999,
      "##aaid": 7000,
      "inh": 7001,
      "inch": 7002,
      "opvallen": 7003,
      "##oul": 7004,
      "volt": 7005,
      "werkelijkheid": 7006,
      "doden": 7007,
      "regelen": 7008,
      "Hieronder": 7009,
      "##middag": 7010,
      "carrière": 7011,
      "momenten": 7012,
      "vreemd": 7013,
      "gevormd": 7014,
      "Jozef": 7015,
      "Bad": 7016,
      "Dien": 7017,
      "Jon": 7018,
      "Sony": 7019,
      "wol": 7020,
      "##passen": 7021,
      "##MS": 7022,
      "dep": 7023,
      "hetgeen": 7024,
      "opgev": 7025,
      "bewaard": 7026,
      "verdeeld": 7027,
      "onvol": 7028,
      "##iciteit": 7029,
      "##ooid": 7030,
      "##terne": 7031,
      "administr": 7032,
      "applicatie": 7033,
      "creatieve": 7034,
      "opgeslagen": 7035,
      "eeuwen": 7036,
      "##eeuwen": 7037,
      "aanwezigheid": 7038,
      "##zettend": 7039,
      "##blemen": 7040,
      "single": 7041,
      "Cal": 7042,
      "bran": 7043,
      "cro": 7044,
      "jammer": 7045,
      "non": 7046,
      "zelden": 7047,
      "##ekend": 7048,
      "##zuur": 7049,
      "gepl": 7050,
      "spoed": 7051,
      "sprak": 7052,
      "machine": 7053,
      "them": 7054,
      "2017": 7055,
      "##uiden": 7056,
      "benodig": 7057,
      "Geor": 7058,
      "positief": 7059,
      "uitstekend": 7060,
      "gemiddeld": 7061,
      "##zijds": 7062,
      "44": 7063,
      "65": 7064,
      "Mor": 7065,
      "Oor": 7066,
      "Vaak": 7067,
      "ball": 7068,
      "kasteel": 7069,
      "##90": 7070,
      "##RA": 7071,
      "energ": 7072,
      "##ité": 7073,
      "voorraad": 7074,
      "stress": 7075,
      "zodra": 7076,
      "gebleven": 7077,
      "gemak": 7078,
      "2001": 7079,
      "##ontwikk": 7080,
      "Gez": 7081,
      "gehoord": 7082,
      "gereg": 7083,
      "##axy": 7084,
      "luchthaven": 7085,
      "rekenen": 7086,
      "wijziging": 7087,
      "blauwe": 7088,
      "absoluut": 7089,
      "voorlop": 7090,
      "King": 7091,
      "Later": 7092,
      "Wal": 7093,
      "ec": 7094,
      "lach": 7095,
      "noten": 7096,
      "tand": 7097,
      "wis": 7098,
      "##pele": 7099,
      "##vader": 7100,
      "##aaie": 7101,
      "##oloog": 7102,
      "##ando": 7103,
      "##essen": 7104,
      "omzet": 7105,
      "uitstr": 7106,
      "uitvoer": 7107,
      "##uwen": 7108,
      "##oedd": 7109,
      "##igend": 7110,
      "interesse": 7111,
      "voel": 7112,
      "help": 7113,
      "actuele": 7114,
      "schrijver": 7115,
      "lichte": 7116,
      "zorgvuldig": 7117,
      "visie": 7118,
      "drukken": 7119,
      "kilo": 7120,
      "vereniging": 7121,
      "cade": 7122,
      "fans": 7123,
      "velen": 7124,
      "##nodig": 7125,
      "##laag": 7126,
      "##bod": 7127,
      "##ziek": 7128,
      "##zoeken": 7129,
      "##OM": 7130,
      "verde": 7131,
      "Beste": 7132,
      "trad": 7133,
      "besloot": 7134,
      "aanvullen": 7135,
      "##clusie": 7136,
      "Contact": 7137,
      "##rastructuur": 7138,
      "vereist": 7139,
      "33": 7140,
      "Hem": 7141,
      "Lou": 7142,
      "Mat": 7143,
      "Sec": 7144,
      "Tr": 7145,
      "dipl": 7146,
      "gisteren": 7147,
      "nak": 7148,
      "##ukt": 7149,
      "##hy": 7150,
      "##hankelijke": 7151,
      "##EID": 7152,
      "##13": 7153,
      "onmogelijk": 7154,
      "##geet": 7155,
      "meen": 7156,
      "wijzen": 7157,
      "##voorzien": 7158,
      "export": 7159,
      "beschad": 7160,
      "thee": 7161,
      "Ann": 7162,
      "zwanger": 7163,
      "new": 7164,
      "gerechten": 7165,
      "dichter": 7166,
      "coach": 7167,
      "##stalige": 7168,
      "dertig": 7169,
      "Achter": 7170,
      "Dire": 7171,
      "Sal": 7172,
      "Sol": 7173,
      "agenda": 7174,
      "##iezen": 7175,
      "##umin": 7176,
      "##groepen": 7177,
      "##gevende": 7178,
      "evenals": 7179,
      "kook": 7180,
      "instantie": 7181,
      "hoofdstuk": 7182,
      "duidelijke": 7183,
      "##getwijfeld": 7184,
      "finale": 7185,
      "##AND": 7186,
      "verdwijnen": 7187,
      "##waardigheden": 7188,
      "ernst": 7189,
      "CO2": 7190,
      "resolutie": 7191,
      "Goede": 7192,
      "Lang": 7193,
      "cy": 7194,
      "hon": 7195,
      "hiel": 7196,
      "use": 7197,
      "##iro": 7198,
      "##anda": 7199,
      "##rijding": 7200,
      "##aking": 7201,
      "gevoelen": 7202,
      "intern": 7203,
      "verkregen": 7204,
      "print": 7205,
      "offer": 7206,
      "succesvolle": 7207,
      "meldt": 7208,
      "woningen": 7209,
      "betrouwbaar": 7210,
      "##oscoop": 7211,
      "tools": 7212,
      "Alex": 7213,
      "bra": 7214,
      "buur": 7215,
      "roep": 7216,
      "##iast": 7217,
      "##din": 7218,
      "##vige": 7219,
      "##VV": 7220,
      "vanzelf": 7221,
      "beurt": 7222,
      "##raph": 7223,
      "afsche": 7224,
      "ontzettend": 7225,
      "##aagde": 7226,
      "klacht": 7227,
      "##aamd": 7228,
      "tijdelijk": 7229,
      "Jean": 7230,
      "behoren": 7231,
      "suiker": 7232,
      "Spaanse": 7233,
      "apps": 7234,
      "##schappers": 7235,
      "paarden": 7236,
      "gebeurd": 7237,
      "##alistische": 7238,
      "##pret": 7239,
      "buitenlandse": 7240,
      "Christus": 7241,
      "jurid": 7242,
      "goedkope": 7243,
      "controleren": 7244,
      "bewerktu": 7245,
      "tijdperk": 7246,
      "Aj": 7247,
      "Olymp": 7248,
      "##weten": 7249,
      "##TS": 7250,
      "##ata": 7251,
      "##ital": 7252,
      "##arden": 7253,
      "##omas": 7254,
      "##ams": 7255,
      "##ago": 7256,
      "bloot": 7257,
      "belast": 7258,
      "minimum": 7259,
      "##ney": 7260,
      "universiteit": 7261,
      "levering": 7262,
      "que": 7263,
      "beleven": 7264,
      "1000": 7265,
      "bibliotheek": 7266,
      "wachtwoord": 7267,
      "honderden": 7268,
      "Galaxy": 7269,
      "uitgerust": 7270,
      "hers": 7271,
      "mer": 7272,
      "##cont": 7273,
      "##kten": 7274,
      "##bron": 7275,
      "##EO": 7276,
      "##TEN": 7277,
      "##olpen": 7278,
      "##entiële": 7279,
      "levende": 7280,
      "gelegd": 7281,
      "netjes": 7282,
      "ontwikkelde": 7283,
      "chocol": 7284,
      "##ours": 7285,
      "veilige": 7286,
      "culturele": 7287,
      "vleug": 7288,
      "camping": 7289,
      "Japanse": 7290,
      "elektrische": 7291,
      "vrijwilligers": 7292,
      "##duidelijk": 7293,
      "linker": 7294,
      "David": 7295,
      "nergens": 7296,
      "Leg": 7297,
      "Tib": 7298,
      "dynam": 7299,
      "heren": 7300,
      "toren": 7301,
      "##cle": 7302,
      "##let": 7303,
      "##ijsten": 7304,
      "##geh": 7305,
      "doorbl": 7306,
      "onderhouden": 7307,
      "prospect": 7308,
      "volgde": 7309,
      "190": 7310,
      "staats": 7311,
      "gelezen": 7312,
      "arts": 7313,
      "Belang": 7314,
      "##aliseerde": 7315,
      "Volks": 7316,
      "concert": 7317,
      "apparatuur": 7318,
      "officieel": 7319,
      "Berlijn": 7320,
      "telefon": 7321,
      "Em": 7322,
      "Vueling": 7323,
      "Zee": 7324,
      "##rassen": 7325,
      "##meer": 7326,
      "##jo": 7327,
      "##ér": 7328,
      "opgel": 7329,
      "onv": 7330,
      "##verl": 7331,
      "##rijpen": 7332,
      "##pens": 7333,
      "##reem": 7334,
      "2002": 7335,
      "binnenkort": 7336,
      "##ohol": 7337,
      "teams": 7338,
      "simpele": 7339,
      "nuttig": 7340,
      "satell": 7341,
      "persoonsgegevens": 7342,
      "tijde": 7343,
      "gepubliceerd": 7344,
      "Drie": 7345,
      "Kunst": 7346,
      "Nou": 7347,
      "Zoek": 7348,
      "muzik": 7349,
      "##11": 7350,
      "##ée": 7351,
      "erken": 7352,
      "##ague": 7353,
      "##ading": 7354,
      "Informatie": 7355,
      "mech": 7356,
      "##onderd": 7357,
      "bedden": 7358,
      "prim": 7359,
      "##board": 7360,
      "##ayer": 7361,
      "technieken": 7362,
      "flipbook": 7363,
      "verzekering": 7364,
      "##auto": 7365,
      "bronnen": 7366,
      "innovatie": 7367,
      "beslissing": 7368,
      "soldaten": 7369,
      "noemt": 7370,
      "geïnteress": 7371,
      "39": 7372,
      "Midden": 7373,
      "Norm": 7374,
      "cal": 7375,
      "vel": 7376,
      "##ais": 7377,
      "##eland": 7378,
      "##oris": 7379,
      "##machines": 7380,
      "exp": 7381,
      "Speci": 7382,
      "zwak": 7383,
      "luisteren": 7384,
      "##wegingen": 7385,
      "groeit": 7386,
      "gemeenschap": 7387,
      "anti": 7388,
      "praktische": 7389,
      "communic": 7390,
      "chem": 7391,
      "installeren": 7392,
      "buik": 7393,
      "effectief": 7394,
      "64": 7395,
      "IP": 7396,
      "Roy": 7397,
      "Service": 7398,
      "fit": 7399,
      "like": 7400,
      "##kast": 7401,
      "##oun": 7402,
      "##eringen": 7403,
      "##isie": 7404,
      "weig": 7405,
      "Inf": 7406,
      "##slotte": 7407,
      "hierin": 7408,
      "Zeker": 7409,
      "##zett": 7410,
      "broch": 7411,
      "combineren": 7412,
      "gecontro": 7413,
      "ontvangst": 7414,
      "##meth": 7415,
      "##ishing": 7416,
      "Ontdek": 7417,
      "nadruk": 7418,
      "straks": 7419,
      "bladerbaar": 7420,
      "voortdurend": 7421,
      "Rond": 7422,
      "VI": 7423,
      "Vraag": 7424,
      "hom": 7425,
      "long": 7426,
      "podium": 7427,
      "##ep": 7428,
      "##eerst": 7429,
      "##ctro": 7430,
      "schuld": 7431,
      "##ited": 7432,
      "##range": 7433,
      "Opt": 7434,
      "geleerd": 7435,
      "evenementen": 7436,
      "##ommel": 7437,
      "artie": 7438,
      "publicatie": 7439,
      "forum": 7440,
      "maakten": 7441,
      "Gods": 7442,
      "zomaar": 7443,
      "wandel": 7444,
      "gevangenis": 7445,
      "experiment": 7446,
      "passie": 7447,
      "auteurs": 7448,
      "distrib": 7449,
      ".,": 7450,
      "42": 7451,
      "?'": 7452,
      "Hart": 7453,
      "bol": 7454,
      "##uc": 7455,
      "##AG": 7456,
      "##ommen": 7457,
      "verschenen": 7458,
      "##reedt": 7459,
      "benieuwd": 7460,
      "##cepten": 7461,
      "handige": 7462,
      "##iller": 7463,
      "vermoed": 7464,
      "##inning": 7465,
      "actieve": 7466,
      "##ernooi": 7467,
      "##bedrijven": 7468,
      "versn": 7469,
      "toepassingen": 7470,
      "##kundig": 7471,
      "49": 7472,
      "Dig": 7473,
      "Just": 7474,
      "Power": 7475,
      "cit": 7476,
      "catalog": 7477,
      "haal": 7478,
      "kabel": 7479,
      "win": 7480,
      "stelde": 7481,
      "##iering": 7482,
      "##eeland": 7483,
      "spect": 7484,
      "##landse": 7485,
      "verschijn": 7486,
      "behoort": 7487,
      "vertoon": 7488,
      "188": 7489,
      "bestemming": 7490,
      "maatschappelijke": 7491,
      "verbetering": 7492,
      "formaat": 7493,
      "##stemd": 7494,
      "status": 7495,
      "Design": 7496,
      "letterlijk": 7497,
      "onbeperkt": 7498,
      "'-": 7499,
      "AZ": 7500,
      "Echter": 7501,
      "Wik": 7502,
      "duren": 7503,
      "edit": 7504,
      "mel": 7505,
      "oost": 7506,
      "raakt": 7507,
      "rente": 7508,
      "##card": 7509,
      "##mus": 7510,
      "beant": 7511,
      "islam": 7512,
      "voorheen": 7513,
      "##vere": 7514,
      "stren": 7515,
      "bijeen": 7516,
      "##sector": 7517,
      "Int": 7518,
      "gras": 7519,
      "grenzen": 7520,
      "##datum": 7521,
      "##blog": 7522,
      "##gebieden": 7523,
      "evenement": 7524,
      "aangekond": 7525,
      "##artementen": 7526,
      "Groen": 7527,
      "gebeurde": 7528,
      "logo": 7529,
      "Kortom": 7530,
      "verscheidene": 7531,
      "Wereldoorlog": 7532,
      "##verzekering": 7533,
      "indrukwekkende": 7534,
      "Tibet": 7535,
      "DVD": 7536,
      "Mont": 7537,
      "ag": 7538,
      "fre": 7539,
      "##pakt": 7540,
      "##la": 7541,
      "##fit": 7542,
      "##dheid": 7543,
      "##bur": 7544,
      "##orpen": 7545,
      "##informatie": 7546,
      "##iten": 7547,
      "ongetwijfeld": 7548,
      "##gemeester": 7549,
      "##iland": 7550,
      "##utten": 7551,
      "Algemene": 7552,
      "##wedst": 7553,
      "##pert": 7554,
      "beziens": 7555,
      "##look": 7556,
      "##vante": 7557,
      "voelde": 7558,
      "sehr": 7559,
      "##vloeden": 7560,
      "##ohn": 7561,
      "Univers": 7562,
      "patiënt": 7563,
      "succesvol": 7564,
      "lidstaten": 7565,
      "gecom": 7566,
      "presenteren": 7567,
      "geselect": 7568,
      "items": 7569,
      "Cap": 7570,
      "Prijs": 7571,
      "mus": 7572,
      "nee": 7573,
      "##kon": 7574,
      "##di": 7575,
      "##vatten": 7576,
      "##Book": 7577,
      "streek": 7578,
      "##idings": 7579,
      "##ogel": 7580,
      "waaruit": 7581,
      "mochten": 7582,
      "kanten": 7583,
      "##erming": 7584,
      "computers": 7585,
      "##ques": 7586,
      "##appar": 7587,
      "antwoorden": 7588,
      "dichtbij": 7589,
      "which": 7590,
      "wedstrijden": 7591,
      "warmte": 7592,
      "magazine": 7593,
      "concurrentie": 7594,
      "Rusland": 7595,
      "prospects": 7596,
      "!)": 7597,
      "38": 7598,
      "EE": 7599,
      "Eerst": 7600,
      "missie": 7601,
      "rob": 7602,
      "rijst": 7603,
      "ur": 7604,
      "wa": 7605,
      "wees": 7606,
      "##vragen": 7607,
      "##beelden": 7608,
      "##basis": 7609,
      "##ita": 7610,
      "##onstr": 7611,
      "beurs": 7612,
      "##isk": 7613,
      "##unn": 7614,
      "waarschuw": 7615,
      "confl": 7616,
      "bestond": 7617,
      "genoemde": 7618,
      "tijdschrift": 7619,
      "effecten": 7620,
      "cloud": 7621,
      "250": 7622,
      "Expl": 7623,
      "recre": 7624,
      "bereikbaar": 7625,
      "##model": 7626,
      "introductie": 7627,
      "Zodra": 7628,
      "AB": 7629,
      "Nat": 7630,
      "Pvd": 7631,
      "Rem": 7632,
      "Zow": 7633,
      "hop": 7634,
      "raden": 7635,
      "sem": 7636,
      "zette": 7637,
      "##szins": 7638,
      "##kings": 7639,
      "##boeken": 7640,
      "##zinn": 7641,
      "##IC": 7642,
      "instelling": 7643,
      "geï": 7644,
      "##gewerkt": 7645,
      "##raft": 7646,
      "##ush": 7647,
      "repar": 7648,
      "onth": 7649,
      "bedankt": 7650,
      "Stand": 7651,
      "##neden": 7652,
      "samenwerken": 7653,
      "hoogst": 7654,
      "##geleid": 7655,
      "geheele": 7656,
      "gesprekken": 7657,
      "blijken": 7658,
      "vriendin": 7659,
      "behandelen": 7660,
      "uitgebracht": 7661,
      "donkere": 7662,
      "##ferentie": 7663,
      "##liggende": 7664,
      "Dutch": 7665,
      "haalt": 7666,
      "trend": 7667,
      "##Point": 7668,
      "##yle": 7669,
      "##ract": 7670,
      "##igende": 7671,
      "hierover": 7672,
      "##groeid": 7673,
      "belangen": 7674,
      "ther": 7675,
      "##ifi": 7676,
      "feite": 7677,
      "bereken": 7678,
      "Group": 7679,
      "kritiek": 7680,
      "journalist": 7681,
      "##begrepen": 7682,
      "sleutel": 7683,
      "##magaz": 7684,
      "applicaties": 7685,
      "37": 7686,
      "Az": 7687,
      "City": 7688,
      "HET": 7689,
      "Jong": 7690,
      "Tussen": 7691,
      "Zeeland": 7692,
      "every": 7693,
      "raam": 7694,
      "wapen": 7695,
      "eng": 7696,
      "end": 7697,
      "##dert": 7698,
      "stenen": 7699,
      "ermee": 7700,
      "wegens": 7701,
      "spe": 7702,
      "plast": 7703,
      "##week": 7704,
      "Str": 7705,
      "Start": 7706,
      "beschrij": 7707,
      "##rong": 7708,
      "support": 7709,
      "##centratie": 7710,
      "Hiermee": 7711,
      "verwachting": 7712,
      "hypotheek": 7713,
      "Meest": 7714,
      "fase": 7715,
      "tak": 7716,
      "##ric": 7717,
      "##face": 7718,
      "voorkomt": 7719,
      "##omb": 7720,
      "##omer": 7721,
      "recent": 7722,
      "toezicht": 7723,
      "##rongen": 7724,
      "Anders": 7725,
      "##aving": 7726,
      "huisarts": 7727,
      "Arn": 7728,
      "vloe": 7729,
      "afspraken": 7730,
      "Turn": 7731,
      "aanbieding": 7732,
      "adviseren": 7733,
      "identiteit": 7734,
      "vliegtuig": 7735,
      "overlijden": 7736,
      "Ajax": 7737,
      "Zowel": 7738,
      "Fa": 7739,
      "To": 7740,
      "bag": 7741,
      "cr": 7742,
      "gouden": 7743,
      "lijden": 7744,
      "leest": 7745,
      "must": 7746,
      "zaal": 7747,
      "##ters": 7748,
      "##gie": 7749,
      "##beer": 7750,
      "##OT": 7751,
      "##onom": 7752,
      "##leider": 7753,
      "verwerkt": 7754,
      "##ida": 7755,
      "##schot": 7756,
      "ofschoon": 7757,
      "Intel": 7758,
      "volop": 7759,
      "##orth": 7760,
      "toilet": 7761,
      "##anningen": 7762,
      "vertrek": 7763,
      "handelen": 7764,
      "##aller": 7765,
      "subsid": 7766,
      "plaatsvinden": 7767,
      "verhogen": 7768,
      "##erveerd": 7769,
      "steken": 7770,
      "Volvo": 7771,
      "tekort": 7772,
      "Samoa": 7773,
      "gedeelt": 7774,
      "afstamm": 7775,
      "Linux": 7776,
      "vergroten": 7777,
      "gebeurtenissen": 7778,
      "accessoires": 7779,
      "medicijnen": 7780,
      "fasc": 7781,
      "##nes": 7782,
      "##ochten": 7783,
      "##40": 7784,
      "deuren": 7785,
      "inten": 7786,
      "##derde": 7787,
      "##ario": 7788,
      "aandoen": 7789,
      "anim": 7790,
      "schr": 7791,
      "Inmiddels": 7792,
      "volks": 7793,
      "klok": 7794,
      "##houders": 7795,
      "##ideo": 7796,
      "##ifest": 7797,
      "wetenschappelijk": 7798,
      "geldig": 7799,
      "Thomas": 7800,
      "##ollicit": 7801,
      "biologische": 7802,
      "droom": 7803,
      "menselijke": 7804,
      "professionals": 7805,
      "talent": 7806,
      "analys": 7807,
      "respons": 7808,
      "toeristen": 7809,
      "bevestigd": 7810,
      "Der": 7811,
      "Kun": 7812,
      "Pan": 7813,
      "bleven": 7814,
      "fund": 7815,
      "gelijke": 7816,
      "luk": 7817,
      "vieren": 7818,
      "##cohol": 7819,
      "##66": 7820,
      "##aads": 7821,
      "bewerk": 7822,
      "vervang": 7823,
      "##verslag": 7824,
      "##ersp": 7825,
      "ondernemen": 7826,
      "prom": 7827,
      "veelal": 7828,
      "externe": 7829,
      "##uster": 7830,
      "##essor": 7831,
      "Begin": 7832,
      "handels": 7833,
      "probeer": 7834,
      "##netjes": 7835,
      "Leiden": 7836,
      "zekerheid": 7837,
      "parlement": 7838,
      "Gratis": 7839,
      "##orpor": 7840,
      "beperken": 7841,
      "lossen": 7842,
      "wandelen": 7843,
      "wetgeving": 7844,
      "specifiek": 7845,
      "ernstig": 7846,
      "produceren": 7847,
      "oppervlakte": 7848,
      "aardig": 7849,
      "Aangezien": 7850,
      "benodigde": 7851,
      "47": 7852,
      "400": 7853,
      "good": 7854,
      "hant": 7855,
      "lamp": 7856,
      "##pal": 7857,
      "##uip": 7858,
      "##vraag": 7859,
      "##LE": 7860,
      "vandaan": 7861,
      "##onken": 7862,
      "##ijkomen": 7863,
      "streven": 7864,
      "##wijde": 7865,
      "##blijf": 7866,
      "genaamd": 7867,
      "zout": 7868,
      "doelen": 7869,
      "zijde": 7870,
      "##rix": 7871,
      "##ubliek": 7872,
      "auth": 7873,
      "aparte": 7874,
      "##riter": 7875,
      "rechtbank": 7876,
      "doelgroep": 7877,
      "locaties": 7878,
      "beperkte": 7879,
      "besparen": 7880,
      "relevante": 7881,
      "##gelegenheid": 7882,
      "justitie": 7883,
      "Edit": 7884,
      "Mot": 7885,
      "Nov": 7886,
      "Pal": 7887,
      "koude": 7888,
      "miss": 7889,
      "rac": 7890,
      "tas": 7891,
      "##rid": 7892,
      "##ziet": 7893,
      "##ining": 7894,
      "##inke": 7895,
      "ingesteld": 7896,
      "##arische": 7897,
      "verhouding": 7898,
      "aanpass": 7899,
      "metro": 7900,
      "struct": 7901,
      "uitsp": 7902,
      "well": 7903,
      "##acten": 7904,
      "tocht": 7905,
      "##afstand": 7906,
      "Daardoor": 7907,
      "##maals": 7908,
      "##lubs": 7909,
      "keus": 7910,
      "geholpen": 7911,
      "filosof": 7912,
      "189": 7913,
      "gestuurd": 7914,
      "negent": 7915,
      "##gaven": 7916,
      "uitgez": 7917,
      "Elk": 7918,
      "##valu": 7919,
      "onbekende": 7920,
      "balans": 7921,
      "kampioen": 7922,
      "##knop": 7923,
      "dubbel": 7924,
      "enthousiast": 7925,
      "auteur": 7926,
      "##ördin": 7927,
      "gespecialiseerd": 7928,
      "uitstraling": 7929,
      "gecontroleerd": 7930,
      "##pol": 7931,
      "##macht": 7932,
      "##ues": 7933,
      "##wicht": 7934,
      "##bouwen": 7935,
      "##PN": 7936,
      "inbegrepen": 7937,
      "voorstel": 7938,
      "meten": 7939,
      "##olven": 7940,
      "##raden": 7941,
      "uitv": 7942,
      "##ierd": 7943,
      "##agers": 7944,
      "protest": 7945,
      "modu": 7946,
      "##lands": 7947,
      "##wijzingen": 7948,
      "Beide": 7949,
      "verhuis": 7950,
      "verlichting": 7951,
      "##ypte": 7952,
      "implement": 7953,
      "##organisaties": 7954,
      "kijkje": 7955,
      "Indones": 7956,
      "horlo": 7957,
      "slaapkamer": 7958,
      "onderzocht": 7959,
      "overtuigd": 7960,
      "correct": 7961,
      "geproduceerd": 7962,
      "reizigers": 7963,
      "geregistr": 7964,
      "''": 7965,
      "BB": 7966,
      "Ball": 7967,
      "Ged": 7968,
      "Sun": 7969,
      "boe": 7970,
      "dos": 7971,
      "haak": 7972,
      "##jarige": 7973,
      "##wand": 7974,
      "##IV": 7975,
      "deelen": 7976,
      "##ates": 7977,
      "##igur": 7978,
      "##arig": 7979,
      "opgebouwd": 7980,
      "ann": 7981,
      "onderweg": 7982,
      "spanning": 7983,
      "##istiek": 7984,
      "##key": 7985,
      "voldoet": 7986,
      "##slims": 7987,
      "##abele": 7988,
      "##duizen": 7989,
      "gewonnen": 7990,
      "verteld": 7991,
      "##inaire": 7992,
      "verminder": 7993,
      "werktuigen": 7994,
      "koper": 7995,
      "modern": 7996,
      "analyse": 7997,
      "verdwenen": 7998,
      "volwassenen": 7999,
      "architectuur": 8000,
      "##resultaten": 8001,
      "focus": 8002,
      "besturings": 8003,
      "52": 8004,
      "Oranje": 8005,
      "Tijd": 8006,
      "gij": 8007,
      "taf": 8008,
      "##mon": 8009,
      "##St": 8010,
      "##zamer": 8011,
      "##15": 8012,
      "geur": 8013,
      "##dex": 8014,
      "##ola": 8015,
      "##tende": 8016,
      "##elding": 8017,
      "mini": 8018,
      "armen": 8019,
      "##uiven": 8020,
      "char": 8021,
      "gekopp": 8022,
      "negen": 8023,
      "kleiner": 8024,
      "medewerker": 8025,
      "client": 8026,
      "betekenen": 8027,
      "krachten": 8028,
      "##plek": 8029,
      "tekenen": 8030,
      "duizend": 8031,
      "efficiënt": 8032,
      "Business": 8033,
      "Office": 8034,
      "avontuur": 8035,
      "PvdA": 8036,
      "Cre": 8037,
      "Kore": 8038,
      "Ob": 8039,
      "RO": 8040,
      "dia": 8041,
      "lab": 8042,
      "ving": 8043,
      "ziel": 8044,
      "##pte": 8045,
      "##hu": 8046,
      "##AC": 8047,
      "##ypen": 8048,
      "##elder": 8049,
      "##inse": 8050,
      "##ieme": 8051,
      "ins": 8052,
      "omvang": 8053,
      "uitgang": 8054,
      "promot": 8055,
      "##umn": 8056,
      "##ipt": 8057,
      "gedownload": 8058,
      "##mpath": 8059,
      "Parlement": 8060,
      "##ructies": 8061,
      "garanderen": 8062,
      "##igting": 8063,
      "gezondheids": 8064,
      "verzameld": 8065,
      "hoorde": 8066,
      "ministerie": 8067,
      "comfortabel": 8068,
      "lagere": 8069,
      "tempo": 8070,
      "##elateerde": 8071,
      "wettelijke": 8072,
      "Reageren": 8073,
      "verdedig": 8074,
      "Wim": 8075,
      "##pijn": 8076,
      "##maak": 8077,
      "##loss": 8078,
      "##AD": 8079,
      "##zone": 8080,
      "##eler": 8081,
      "inr": 8082,
      "##ariteit": 8083,
      "##rec": 8084,
      "real": 8085,
      "zevent": 8086,
      "ondertussen": 8087,
      "##veen": 8088,
      "klooster": 8089,
      "verkeerd": 8090,
      "vertaald": 8091,
      "christen": 8092,
      "##less": 8093,
      "vlag": 8094,
      "servers": 8095,
      "vervolg": 8096,
      "vijfde": 8097,
      "##ificaties": 8098,
      "trainer": 8099,
      "financieel": 8100,
      "ondernemings": 8101,
      "verspreiding": 8102,
      "Brab": 8103,
      "wederom": 8104,
      "negatieve": 8105,
      "aspecten": 8106,
      "tientallen": 8107,
      "vaardigheden": 8108,
      "aangekondigd": 8109,
      "bezienswaardigheden": 8110,
      ":||": 8111,
      "Hoofd": 8112,
      "ICT": 8113,
      "Lat": 8114,
      "cd": 8115,
      "full": 8116,
      "goederen": 8117,
      "telt": 8118,
      "vluchten": 8119,
      "##ls": 8120,
      "##lief": 8121,
      "##RL": 8122,
      "voordel": 8123,
      "stichting": 8124,
      "strak": 8125,
      "##aleis": 8126,
      "Star": 8127,
      "##itieve": 8128,
      "Rep": 8129,
      "missen": 8130,
      "##braak": 8131,
      "sterker": 8132,
      "Black": 8133,
      "rustige": 8134,
      "duister": 8135,
      "Share": 8136,
      "registreer": 8137,
      "casino": 8138,
      ",,": 8139,
      "Go": 8140,
      "Hot": 8141,
      "Jos": 8142,
      "Live": 8143,
      "audio": 8144,
      "rook": 8145,
      "##pad": 8146,
      "##kleur": 8147,
      "##lich": 8148,
      "opn": 8149,
      "##leken": 8150,
      "onrecht": 8151,
      "alcohol": 8152,
      "##ilj": 8153,
      "##okjes": 8154,
      "##ragt": 8155,
      "##steun": 8156,
      "any": 8157,
      "spre": 8158,
      "##irt": 8159,
      "bedragen": 8160,
      "koken": 8161,
      "herstel": 8162,
      "gestart": 8163,
      "Klant": 8164,
      "Onderzoek": 8165,
      "cookie": 8166,
      "situaties": 8167,
      "Luc": 8168,
      "kunstenaar": 8169,
      "uitzondering": 8170,
      "##vriendelijke": 8171,
      "vacatures": 8172,
      "slachtoffers": 8173,
      "menigte": 8174,
      "2e": 8175,
      "NL": 8176,
      "Ron": 8177,
      "roepen": 8178,
      "von": 8179,
      "zeld": 8180,
      "##som": 8181,
      "##rin": 8182,
      "##nacht": 8183,
      "##club": 8184,
      "intens": 8185,
      "##asy": 8186,
      "Inhoud": 8187,
      "spullen": 8188,
      "##orende": 8189,
      "##loggen": 8190,
      "gepresent": 8191,
      "##iana": 8192,
      "blijkbaar": 8193,
      "ondersteunt": 8194,
      "consument": 8195,
      "India": 8196,
      "Vlaams": 8197,
      "roman": 8198,
      "jaarlijkse": 8199,
      "aanrader": 8200,
      "Gemeen": 8201,
      "database": 8202,
      "1x": 8203,
      "AR": 8204,
      "Bach": 8205,
      "Kerk": 8206,
      "Sle": 8207,
      "Weten": 8208,
      "mater": 8209,
      "vat": 8210,
      "vracht": 8211,
      "##24": 8212,
      "##any": 8213,
      "voorzicht": 8214,
      "##omgeving": 8215,
      "##unes": 8216,
      "##ogd": 8217,
      "meerder": 8218,
      "toel": 8219,
      "##bergen": 8220,
      "genees": 8221,
      "benen": 8222,
      "##logen": 8223,
      "verboden": 8224,
      "houding": 8225,
      "vertrekken": 8226,
      "##ooth": 8227,
      "vrouwelijke": 8228,
      "120": 8229,
      "krachtige": 8230,
      "schermen": 8231,
      "Canada": 8232,
      "onafhankelijke": 8233,
      "gelooven": 8234,
      "##standers": 8235,
      "cirkel": 8236,
      "ernstige": 8237,
      "AC": 8238,
      "Bon": 8239,
      "Jo": 8240,
      "KN": 8241,
      "Ray": 8242,
      "koor": 8243,
      "keek": 8244,
      "lim": 8245,
      "mig": 8246,
      "muis": 8247,
      "ring": 8248,
      "tom": 8249,
      "wiel": 8250,
      "zachte": 8251,
      "##cript": 8252,
      "##lin": 8253,
      "##fst": 8254,
      "##AAR": 8255,
      "##zee": 8256,
      "degenen": 8257,
      "##chen": 8258,
      "##techn": 8259,
      "##opdracht": 8260,
      "##entijd": 8261,
      "##ruchten": 8262,
      "procedure": 8263,
      "afloop": 8264,
      "ext": 8265,
      "##anner": 8266,
      "##centage": 8267,
      "compon": 8268,
      "##ureel": 8269,
      "bovenstaande": 8270,
      "Marc": 8271,
      "verzorgen": 8272,
      "Griek": 8273,
      "transpar": 8274,
      "fantastisch": 8275,
      "##stijds": 8276,
      "Surin": 8277,
      "kabinet": 8278,
      "plotseling": 8279,
      "dokter": 8280,
      "46": 8281,
      "Ru": 8282,
      "Sen": 8283,
      "Vier": 8284,
      "Zoo": 8285,
      "Zaken": 8286,
      "crimin": 8287,
      "gids": 8288,
      "letters": 8289,
      "sw": 8290,
      "sen": 8291,
      "##ko": 8292,
      "##oeten": 8293,
      "##zil": 8294,
      "##steld": 8295,
      "opgesteld": 8296,
      "staart": 8297,
      "##ulde": 8298,
      "##ado": 8299,
      "sporen": 8300,
      "##spunt": 8301,
      "##istisch": 8302,
      "belof": 8303,
      "##gemoet": 8304,
      "vastgesteld": 8305,
      "bewaren": 8306,
      "neus": 8307,
      "gaven": 8308,
      "attra": 8309,
      "verbeterd": 8310,
      "verklaren": 8311,
      "koningin": 8312,
      "Portug": 8313,
      "##trent": 8314,
      "Login": 8315,
      "aantrekkelijk": 8316,
      "William": 8317,
      "Famil": 8318,
      "HTC": 8319,
      "Sant": 8320,
      "Vak": 8321,
      "Vader": 8322,
      "har": 8323,
      "mm": 8324,
      "mix": 8325,
      "##ules": 8326,
      "##MA": 8327,
      "##KE": 8328,
      "##streek": 8329,
      "verse": 8330,
      "verwerken": 8331,
      "##schil": 8332,
      "uitspraak": 8333,
      "zoet": 8334,
      "##sprek": 8335,
      "afkomst": 8336,
      "klin": 8337,
      "gevuld": 8338,
      "##iving": 8339,
      "slaat": 8340,
      "##aardige": 8341,
      "chron": 8342,
      "optimale": 8343,
      "hoofdstad": 8344,
      "##ights": 8345,
      "krachtig": 8346,
      "##belasting": 8347,
      "Grand": 8348,
      "##regels": 8349,
      "Terug": 8350,
      "##asterden": 8351,
      "##wisseling": 8352,
      "desktops": 8353,
      "prettig": 8354,
      "##spireerd": 8355,
      "Victor": 8356,
      "authent": 8357,
      "High": 8358,
      "Les": 8359,
      "Mari": 8360,
      "Nij": 8361,
      "Pass": 8362,
      "Serv": 8363,
      "pur": 8364,
      "##86": 8365,
      "##TW": 8366,
      "##atter": 8367,
      "opzig": 8368,
      "stor": 8369,
      "##imenten": 8370,
      "leidde": 8371,
      "##bewijs": 8372,
      "##utr": 8373,
      "##kerk": 8374,
      "concentratie": 8375,
      "##houds": 8376,
      "##alender": 8377,
      "##gestuurd": 8378,
      "wetenschappers": 8379,
      "verminderen": 8380,
      "##alisering": 8381,
      "besluiten": 8382,
      "organiseert": 8383,
      "technisch": 8384,
      "aanvaard": 8385,
      "Center": 8386,
      "rijke": 8387,
      "massa": 8388,
      "beveiliging": 8389,
      "filmpje": 8390,
      "##danig": 8391,
      "lekkere": 8392,
      "beantwoorden": 8393,
      "41": 8394,
      "Fre": 8395,
      "Maast": 8396,
      "WE": 8397,
      "foss": 8398,
      "hol": 8399,
      "maag": 8400,
      "##kopen": 8401,
      "##laat": 8402,
      "##fa": 8403,
      "##hoe": 8404,
      "##zige": 8405,
      "##eelt": 8406,
      "##tere": 8407,
      "theorie": 8408,
      "begro": 8409,
      "gescheiden": 8410,
      "vergader": 8411,
      "getrokken": 8412,
      "##ible": 8413,
      "beroemde": 8414,
      "##phen": 8415,
      "##herapie": 8416,
      "miljoenen": 8417,
      "nachts": 8418,
      "ondernemer": 8419,
      "processen": 8420,
      "opleidingen": 8421,
      "oorsprong": 8422,
      "release": 8423,
      "uiteenlopende": 8424,
      "Bank": 8425,
      "Maur": 8426,
      "Rich": 8427,
      "Ts": 8428,
      "Wol": 8429,
      "Zwe": 8430,
      "gal": 8431,
      "haast": 8432,
      "##cul": 8433,
      "##KT": 8434,
      "##ès": 8435,
      "##orer": 8436,
      "##dekt": 8437,
      "##ijnse": 8438,
      "meg": 8439,
      "toestellen": 8440,
      "terror": 8441,
      "##stenen": 8442,
      "mijne": 8443,
      "verborgen": 8444,
      "##boot": 8445,
      "blijf": 8446,
      "vrijblijven": 8447,
      "knie": 8448,
      "Heilige": 8449,
      "trekt": 8450,
      "##bry": 8451,
      "Duitsers": 8452,
      "kopie": 8453,
      "docenten": 8454,
      "publicaties": 8455,
      "what": 8456,
      "geïntegr": 8457,
      "verklaard": 8458,
      "##making": 8459,
      "zoektocht": 8460,
      "vreemde": 8461,
      "##avanc": 8462,
      "advertenties": 8463,
      "##krant": 8464,
      ",'": 8465,
      "DER": 8466,
      "Tel": 8467,
      "branden": 8468,
      "mit": 8469,
      "rock": 8470,
      "##riv": 8471,
      "##voudig": 8472,
      "##De": 8473,
      "##anische": 8474,
      "degelijk": 8475,
      "aanmerking": 8476,
      "##olatie": 8477,
      "##eleinden": 8478,
      "lezers": 8479,
      "werknemer": 8480,
      "Stel": 8481,
      "weerstand": 8482,
      "##renten": 8483,
      "gezel": 8484,
      "praat": 8485,
      "handleiding": 8486,
      "vergoeding": 8487,
      "League": 8488,
      "flinke": 8489,
      "luister": 8490,
      "aanvallen": 8491,
      "sterven": 8492,
      "patroon": 8493,
      "vissen": 8494,
      "##sprogramma": 8495,
      "diff": 8496,
      "mobiel": 8497,
      "fraaie": 8498,
      "efficiën": 8499,
      "commerciële": 8500,
      "processor": 8501,
      "drugs": 8502,
      "café": 8503,
      "voorlopig": 8504,
      "onvrucht": 8505,
      "Maastricht": 8506,
      ".|": 8507,
      "??": 8508,
      "Hend": 8509,
      "Ierland": 8510,
      "banen": 8511,
      "ie": 8512,
      "maten": 8513,
      "tit": 8514,
      "wapens": 8515,
      "##keren": 8516,
      "##ful": 8517,
      "##dur": 8518,
      "##inf": 8519,
      "##itaire": 8520,
      "##ards": 8521,
      "verzet": 8522,
      "stoel": 8523,
      "overheids": 8524,
      "schat": 8525,
      "wille": 8526,
      "weergave": 8527,
      "arg": 8528,
      "##formulier": 8529,
      "##assa": 8530,
      "##iveaus": 8531,
      "180": 8532,
      "ruimtes": 8533,
      "commissie": 8534,
      "minuut": 8535,
      "##sproces": 8536,
      "infrastructuur": 8537,
      "grapp": 8538,
      "##kwam": 8539,
      "##celona": 8540,
      "objecten": 8541,
      "afbeelding": 8542,
      "aanzienlijk": 8543,
      "alternatief": 8544,
      "gemeenter": 8545,
      "geringe": 8546,
      "gepresenteerd": 8547,
      "\"-": 8548,
      "Bas": 8549,
      "Cro": 8550,
      "Fire": 8551,
      "OS": 8552,
      "Toe": 8553,
      "Weer": 8554,
      "ep": 8555,
      "lens": 8556,
      "muren": 8557,
      "pour": 8558,
      "##gangen": 8559,
      "##dij": 8560,
      "##wit": 8561,
      "##bied": 8562,
      "##ïne": 8563,
      "##arbe": 8564,
      "##iler": 8565,
      "##urity": 8566,
      "##ograaf": 8567,
      "omtrent": 8568,
      "##stein": 8569,
      "##eleken": 8570,
      "##immer": 8571,
      "prot": 8572,
      "Inn": 8573,
      "2020": 8574,
      "platen": 8575,
      "zelfstandig": 8576,
      "##periode": 8577,
      "##bericht": 8578,
      "gezocht": 8579,
      "##ceaan": 8580,
      "##oodse": 8581,
      "##ptie": 8582,
      "##odigd": 8583,
      "vergeleken": 8584,
      "verloop": 8585,
      "Schip": 8586,
      "publishing": 8587,
      "##ateur": 8588,
      "teleur": 8589,
      "aanval": 8590,
      "##zaamheid": 8591,
      "##aille": 8592,
      "##cteur": 8593,
      "##minste": 8594,
      "praktisch": 8595,
      "Search": 8596,
      "serieus": 8597,
      "opdrachten": 8598,
      "behoeften": 8599,
      "Consument": 8600,
      "Hallo": 8601,
      "exemplaren": 8602,
      "BV": 8603,
      "Lo": 8604,
      "Nav": 8605,
      "basterden": 8606,
      "dou": 8607,
      "line": 8608,
      "##dy": 8609,
      "##xx": 8610,
      "##atform": 8611,
      "##denk": 8612,
      "##aria": 8613,
      "wein": 8614,
      "onderhand": 8615,
      "schulden": 8616,
      "##istan": 8617,
      "##gevoel": 8618,
      "langere": 8619,
      "koers": 8620,
      "koelk": 8621,
      "herh": 8622,
      "Reis": 8623,
      "stevig": 8624,
      "##eefd": 8625,
      "beleving": 8626,
      "Priv": 8627,
      "diagn": 8628,
      "troepen": 8629,
      "##wongen": 8630,
      "onderscheid": 8631,
      "toevall": 8632,
      "afwiss": 8633,
      "inspireren": 8634,
      "Harry": 8635,
      "##retaris": 8636,
      "Film": 8637,
      "workshops": 8638,
      "would": 8639,
      "domeinn": 8640,
      "inzake": 8641,
      "advocaat": 8642,
      "gitaar": 8643,
      "##pload": 8644,
      "Limburg": 8645,
      "opmerkingen": 8646,
      "GT": 8647,
      "IB": 8648,
      "Kamp": 8649,
      "Ou": 8650,
      "Oude": 8651,
      "Sj": 8652,
      "bv": 8653,
      "eraan": 8654,
      "nicht": 8655,
      "nest": 8656,
      "riep": 8657,
      "some": 8658,
      "wisten": 8659,
      "zanger": 8660,
      "##riet": 8661,
      "##ta": 8662,
      "##waren": 8663,
      "##SL": 8664,
      "##iepen": 8665,
      "tegemoet": 8666,
      "voorwerpen": 8667,
      "##gehouden": 8668,
      "##gegaan": 8669,
      "aankomst": 8670,
      "aansluiten": 8671,
      "##ologen": 8672,
      "Dec": 8673,
      "also": 8674,
      "alsnog": 8675,
      "besteed": 8676,
      "toets": 8677,
      "##wijzing": 8678,
      "eigendom": 8679,
      "interne": 8680,
      "beschouw": 8681,
      "##tijds": 8682,
      "Verm": 8683,
      "verschillend": 8684,
      "##voet": 8685,
      "School": 8686,
      "Hiervoor": 8687,
      "lieve": 8688,
      "trok": 8689,
      "geïnstal": 8690,
      "burgemeester": 8691,
      "Barcelona": 8692,
      "veroorzaken": 8693,
      "factoren": 8694,
      "soepel": 8695,
      "sieraden": 8696,
      "##producten": 8697,
      "##vlees": 8698,
      "doorgaans": 8699,
      "verdieping": 8700,
      "Bay": 8701,
      "Houd": 8702,
      "Jaar": 8703,
      "Mel": 8704,
      "au": 8705,
      "certific": 8706,
      "viss": 8707,
      "##niveau": 8708,
      "##uck": 8709,
      "##FS": 8710,
      "##elp": 8711,
      "deels": 8712,
      "ingel": 8713,
      "ingang": 8714,
      "eenen": 8715,
      "##ongen": 8716,
      "##ros": 8717,
      "##ikelen": 8718,
      "spellen": 8719,
      "meester": 8720,
      "bedraagt": 8721,
      "exclus": 8722,
      "begins": 8723,
      "beheren": 8724,
      "##oeging": 8725,
      "##andering": 8726,
      "konink": 8727,
      "lukt": 8728,
      "verzorgd": 8729,
      "##brug": 8730,
      "##brand": 8731,
      "college": 8732,
      "element": 8733,
      "##atorium": 8734,
      "##pectie": 8735,
      "student": 8736,
      "##work": 8737,
      "verrass": 8738,
      "betrouwbare": 8739,
      "##bestuur": 8740,
      "versterken": 8741,
      "##uraç": 8742,
      "Swatch": 8743,
      "licentie": 8744,
      "56": 8745,
      "Boek": 8746,
      "Curaç": 8747,
      "Grieken": 8748,
      "Hof": 8749,
      "Hoge": 8750,
      "Pat": 8751,
      "Tour": 8752,
      "cru": 8753,
      "dom": 8754,
      "file": 8755,
      "harte": 8756,
      "lunch": 8757,
      "pag": 8758,
      "tip": 8759,
      "vaders": 8760,
      "##ka": 8761,
      "##fr": 8762,
      "##——": 8763,
      "##etisch": 8764,
      "destijds": 8765,
      "gekeken": 8766,
      "##alth": 8767,
      "##eesten": 8768,
      "aankl": 8769,
      "##heim": 8770,
      "##oph": 8771,
      "overd": 8772,
      "##ulatie": 8773,
      "ploeg": 8774,
      "bloe": 8775,
      "Store": 8776,
      "gedragen": 8777,
      "##ronen": 8778,
      "samengesteld": 8779,
      "Beeld": 8780,
      "regionale": 8781,
      "Doordat": 8782,
      "instinkt": 8783,
      "##gangers": 8784,
      "beslag": 8785,
      "##eurs": 8786,
      "gewoonlijk": 8787,
      "##iano": 8788,
      "webwinkel": 8789,
      "redden": 8790,
      "##maker": 8791,
      "debat": 8792,
      "elektronische": 8793,
      "aansprakelijk": 8794,
      "Palest": 8795,
      "geïnteresseerd": 8796,
      "AZC": 8797,
      "Explorer": 8798,
      "Dis": 8799,
      "Frie": 8800,
      "Kinderen": 8801,
      "Lib": 8802,
      "NS": 8803,
      "Rom": 8804,
      "Rode": 8805,
      "Til": 8806,
      "horm": 8807,
      "nr": 8808,
      "touch": 8809,
      "##ré": 8810,
      "##rel": 8811,
      "##wat": 8812,
      "##instellingen": 8813,
      "##ches": 8814,
      "gewe": 8815,
      "geavanc": 8816,
      "##ilde": 8817,
      "##esc": 8818,
      "Inc": 8819,
      "wijst": 8820,
      "elf": 8821,
      "langdur": 8822,
      "belangstelling": 8823,
      "##iveren": 8824,
      "geraakt": 8825,
      "bepaalt": 8826,
      "aanbie": 8827,
      "##ianen": 8828,
      "##athol": 8829,
      "##keurige": 8830,
      "##ventaris": 8831,
      "embry": 8832,
      "bespreken": 8833,
      "Laatste": 8834,
      "literatuur": 8835,
      "hyper": 8836,
      "ingred": 8837,
      "fantastische": 8838,
      "sjablonen": 8839,
      "##otheken": 8840,
      "AS": 8841,
      "Green": 8842,
      "Kr": 8843,
      "Leer": 8844,
      "front": 8845,
      "katten": 8846,
      "markten": 8847,
      "oven": 8848,
      "sommigen": 8849,
      "zolang": 8850,
      "##ael": 8851,
      "##gn": 8852,
      "##fs": 8853,
      "##host": 8854,
      "##erings": 8855,
      "##leerde": 8856,
      "verover": 8857,
      "##ream": 8858,
      "aangeven": 8859,
      "##ammen": 8860,
      "##ograph": 8861,
      "omgezet": 8862,
      "uitb": 8863,
      "##elefoon": 8864,
      "were": 8865,
      "schieten": 8866,
      "wild": 8867,
      "##rans": 8868,
      "box": 8869,
      "kwets": 8870,
      "Beach": 8871,
      "vorming": 8872,
      "gekleur": 8873,
      "schrijvers": 8874,
      "Plaats": 8875,
      "Onderwijs": 8876,
      "geslaagd": 8877,
      "droge": 8878,
      "##velop": 8879,
      "##rediet": 8880,
      "activiteit": 8881,
      "zulk": 8882,
      "ambitie": 8883,
      "##krachten": 8884,
      "object": 8885,
      "oorspronkelijk": 8886,
      "##tekening": 8887,
      "zenuw": 8888,
      "Bronnen": 8889,
      "USB": 8890,
      "fabrikant": 8891,
      "rangsch": 8892,
      "gedeeltelijk": 8893,
      "gekoppeld": 8894,
      "57": 8895,
      "54": 8896,
      "Bor": 8897,
      "Berg": 8898,
      "geren": 8899,
      "if": 8900,
      "lieten": 8901,
      "pand": 8902,
      "##ii": 8903,
      "##paste": 8904,
      "##lor": 8905,
      "##fly": 8906,
      "##bu": 8907,
      "##OG": 8908,
      "##ijm": 8909,
      "##ijft": 8910,
      "##oeders": 8911,
      "##lev": 8912,
      "bewee": 8913,
      "vooronder": 8914,
      "voornaam": 8915,
      "only": 8916,
      "##gekeur": 8917,
      "work": 8918,
      "##sequ": 8919,
      "waaraan": 8920,
      "##tert": 8921,
      "spir": 8922,
      "volume": 8923,
      "cong": 8924,
      "concentr": 8925,
      "slagen": 8926,
      "##rends": 8927,
      "mann": 8928,
      "gedetail": 8929,
      "prior": 8930,
      "##ifte": 8931,
      "getroffen": 8932,
      "##ssel": 8933,
      "glad": 8934,
      "zonde": 8935,
      "licham": 8936,
      "who": 8937,
      "##eeuwse": 8938,
      "flipping": 8939,
      "beschermd": 8940,
      "##geschreven": 8941,
      "functioneren": 8942,
      "Syr": 8943,
      "constru": 8944,
      "dubbele": 8945,
      "Radio": 8946,
      "vertaling": 8947,
      "doorblader": 8948,
      "Meestal": 8949,
      "Portugal": 8950,
      "gezelschap": 8951,
      "Arab": 8952,
      "Doc": 8953,
      "Mos": 8954,
      "SD": 8955,
      "Snel": 8956,
      "URL": 8957,
      "cour": 8958,
      "eBook": 8959,
      "fen": 8960,
      "##km": 8961,
      "##osp": 8962,
      "##beerd": 8963,
      "##RE": 8964,
      "##IA": 8965,
      "##staand": 8966,
      "inzetten": 8967,
      "ineens": 8968,
      "bedenken": 8969,
      "verwezen": 8970,
      "aangenomen": 8971,
      "##verde": 8972,
      "##teit": 8973,
      "ofwel": 8974,
      "##atiek": 8975,
      "##isters": 8976,
      "##ondition": 8977,
      "grotende": 8978,
      "genoten": 8979,
      "##eca": 8980,
      "exclusief": 8981,
      "manager": 8982,
      "gezinnen": 8983,
      "##annes": 8984,
      "benad": 8985,
      "Vervloe": 8986,
      "Bezoek": 8987,
      "plaatselijke": 8988,
      "indic": 8989,
      "gemeenschappelijke": 8990,
      "uitgever": 8991,
      "relaties": 8992,
      "beleg": 8993,
      "formulier": 8994,
      "download": 8995,
      "geluids": 8996,
      "gegeten": 8997,
      "schakelen": 8998,
      "##functie": 8999,
      "WiF": 9000,
      "ontstond": 9001,
      "##oeddh": 9002,
      "artiesten": 9003,
      "grotendeels": 9004,
      "1e": 9005,
      "600": 9006,
      "85": 9007,
      "Econom": 9008,
      "Form": 9009,
      "sne": 9010,
      "##pap": 9011,
      "##gas": 9012,
      "##drukt": 9013,
      "##win": 9014,
      "##wust": 9015,
      "##zels": 9016,
      "##TM": 9017,
      "##eng": 9018,
      "eener": 9019,
      "verhe": 9020,
      "stier": 9021,
      "##schillen": 9022,
      "zestig": 9023,
      "level": 9024,
      "spier": 9025,
      "sporten": 9026,
      "##aagt": 9027,
      "hierop": 9028,
      "bedacht": 9029,
      "interpret": 9030,
      "evenwicht": 9031,
      "##waarts": 9032,
      "ouderen": 9033,
      "prevent": 9034,
      "middels": 9035,
      "eenvoudiger": 9036,
      "losse": 9037,
      "Brazil": 9038,
      "Peir": 9039,
      "ongeluk": 9040,
      "fysieke": 9041,
      "##panelen": 9042,
      "##hebber": 9043,
      "gezamenlijk": 9044,
      "telefonisch": 9045,
      "Bern": 9046,
      "Cast": 9047,
      "Gar": 9048,
      "Tro": 9049,
      "baas": 9050,
      "cle": 9051,
      "dalen": 9052,
      "son": 9053,
      "ye": 9054,
      "zingen": 9055,
      "##iŽ": 9056,
      "##roepen": 9057,
      "inkomsten": 9058,
      "inrichting": 9059,
      "eentje": 9060,
      "##unicatie": 9061,
      "sta": 9062,
      "diepe": 9063,
      "##acks": 9064,
      "##house": 9065,
      "tijdelijke": 9066,
      "order": 9067,
      "contacten": 9068,
      "||€": 9069,
      "##akking": 9070,
      "geru": 9071,
      "Leu": 9072,
      "oordeel": 9073,
      "leveranciers": 9074,
      "Team": 9075,
      "scen": 9076,
      "creat": 9077,
      "treden": 9078,
      "##plein": 9079,
      "when": 9080,
      "rijdt": 9081,
      "redactie": 9082,
      "levensvoorwaarden": 9083,
      "normen": 9084,
      "papieren": 9085,
      "Centrum": 9086,
      "verzekerd": 9087,
      "verspreiden": 9088,
      "##ademie": 9089,
      "##vriendelijk": 9090,
      "Persoon": 9091,
      "militair": 9092,
      "sjabloon": 9093,
      "chocolade": 9094,
      "fascin": 9095,
      "Vervloesem": 9096,
      "Peirce": 9097,
      "Bart": 9098,
      "Blo": 9099,
      "Golf": 9100,
      "Teg": 9101,
      "lenen": 9102,
      "meren": 9103,
      "nan": 9104,
      "poging": 9105,
      "sollicit": 9106,
      "tur": 9107,
      "wakker": 9108,
      "##meel": 9109,
      "eenig": 9110,
      "##leidingen": 9111,
      "vereen": 9112,
      "voorstelling": 9113,
      "##ijns": 9114,
      "##scher": 9115,
      "##entjes": 9116,
      "overgang": 9117,
      "##apje": 9118,
      "bestel": 9119,
      "##date": 9120,
      "hierboven": 9121,
      "derhalve": 9122,
      "voer": 9123,
      "##aya": 9124,
      "##auff": 9125,
      "##ervaring": 9126,
      "vastgelegd": 9127,
      "bewonder": 9128,
      "kwaliteits": 9129,
      "kaartje": 9130,
      "woordvoerder": 9131,
      "wenst": 9132,
      "ogenblik": 9133,
      "parkeren": 9134,
      "arbeid": 9135,
      "passag": 9136,
      "virus": 9137,
      "Instituut": 9138,
      "beoordelen": 9139,
      "vrede": 9140,
      "vijftig": 9141,
      "uitbreiding": 9142,
      "Zwitserland": 9143,
      "latere": 9144,
      "levensechte": 9145,
      "gunstig": 9146,
      "Curaçao": 9147,
      "WiFi": 9148,
      "FM": 9149,
      "Hall": 9150,
      "Tor": 9151,
      "Ur": 9152,
      "Uh": 9153,
      "Zou": 9154,
      "bor": 9155,
      "gu": 9156,
      "koopt": 9157,
      "##cellen": 9158,
      "##gids": 9159,
      "##wal": 9160,
      "##EC": 9161,
      "##TV": 9162,
      "##17": 9163,
      "##yd": 9164,
      "##oegt": 9165,
      "besproken": 9166,
      "verzen": 9167,
      "##oli": 9168,
      "##amin": 9169,
      "##schoenen": 9170,
      "uitnodig": 9171,
      "##apper": 9172,
      "prote": 9173,
      "schijn": 9174,
      "##istorie": 9175,
      "theater": 9176,
      "werkdagen": 9177,
      "##komende": 9178,
      "broek": 9179,
      "Volg": 9180,
      "opgezet": 9181,
      "leerling": 9182,
      "class": 9183,
      "oplossen": 9184,
      "Afgelopen": 9185,
      "veiligheids": 9186,
      "wandeling": 9187,
      "Org": 9188,
      "Verenigd": 9189,
      "illeg": 9190,
      "Nationale": 9191,
      "Tegenwoordig": 9192,
      "Kwaliteit": 9193,
      "##iërs": 9194,
      "illustr": 9195,
      "traditie": 9196,
      "aanvullende": 9197,
      "afscheid": 9198,
      "plastic": 9199,
      "43": 9200,
      "FC": 9201,
      "Ha": 9202,
      "LED": 9203,
      "Vit": 9204,
      "gokk": 9205,
      "lar": 9206,
      "tor": 9207,
      "##pot": 9208,
      "##ml": 9209,
      "##morgen": 9210,
      "##jaars": 9211,
      "##vant": 9212,
      "##hi": 9213,
      "##zin": 9214,
      "##18": 9215,
      "##16": 9216,
      "##yen": 9217,
      "##OP": 9218,
      "##**": 9219,
      "hetwel": 9220,
      "##arie": 9221,
      "##arande": 9222,
      "opw": 9223,
      "opsp": 9224,
      "voorbe": 9225,
      "aansluit": 9226,
      "aansluiting": 9227,
      "##verbruik": 9228,
      "##schip": 9229,
      "leiders": 9230,
      "springen": 9231,
      "spelletjes": 9232,
      "ontw": 9233,
      "graad": 9234,
      "##ipedia": 9235,
      "wijs": 9236,
      "Wester": 9237,
      "plaatst": 9238,
      "landelijke": 9239,
      "vermijden": 9240,
      "getest": 9241,
      "features": 9242,
      "medicatie": 9243,
      "know": 9244,
      "doelstellingen": 9245,
      "Brand": 9246,
      "decor": 9247,
      "decenn": 9248,
      "geïnspireerd": 9249,
      "Mex": 9250,
      "overeenstemming": 9251,
      "zwemmen": 9252,
      "##aciliteiten": 9253,
      "Smart": 9254,
      "Veilig": 9255,
      "Atl": 9256,
      "services": 9257,
      "maaltijd": 9258,
      "Music": 9259,
      "Nederlander": 9260,
      "Turnhout": 9261,
      "SharePoint": 9262,
      "koelkast": 9263,
      "53": 9264,
      "Big": 9265,
      "LE": 9266,
      "aga": 9267,
      "dim": 9268,
      "feed": 9269,
      "gig": 9270,
      "lampen": 9271,
      "sig": 9272,
      "##paalde": 9273,
      "##rig": 9274,
      "##moeder": 9275,
      "##ochtend": 9276,
      "##hulp": 9277,
      "##RC": 9278,
      "##IK": 9279,
      "##āh": 9280,
      "vangen": 9281,
      "oproep": 9282,
      "##ilt": 9283,
      "##idge": 9284,
      "##ason": 9285,
      "uitkering": 9286,
      "##icar": 9287,
      "##imeter": 9288,
      "ondergaan": 9289,
      "lezer": 9290,
      "##splan": 9291,
      "afger": 9292,
      "##ellig": 9293,
      "nader": 9294,
      "gedachte": 9295,
      "proeven": 9296,
      "##diend": 9297,
      "ligging": 9298,
      "appartementen": 9299,
      "Schot": 9300,
      "##mmers": 9301,
      "plein": 9302,
      "verdient": 9303,
      "Franc": 9304,
      "veranderlijk": 9305,
      "Duits": 9306,
      "import": 9307,
      "Andre": 9308,
      "oef": 9309,
      "registratie": 9310,
      "##ginine": 9311,
      "##onnementen": 9312,
      "##schakeld": 9313,
      "instrument": 9314,
      "militaire": 9315,
      "verkiezingen": 9316,
      "Centraal": 9317,
      "satelliet": 9318,
      "spectac": 9319,
      "Do": 9320,
      "Loc": 9321,
      "Mult": 9322,
      "Zet": 9323,
      "domin": 9324,
      "eP": 9325,
      "how": 9326,
      "pure": 9327,
      "ult": 9328,
      "##ho": 9329,
      "##AK": 9330,
[...]
