[UNK]
[CLS]
[SEP]
[PAD]
[MASK]
!
"
#
$
%
&
'
(
)
*
+
,
-
.
/
0
1
2
3
4
5
6
7
8
9
:
;
<
=
>
?
@
A
B
C
D
E
F
G
H
I
J
K
L
M
N
O
P
Q
R
S
T
U
V
W
X
Y
Z
[
\
]
^
_
`
a
b
c
d
e
f
g
h
i
j
k
l
m
n
o
p
q
r
s
t
u
v
w
x
y
z
{
|
}
~
¢
£
¤
¥
§
¨
©
ª
«
¬
®
°
±
²
³
´
µ
¶
·
¹
º
»
¼
½
¾
¿
À
Á
Â
Ã
Ä
Å
Æ
Ç
È
É
Ë
Í
Î
Ï
Ó
Ô
Ö
×
Ø
Ú
Ü
Þ
ß
à
á
â
ã
ä
å
æ
ç
è
é
ê
ë
ì
í
î
ï
ð
ñ
ò
ó
ô
õ
ö
÷
ø
ù
ú
û
ü
ý
ÿ
ā
ă
ą
ć
č
Ď
ď
Đ
đ
Ē
ē
ĕ
Ė
ė
Ę
ę
Ě
ě
ğ
ģ
Ī
Į
į
ı
ĺ
ļ
Ľ
Ł
ł
ń
ň
Ō
ō
ő
œ
ŕ
Ř
ř
Ś
ś
ş
Š
š
Ť
ť
ū
ů
Ű
Ų
ź
ż
Ž
ž
ƒ
ơ
ƫ
ư
ǎ
ȉ
ț
ɔ
ə
ɜ
ˇ
ˈ
ː
˛
˝
́
̱
Η
Κ
Π
Σ
Τ
Ω
ά
έ
ή
ί
α
β
γ
δ
ε
ζ
η
θ
ι
κ
λ
μ
ν
ξ
ο
π
ρ
ς
σ
τ
υ
φ
χ
ω
ό
ύ
ώ
А
Б
В
Г
Д
Е
З
К
Л
О
П
С
Т
а
б
в
г
д
е
ж
з
и
й
к
л
м
н
о
п
р
с
т
у
ч
ш
ъ
ы
ь
э
я
ө
Ո
Ս
ְ
ִ
ֵ
ֶ
ַ
ָ
ּ
ׁ
א
ב
ג
ד
ה
ו
ז
ח
ט
י
כ
ל
ם
מ
ן
נ
ס
ע
פ
ק
ר
ש
ת
ة
ت
ج
ر
ز
غ
ك
م
ن
و
ي
ە
ก
ง
จ
ช
ด
ต
ธ
น
ป
ผ
ม
ย
ร
ว
ห
อ
ะ
า
ิ
เ
แ
ไ
็
่
้
་
ལ
ས
ུ
ྐ
ྤ
ྲ
ố
ổ
ộ
ữ
ự
ἀ
ἁ
ἄ
ἐ
ἑ
Ἔ
ἡ
ἰ
ἵ
Ἱ
ὅ
ὐ
ὑ
ὖ
ὰ
ὲ
ὴ
ὶ
ὸ
ὺ
ᾳ
ῃ
ῆ
ῇ
ῖ
ῥ
ῦ
ῶ
ῷ
‐
‑
‒
–
—
―
†
•
…
′
″
›
⁴
₂
€
™
→
↓
↩
−
√
≈
≠
⌛
⏳
┐
├
╗
■
▪
▸
►
▼
◊
★
☺
♥
✓
✔
✨
✿
❤
➜
⢠
、
〒
う
え
き
の
イ
エ
カ
ス
ト
ド
パ
ブ
メ
ラ
ロ
ン
ー
三
世
伯
克
則
化
北
县
古
君
呼
国
图
國
圖
场
場
大
官
富
市
干
广
廣
新
時
条
松
栽
江
法
渉
盆
祇
祖
神
縣
義
者
莎
藩
身
車
轉
车
转
锅
院
️
�
🌹
👌
😀
😉
😘
😦
🙂
🙄
##a
##s
##i
##p
##r
##n
##c
##e
##m
##k
##j
##t
##g
##l
##f
##d
##o
##u
##v
##w
##h
##b
##9
##8
##7
##3
##N
##A
##P
##ï
##E
##L
##M
##R
##S
##z
##x
##T
##X
##J
##U
##F
##2
##1
##y
##0
##ë
##ó
##W
##é
##O
##_
##ö
##!
##?
##D
##H
##C
##Y
##K
##G
##I
##ß
##.
##Z
##4
##/
##6
##5
##V
##B
##ü
##æ
##-
##q
##$
##à
##è
##á
##ä
##*
##ú
##'
##ç
##а
##ш
##и
##Ë
##â
##ל
##י
##נ
##ה
##í
##û
##)
##ā
##`
##º
##ø
##ə
##π
##ι
##μ
##ε
##λ
##ῖ
##ς
##]
##…
##ê
##Ø
##Ű
##"
##>
##מ
##Ž
##ή
##θ
##α
##ν
##ô
##,
##ț
##ñ
##|
##ť
##:
##[
##е
##É
##祇
##伯
###
##ד
##ם
##š
##ć
##Q
##î
##έ
##τ
##(
##\
##;
##ĕ
##Š
##ď
##č
##{
##}
##=
##з
##г
##я
##р
##+
##ρ
##ὶ
##ῆ
##å
##л
##к
##с
##н
##д
##—
##ָ
##ׁ
##ִ
##κ
##ο
##ώ
##ω
##ป
##ช
##Ü
##ù
##»
##ò
##@
##ģ
##Ö
##ė
##Ô
##ş
##น
##ว
##ร
##่
##ม
##ะ
##า
##ธ
##ิ
##ไ
##ต
##ย
##อ
##้
##เ
##ผ
##ด
##็
##จ
##ก
##แ
##ห
##ง
##υ
##σ
##т
##ί
##η
##Ï
##ό
##ę
##ã
##ū
##Ó
##į
##−
##´
##ק
##ס
##γ
##Ω
##ὐ
##ὸ
##ὴ
##廣
##場
##ύ
##ζ
##ổ
##ו
##ר
##图
##克
##古
##ð
##ý
##ە
##ك
##ن
##ὲ
##^
##ē
##Å
##ō
##פ
##ב
##в
##ч
##<
##ש
##广
##场
##ь
##ĺ
##ъ
##Ř
##圖
##ー
##パ
##メ
##ト
##ロ
##イ
##ド
##Ú
##б
##ח
##ת
##Ç
##°
##̱
##ř
##ά
##え
##き
##の
##法
##則
##у
##~
##о
##ː
##✓
##א
##ж
##й
##ὺ
##×
##¬
##†
##ῶ
##•
##ྤ
##ྲ
##ུ
##ལ
##ט
##ą
##ì
##δ
##–
##χ
##ğ
##м
##β
##È
##ż
##€
##ַ
##ְ
##ג
##ּ
##ן
##Á
##江
##市
##ᾳ
##À
##ῃ
##«
##院
##君
##ˇ
##ł
##%
##车
##县
##ļ
##ố
##Ě
##ז
##😘
##🌹
##ư
##ơ
##ÿ
##ƫ
##φ
##ů
##ラ
##ン
##カ
##官
##世
##者
##ı
##↩
##国
##干
##渉
##đ
##ń
##〒
##ῷ
##ɜ
##³
##≠
##ὖ
##£
##ǎ
##ě
##ă
##■
##&
##כ
##ֵ
##ֶ
##п
##ῇ
##®
##�
##ө
##Ē
##Í
##身
##ὰ
##エ
##›
##ự
##œ
##¥
##╗
##┐
##Ł
##⁴
##ἰ
##國
##Ã
##★
##¹
##ữ
##²
##ы
##©
##Ų
##条
##義
##時
##ȉ
##ś
##õ
##栽
##ὑ
##ῦ
##ྐ
##ň
##ξ
##√
##ز
##و
##ة
##藩
##ộ
##車
##縣
##ž
##ت
##ر
##ج
##م
##ő
##э
##ע
##ª
##en
##er
##an
##et
##el
##ij
de
##or
##aa
##in
##ie
##st
##ch
##at
van
en
##it
in
een
##oor
##aar
##on
het
##ing
ge
##den
##de
##der
##al
##ig
##oe
##ar
op
##le
be
te
ver
##ro
##ee
##ijk
##is
##cht
is
voor
##ijn
on
##om
##ken
##eer
##gen
al
##ge
##re
##il
aan
met
##ol
##ver
##ur
##un
st
##am
##ot
dat
##id
je
zijn
##and
##ou
##as
##iet
##te
##og
##ven
##es
De
##ten
die
om
##elijk
##ok
##ra
##sch
##he
##ze
##aat
##ik
uit
wor
##ct
##op
er
niet
he
##ers
##us
##ent
of
##ste
we
##ru
##ele
##ier
##ag
##ft
##ien
##aan
##rij
##atie
bij
re
##eld
over
##ul
##uw
##kt
wer
##ad
##len
##aal
##sen
##ic
als
ook
##nen
door
##ingen
##oo
kun
##se
##eren
##ak
##dt
waar
##ap
an
ze
heb
zo
##ant
##im
Het
ik
geb
dan
##ang
onder
le
maar
##eel
naar
##ige
pro
##em
worden
sch
##icht
##je
In
##ter
sp
##isch
mo
##sp
##ist
##ite
##uur
##ond
kan
af
##ke
alle
##elen
##eeft
##orm
##lijk
##oen
deze
##be
was
##heid
##ijd
##ve
##pen
##wer
##dere
meer
tot
wat
heeft
##oed
nog
20
##elf
##ut
ont
wordt
ma
##oek
##um
wel
##ion
##ben
vol
##zen
##sl
##omen
##ieuw
##uit
##ast
hebben
##ind
##acht
##igen
##ich
pl
gro
##oon
##ere
##ies
dit
Al
##art
gr
##ische
##ine
##os
##aag
##ia
##od
##ker
moet
hij
kunnen
con
me
##wee
bl
##ort
##ale
daar
gebru
bet
##aren
##onder
##aak
men
##ip
##ell
toe
##ac
wil
kl
##ab
##een
nieuw
com
##aten
gev
ter
##sten
##land
##we
##oc
##du
best
to
##men
##wij
eer
##ir
mee
##els
zich
##dat
hier
##ctie
veel
wij
##af
geen
##ug
##elijke
##jes
##pl
##iteit
Een
##amen
jaar
##oord
zelf
gebruik
uw
##eder
##deren
bed
##bl
andere
gem
##iek
##aam
##uis
##per
##eerd
##ff
##ouw
hun
En
##ië
werd
##ders
##chter
##mer
ons
el
##gt
##iv
versch
Ik
the
goed
##gr
##racht
bel
gew
##ber
onze
na
##hou
##uk
##open
gen
##ran
##00
zou
##res
##ec
##aakt
maken
twee
##baar
201
haar
hoe
kle
##als
werk
min
##gev
nu
##ed
##oog
##voor
##gel
##ma
St
##oop
kunt
vr
weer
##alen
ex
##innen
##ink
had
sl
mijn
##schap
eigen
We
##ren
##are
man
zal
tegen
beg
##ings
do
##ne
bo
##ust
nieuwe
ar
##form
tijd
##eten
Neder
##ui
19
##bs
##erd
##dig
##ogelijk
##ree
##ijden
gez
dr
##uren
##ief
##agen
##uid
inter
per
##rijk
##atuur
sn
##ds
##ire
##onden
bez
kw
On
##ger
##ation
##vol
besch
gaan
Op
##ellen
der
##pp
Nederland
##ank
##ann
##rouw
##oren
##uro
##werk
plaat
##eling
ged
##gens
Dit
verk
Als
##geven
ben
##idd
##ass
Je
mogelijk
beh
dus
##ce
##..
##bij
##illen
##ron
##act
##ussen
##geb
##ater
or
##io
##kken
##ide
##ets
groot
moe
gel
eerste
##ult
##tijd
pr
##ost
##ess
##org
zij
##eem
vin
even
##lo
gaat
verb
##ard
Er
leven
Ver
den
##van
##age
Voor
##elt
##anden
mensen
lang
##oof
##iden
##waar
th
Maar
samen
krij
##ud
##uiten
##ikk
##tal
##lie
##ment
##if
Dat
doen
##ame
##nem
staat
##omt
##kend
Be
alleen
##oeg
pers
##ow
Daar
dag
vo
laat
komen
##oep
verschillen
##itie
hou
##aties
##me
zoals
##bo
belang
cont
zien
##beeld
##aad
vert
elk
hand
##unt
##ay
Deze
##zelf
heel
##amp
##maal
An
).
##line
200
##eek
webs
##dien
##ood
terug
##eerde
natuur
soor
binnen
##ster
##all
Met
##heden
##cc
##ullen
produ
##iss
Ook
via
blij
waren
inform
moeten
##eert
##komen
grote
Van
##ina
##ied
su
snel
##vo
##ragen
##én
##eg
##ens
##ark
bedrij
##wel
##assen
##int
Ch
##amer
ru
hem
##ieren
##erk
##ont
##zoek
##anten
##aast
##pt
hel
hele
vrij
##of
ad
##est
##etten
##wikk
tussen
##omm
Hij
##lijke
verschillende
||
Euro
##erm
##rek
##oeken
##woord
##akk
##ruk
prob
##eeds
komt
ou
##av
##allen
altijd
vorm
plaats
##au
moo
gele
Bij
##kom
##ijf
##stell
##anis
ko
##ri
##ert
informatie
##ander
zeer
##stand
verh
##ijdens
##aard
echt
huis
##ader
##ubl
10
ken
achter
##odig
aut
hoog
se
gesch
##iding
één
tra
##gende
Europ
lig
belangrijk
##chten
her
##mp
net
##oten
and
zit
##cten
sle
mij
##ieden
res
land
bev
##onen
##zien
##ill
fot
enk
open
##iken
##lu
##aliteit
aantal
##ijken
##gest
website
zonder
##cent
##door
Zo
kin
reg
toch
comp
eens
omdat
weg
##iver
ten
##zig
##net
...
ontwikk
weten
##erv
##ade
##aart
Sp
verg
##ong
##ari
wereld
deel
##dag
##ool
Ze
##oem
##elde
iets
dien
##ks
##ive
art
app
##iel
ruim
ch
org
##oede
##our
vinden
Re
Ge
##mee
##anc
zullen
##zicht
staan
##anneer
un
##edere
##oofd
##chts
online
ke
aange
gek
alles
Wij
laten
##chn
##ure
##ikt
##ees
ger
##ect
##aken
##king
verl
kon
),
##bare
sy
##erg
##atis
Wat
steeds
boven
##emen
##ding
##les
verw
##olog
##ice
##cl
bep
geh
verm
uur
##ans
##deel
str
want
##ggen
The
buiten
meest
##achten
nodig
##werken
toen
Sch
##over
Hier
spec
mil
mag
Mar
Le
geven
gemaakt
##zet
##ov
werden
Om
##arm
verder
fil
18
fl
zw
hebt
##qu
##oot
##uz
get
publ
beste
##ER
jul
pre
Pro
part
Ar
jaren
des
##ate
##pro
##nis
lu
drie
##und
tijdens
##ocht
stad
##voorbeeld
##ob
##mm
##ode
Door
##ins
##one
bedrijf
vak
##na
##orgen
ple
##ieke
goede
##iën
geld
##plaat
##olle
##ss
Bel
onderzoek
##gem
keer
##con
vaak
##staan
erg
##alis
##gram
kinderen
elkaar
##rijs
##EN
laatste
dire
##kende
Na
gebruikt
."
minder
fe
opt
mis
verz
##aald
water
gegeven
bere
inst
15
##ib
##ilig
zelfs
foto
krijgen
##tra
##vl
##gang
iedere
##houden
hoofd
rond
med
pol
##yp
##oel
maakt
##th
##ichting
ber
ind
gratis
##angen
##ook
persoon
##gaan
eene
##iend
##ler
verd
##veel
bijvoorbeeld
##antie
besl
werken
##ach
##oud
ap
##midd
##agina
br
##eur
enkele
##raf
zeker
##ering
vast
Hoe
proble
Fran
##oss
welke
vrouw
##rit
bas
boek
##ese
##sie
vooral
willen
##gd
##ord
organis
##ffen
##stig
##kl
gee
##ijnen
##weg
##oft
soorten
##bru
##oos
12
ve
##tu
##elden
##stelling
nl
echter
elke
##iz
##ts
groe
##az
bent
oor
##man
##gele
ste
gest
##aden
kopen
##rag
act
##otel
##ome
volgende
##reven
##zelfde
recht
tele
bew
volle
##str
gewoon
houden
vraag
##gramma
Vol
##ett
##sel
##iedt
##wijs
gebruiken
##aanse
manier
kleine
bren
##raag
##steem
##oci
nemen
##arte
##aring
midd
##aas
wilt
##ient
vl
kn
##schapp
soort
erv
nam
##oorden
##elingen
weet
gehe
techn
eerst
ne
lever
artik
vier
acc
##arkt
ide
##inn
bekend
##wijl
stuk
Th
prof
bro
##ons
##akkelijk
blijven
##ub
##urs
week
vele
##slag
##geving
##ga
##isten
##ange
gesp
verander
aanv
##ister
beter
##ace
paar
aanb
natuurlijk
jullie
Am
##sche
zodat
##mat
biedt
##oms
gemeen
11
##etje
He
##aire
##akken
kwam
##ulp
##ooit
Te
mail
duid
spel
dagen
eind
gere
##ject
##enten
##eter
##aalde
##oven
Die
naam
##iteiten
slechts
anders
vragen
##vis
##houd
##inig
##doen
##zij
zoek
wanneer
beschik
Amer
sc
##end
##hop
##zaam
cre
Nederlandse
sm
hadden
vindt
cent
wit
##ore
eenv
fun
tre
##amil
geeft
##app
##zonder
klein
schrij
16
##icatie
##ck
##vang
##ail
bezoek
opge
vanaf
waarin
maat
##eest
geval
basis
##ving
##oment
##ieten
for
##uze
##get
ligt
maak
##ijna
##ack
licht
contact
##igh
bestaan
##ign
##oh
##leiding
doel
Kl
##br
##oef
uitge
nooit
av
##tje
30
mooi
##itu
##ijkt
##ick
klanten
##reken
allemaal
graag
moment
##ium
##actie
ser
stand
##inds
##rum
werkt
kwaliteit
##ax
voort
##weest
##log
zie
speci
milj
colle
##urg
niets
Belg
Wil
##euw
##uizen
euro
bek
mooie
am
zorg
##ph
maand
mede
leer
Amerik
##ys
dig
ele
eff
geweest
direct
gl
##tem
ging
later
tweede
##atief
17
##iële
ster
ander
gevol
actie
##annen
producten
afge
jon
rest
bijna
film
ant
duidelijk
vind
iedereen
eeuw
Gro
##oge
##ware
##och
##air
gelijk
##eken
inge
gebied
duur
##naast
##ly
##rijd
'.
##orden
groep
Duit
link
pagina
##dit
Un
##aars
##schien
##ïn
##uziek
kie
kop
Alle
##ouwen
fin
kant
cl
##uist
speel
extra
gegevens
soci
krijgt
000
Br
##werp
##ante
14
##kker
Uit
00
##reden
##hand
##ichten
25
grond
##ces
##bin
opl
zouden
kennis
##use
Ne
rel
##iging
Pl
pat
internet
regel
Onder
##ergie
Of
##--
Over
##nieuw
##oet
##uin
##ha
##recht
oude
##ember
Vl
lief
##nation
El
##alt
auto
famil
doet
##voer
helemaal
ruimte
zon
##ity
gep
waarbij
vor
##ën
hen
site
##clus
huid
volgens
##out
bewerken
prijs
rol
##aur
up
result
##huis
Bl
comm
ongev
par
##ogen
blijft
13
waardoor
minu
Aan
##enen
hotel
##genomen
Af
et
##zeker
##ivers
stap
##ankelijk
##rie
##igd
gesl
beteken
pracht
heer
verwij
programma
##komst
##cept
##oudig
Waar
##ijst
weinig
digit
2012
##omst
zeggen
ga
##omp
##ument
zitten
brengen
top
##ian
gedaan
qu
##stel
##oogle
##itter
##ner
terwijl
blijk
##ateri
##lee
##werking
##oopt
wink
##ase
##isc
lucht
##istr
##ount
Dan
sh
##sterd
##its
beeld
wie
##vers
##ouch
##elijks
zowel
##akt
zegt
leuk
##ijen
##waarden
##ervice
##osten
##ids
Europese
vormen
##rokken
##eef
doc
bele
tek
##entie
##aste
enige
##book
kijken
moest
100
namelijk
##att
##her
##emand
mod
Google
##ologie
hal
##foon
off
bieden
kind
##ris
##daag
Europa
Nieuw
##ator
eten
##inde
meeste
at
pres
gebeur
##oll
##werkt
Is
vervol
beschikbaar
Inter
veilig
bestaat
vriend
##rik
##idden
##nemen
kracht
kort
behand
bedrijven
vide
##ern
thuis
int
spelen
product
##unten
nieuws
helpen
druk
##AN
onderste
##gesteld
##eed
jij
##amers
##vangen
##arde
begin
Nu
pas
##sterdam
##oort
voorzien
##val
##lex
##ction
##stellen
rust
vijf
markt
##ww
aand
##ijl
##atieve
school
##aling
##ry
artikel
vis
vanuit
##inden
##ummer
uitgeb
systeem
##oning
##ips
muziek
genoeg
##cces
ongeveer
gezien
www
##ung
Ex
last
eenvoudig
##bed
Amsterdam
zetten
##pe
dec
##rakt
reken
iemand
##ress
##dige
delen
start
##oden
Ad
bi
eigenlijk
miljoen
##rak
##ile
##bel
##atten
public
##derd
199
jouw
##gelijk
##iode
fiet
zoo
##pass
##name
##ente
##ime
begon
##uiste
kor
##erende
verhaal
##ash
##bouw
##regen
##olen
##cte
##conom
Gr
##asten
beetje
##icro
##antwoord
geworden
##ows
##iverse
##tent
##vens
zorgen
##ommige
du
##sy
##spro
feit
##oemd
##ateg
##gelopen
##kamer
energie
##werpen
##stellingen
toek
##ah
web
tran
##uter
##igde
reden
sche
grootste
mot
##ple
##igheid
##schijn
2013
50
lich
neem
lie
conc
##bal
Par
aanwe
##reg
minuten
##ath
lekker
##spre
misschien
pop
##orp
dro
kosten
##IN
politie
",
##up
Daarnaast
succes
dienst
##ames
##esch
plaatsen
voed
zat
God
24
##oepen
juiste
##ix
inf
.'
Wel
ziet
tro
##min
##issie
##DF
rec
kunst
##nemers
volledig
##ider
Cl
bru
##sc
##elijkheid
eerder
##leven
##abl
hoge
mens
adv
kleur
mogen
##delen
##ober
##ue
dicht
lopen
maan
##vorm
##reeg
##erde
voet
geleden
loc
lijkt
stu
stellen
team
hart
wh
soms
##ites
uiter
langs
vakantie
ontde
idee
lange
geïn
##rom
##ouwd
Sh
##iele
stem
vlie
2011
dieren
##onde
##ruct
anderen
zei
leu
Mijn
volgen
',
Wanneer
ha
##orie
wijze
##keur
woon
##leden
aller
betre
App
reis
##erecht
##menten
jong
rij
##uurt
##gemeen
probleem
##inc
voldoen
toekomst
dingen
kr
kreeg
Niet
ab
pos
verbet
bepaalde
Zij
insp
##oth
##oegen
diverse
cons
Onze
Meer
##dracht
##oerd
ervaring
beve
##elling
##punt
##fen
vader
##ute
kans
dezelfde
##oftware
##iem
zom
Toen
omgeving
##ilijk
middel
eil
##aaf
project
Volgens
##vel
##orgt
onbe
internation
contro
##ica
gelegen
".
oud
##uil
##ienden
##iew
21
##ling
beper
##red
hoogte
##ril
##ines
hulp
Pr
you
##eeuw
combin
Con
tw
##gegeven
##ific
moeilijk
kiezen
train
financ
Den
##veren
red
PDF
landen
telefoon
la
not
procent
##schappen
gra
##bruik
geheel
familie
##wn
##anu
aanwezig
sinds
aandacht
##ico
liggen
naast
##port
geweld
##ession
##leg
##heids
lid
los
##ograf
onge
belangrijke
oploss
imp
juist
Wind
##aris
##indelijk
##matig
maanden
##useum
##yn
groter
daarom
Me
form
##aap
problemen
##inst
sport
levens
##hal
##oekt
##oemen
denken
##rouwen
##itt
##vent
##schijnlijk
teken
weken
##dst
kaart
##kant
##ake
activ
##iers
##kk
voorkomen
##schrij
oog
##auw
verst
wilde
##ld
##ukk
plek
les
prakt
blijkt
gar
##ctor
avond
##dem
##pel
##ging
zaken
super
sterk
##oit
waarmee
##iment
onderwijs
klaar
##ette
##aalt
zee
waarde
2010
perf
mei
appar
##anen
vandaag
verkl
##ager
lezen
schil
Ben
gevoel
gemakkelijk
lichaam
leren
norm
uitgebre
ieder
##standig
##iveau
overeen
##uele
verantwoord
##schen
gebruikers
vrouwen
mogelijkheden
flip
econom
Zijn
moeder
kru
waarop
vrienden
arch
Sam
woord
##etjes
stud
##stuk
##wor
##igt
##iger
links
vers
##iedenis
##zetten
acht
##adat
##urende
keuze
22
blee
it
ervoor
##plaats
Ant
Windows
as
hard
##maken
##uken
voorb
meerdere
denk
gec
##old
##gericht
boeken
versie
toepass
kamer
nacht
##druk
cult
##imaal
organisatie
##ight
video
di
##rip
##uld
gener
geloof
leuke
zelfde
2009
ro
gezond
ouders
##zing
ontwikkeling
betekent
zoeken
beide
wen
hog
##inter
2014
##organis
verwacht
media
wand
##burg
And
zorgt
lok
vergelijk
##ima
enkel
##ete
iP
mon
terecht
mob
bijzonder
##sland
##arket
elekt
afgelopen
blog
vervolgens
##ser
##tt
##alist
##anuari
dik
planten
maakte
Men
Se
Veel
##koop
klim
Ste
waarom
##aus
##rijzen
##AR
##ars
##uni
pap
##vloed
Amerikaanse
##rist
##raak
##lei
ondersteun
##hankelijk
##wezen
##ptem
##arch
toegang
##erken
plan
materi
##kun
periode
##aurant
vij
##ende
##room
leden
23
em
##rekken
##abel
bouw
##ain
##off
##ivid
##ptember
opnieuw
##iënten
##kop
##ene
enorm
zul
##pers
##dent
zoveel
vroeg
popul
gevonden
schoon
computer
serie
present
##inder
##duc
band
verbl
##ots
ontstaan
beginnen
Online
bloed
tien
meter
autom
gemeente
midden
ogen
prec
##umenten
##berg
##lub
Ph
##gevoerd
merk
software
##opt
tekst
##iter
algemeen
with
Tijdens
max
draa
##middels
bad
log
sommige
mogelijkheid
prachtige
##verd
person
ges
##kw
##artement
profession
einde
##lement
stond
##volle
tuin
makkelijk
zin
echte
don
jou
##zon
uite
##uss
##werkers
bezoekers
##anderen
derde
##fin
##zer
##cties
Jan
verv
##jecten
individ
##ST
##wege
##anks
tal
##ukkig
Ter
##rop
genoemd
belangrijkste
##oemde
verzam
diensten
Hol
bezig
commun
cook
##deeld
that
##uigen
##utt
##slagen
houdt
##ype
januari
park
##EL
huidige
konden
##etail
all
geschikt
##acebook
##reef
##anning
digitale
waarvan
winkel
dood
Cent
aard
gevallen
kijk
dank
Lees
##ET
interess
Comm
waarschijnlijk
ontvang
##mming
##bele
##goed
##ino
besp
persoonlijke
bedo
nood
sim
halen
##tes
##wijf
april
##ox
verzeker
##rijf
september
account
tr
##ock
##ux
plat
vond
wet
##won
##20
leeft
out
post
DE
Or
vle
##view
meteen
daarna
##staande
##rein
heen
##grond
Ital
Twee
korte
##issen
situ
##erend
##baarheid
priv
##clusief
kap
##aut
##tjes
##erst
##fort
##ise
##izoen
##kelijk
##fer
België
##izen
##co
slecht
co
##oi
##eelden
ontvangen
Micro
Tot
##met
##ish
gevangen
hoeveel
neer
##iep
##afel
##stof
##ama
##ruim
nauw
##reed
##ozen
genieten
ac
amb
disc
Ind
##plaatst
dru
half
EU
##ai
Daarom
brand
Frank
Veren
juni
standaard
Sc
##sluit
##rift
Dus
##oy
veroor
verkrij
samenwerking
bus
kar
##sk
##ioen
down
198
neemt
zes
wedst
ondersche
indruk
Gel
sec
40
Wie
##50
##oppen
##spron
gehad
ziek
bron
kil
##kte
bestuur
buurt
##bren
verr
personen
sociale
kom
aanp
klant
precies
imm
##apen
hoop
loop
ent
##ulier
##acties
Su
Engel
rekening
##ktober
Boven
ooit
##uig
scherm
Zelf
Verder
##amera
maart
##sluiten
Klik
Joh
onver
moder
##eens
laag
Car
##woordig
bekijken
Laat
##offen
indien
betalen
Tw
my
valt
##jaar
toev
##mail
##zier
##ijs
opdracht
hoeft
##ologische
restaurant
rijk
##olf
##ikken
arbe
##reek
cor
pe
##uldig
##appen
handen
kost
##ged
keuken
voldoende
Facebook
Net
feest
##roken
voordat
##eller
Ont
meestal
Noord
voorbeeld
exper
##soft
##aardig
ondernem
##anken
proces
regio
ass
game
##etter
##utie
kleuren
kwamen
jonge
New
##otheek
##ning
##ose
##sloten
##zaak
##staat
##stem
overzicht
bal
##elk
##iende
centr
nation
sk
##vallen
eventu
fr
##OR
##denten
netwerk
ij
##bet
##istor
mannen
##iversiteit
car
##pr
aant
wijzig
##ule
##ample
service
rechts
krijg
##feer
##ull
begint
offic
Naast
##plicht
##merken
bescherm
passen
##wegen
niveau
kinder
december
##dam
kerk
punt
wee
verschil
bevat
zwem
Heb
schrijven
##licht
##lucht
internationale
Zuid
##ras
##kan
##dra
##ieken
##stad
stelt
daarvan
##ugd
##lijn
##water
##zak
##edia
##iënt
toon
##iti
fijn
##ole
##ureau
specif
activiteiten
nummer
##ble
zichzelf
langer
##bre
uitvo
bank
##nel
##eiden
horen
oktober
##raad
##ondag
Vanaf
uiteindelijk
hoor
##AT
##ustus
positie
bre
che
##stal
##atisch
inhoud
waaronder
##ieve
##erdag
collectie
##tegr
##komt
reag
bereiken
##oelen
##rucht
afsp
Tur
pass
ris
zet
##groep
gedurende
install
publiceren
slag
verkoop
##----
advies
wacht
hetzelfde
verspre
##otter
##okk
Vlaam
Ga
are
##inding
woorden
##mal
##ote
example
geschiedenis
Open
lijn
##gew
##oto
##acil
directe
fab
lijst
##sm
##ous
Nederlands
Brit
dient
resultaat
##otte
gevolg
##zondere
inmiddels
vlak
##schappelijke
Microsoft
by
doe
km
##rol
##apt
##ourn
speciale
nov
begele
allerlei
warm
zicht
##chine
##ures
##isme
scher
locatie
!!
camp
##kijk
##kund
stijl
Want
invloed
##nam
##arige
26
Gu
zag
dem
##gesch
betrokken
Produ
polit
##gelegd
##ratie
##lang
##vert
beheer
publiek
Fl
##ring
daarmee
moesten
proberen
aanbod
Hel
daarbij
##eci
juli
wachten
ervan
bestellen
##irc
##oeid
##ooi
prov
totaal
meis
betrek
##bruari
bur
##past
term
oplossing
..
Gen
taal
kamp
wezen
##ruik
##uurd
##ugustus
##oegd
function
dier
##gde
##oer
##leur
appartement
regelmatig
:/
bijzondere
##standigheden
dorp
trouw
##kens
adres
Zw
zwaar
##gels
##ork
tevens
##gemen
stil
##amm
##ionele
##que
##indt
##gend
2008
##akket
seizoen
combinatie
Geen
##ectie
deed
veranderen
gebracht
##estiv
Gebruik
##ttp
Jap
##aw
##achte
##agement
contra
kennen
Can
ontwerp
gezell
cookies
rad
##zegd
aarde
tus
##keer
##itel
##aarten
##aakte
##ande
##ges
anal
afstand
##asting
##own
Touch
##rijven
Indien
macht
vorige
Min
test
##verlen
strijd
##idt
afw
heerlijk
Ber
zak
##ift
##gemene
##par
##zingen
schade
##beh
://
gaf
##sh
##lopen
##ieel
gekomen
voorwaarden
afd
bestaande
richting
##gelijke
##woorden
##raken
begrij
##gebied
bar
http
koning
##middel
##cel
##ieven
##rijden
##ages
Art
##danks
##oond
groepen
pot
##kere
##isen
##merk
woning
downlo
Bovendien
Sy
verdw
bekende
antwoord
28
gingen
vertrouwen
artikelen
klimaat
You
camera
hor
productie
verbeteren
namen
##zorg
##che
opgenomen
data
document
Kon
Man
diep
tent
vari
##bad
##ES
##inkt
##erse
minister
slaap
prima
Duitse
toepassing
past
sele
##avond
##ING
##richt
geplaatst
uitste
leggen
kamers
##ielen
##kracht
voorbij
genomen
##centrum
ontwikkeld
geldt
ople
##eerden
stam
geluid
bepaald
studenten
##ance
schreef
comfort
bestand
27
##bb
voeren
Omdat
Sl
##markt
##dr
inve
##asse
##arketing
Tra
email
reeds
##stemming
##isteren
inspir
oe
vallen
inn
buitenland
centrum
##iemand
Ap
##iders
##CH
onderz
bestelling
vroe
gasten
meld
rassen
##zitter
##ijven
gehouden
opleiding
##ilige
november
##ude
##orst
tev
##ijnt
##ident
Bekijk
bedrijfs
actief
prijzen
##ipl
##aby
design
oorlog
verblijf
loopt
##maat
##eep
2015
betreft
controle
Per
vanwege
oper
liefde
Bar
Bra
##anger
fir
vaste
##veld
##zame
hoger
tusschen
gast
##ors
##oeden
##heen
Lu
ja
##geld
##lan
##arten
##reekt
prest
gebeurt
lag
##mak
##tegen
februari
##ON
plezier
##oudige
Toch
##ora
meth
##ement
##rib
leveren
eiland
##vr
##oeder
##blad
Apple
il
ald
steun
ob
##school
volgt
Christ
Pe
Ten
name
##ieu
##ampen
gemidd
resultaten
##istische
fiets
zaterdag
leeftijd
##elaar
##gemaakt
Cont
allen
aangeb
onderdeel
##west
##weging
Holland
can
sfeer
194
##otterdam
Har
effect
len
zondag
##ussel
oorspron
Duitsland
Iedere
punten
richt
zui
##wink
##boek
zomer
##aand
##toe
##lingen
##genaam
##idingen
functie
Qu
##inken
##igin
stat
rechter
bestanden
veranderingen
##ructuur
##gegevens
Maak
rijden
##enn
##plic
medewerkers
##fl
##halen
##ions
ontwikkelen
gericht
mat
##bum
##IJ
inclusief
vern
uitgevoerd
##stemen
leiden
##avor
technologie
jur
straat
##pos
##loos
##iete
reactie
overheid
toege
updat
La
Natuur
augustus
geg
bleek
lokale
wedstrijd
Rome
im
##band
##bank
##waardig
bericht
speelt
merken
deur
gezegd
zeven
persoonlijk
##gent
weder
betere
volledige
individu
II
##loop
hiervoor
bepalen
model
begonnen
Rotterdam
Uw
Waarom
liet
##weer
##xt
onaf
##iviteit
gesteld
motor
Frankrijk
Neem
breed
##zijn
##OS
registr
trekken
Sinds
zoekt
##oenen
websites
Zoals
Japan
Dr
momen
##uut
##aliseren
Brussel
praktijk
tabl
##orten
situatie
risico
##azen
##gin
geve
veren
##repen
##amb
gebe
rele
zaak
##naam
##oom
##vig
studie
honder
rou
##ille
overtu
thema
geschreven
brengt
60
Samen
ed
##ott
gebas
##uy
##zel
##gever
plant
this
##dagen
##urt
##ruit
boom
liter
##ike
##sport
groote
Wer
curs
##keken
2007
##dienst
aanbied
mobiele
Mon
##mogelijk
verplicht
197
koff
##ografie
mass
##ities
##okken
##ecte
Her
##ield
##wijzig
komende
partij
aldus
mult
nadat
spelers
Des
var
##ane
bezit
resp
und
Amerika
##estival
bouwen
vog
##uim
##elle
moeite
##raagd
##ategorie
Oost
port
##pagina
tegelijk
##tern
ontm
openen
strand
collega
etc
##ius
##ja
##ald
##aringen
verbonden
verwijderen
vest
##teel
const
##able
vrijdag
financiële
29
erf
##vlak
wonen
##10
bevol
leg
##gave
Internet
500
pijn
war
##wassen
##inderen
initi
##aagd
book
##kanker
bos
zoon
West
helft
behandeling
##regelen
Dank
pan
##ED
ene
elkander
automatisch
##asc
2016
verhalen
won
geest
##agn
behoef
tradit
unieke
##straat
##sych
favor
##aderen
##mers
##IS
gede
##spel
sub
Commissie
indu
aansp
ern
trans
vir
omstandigheden
Haag
histor
##part
onderwerp
zieken
perfect
rapp
##iness
toer
verband
beroep
Franse
verantwoordelijk
cultuur
letter
##lem
stij
jezelf
Belgische
Sams
veroorz
val
##ogelijke
##imale
dagelijks
wensen
##fil
spreken
behulp
betrekking
Raad
voordeel
##hout
##houding
##voorwaarden
prachtig
veiligheid
31
##des
##arts
daardoor
Staten
moderne
Mis
fact
so
##iste
##inen
gebouw
##oens
eenvoudige
Vlaamse
Nog
hy
lees
raad
##will
##ones
begr
##eeg
partner
Hotel
Ke
##kennen
##gezet
uitzicht
##ranten
tonen
twijf
##wijd
##zijd
##onnem
##ics
kleding
tegenwoordig
gekozen
voedsel
##kel
##oze
##formatie
advis
Hoewel
glas
economische
papier
wist
gedeel
Heer
kwart
bereik
materiaal
overal
ouder
Wor
dw
facil
wijn
##onderdag
dochter
Ja
tafel
##ps
##tel
optie
Vand
kent
volkomen
IN
##kelijke
##ition
beelden
jeugd
klik
##bli
##komstig
##vaart
##teken
origin
tv
tel
reger
##ical
compl
##ecten
##visie
innov
##punten
##ductie
##waarde
vertellen
##intig
smaak
duizen
fant
##ners
##gro
##atal
##ustr
##ffende
##schappelijk
eilanden
Eer
hot
koop
mond
rug
vermeld
have
bevestig
weekend
baan
niemand
##tre
##aai
##iliteit
##igens
##randen
natuurlijke
speciaal
zen
##ower
##DE
stof
geboren
kenmerken
partijen
80
kregen
én
projecten
##hous
behoor
groei
Ed
OV
##IT
interactie
regels
bovendien
##worpen
voorbeelden
Wh
##rim
##eloos
##itief
uiteen
##wekken
bood
##ometer
uitgebreid
Konink
kern
vlo
kanker
afhankelijk
Alles
klass
##wijzen
strateg
bewust
gesprek
Samsung
kunsten
##komsten
levert
dankzij
immers
##hr
##oest
##urr
##aliseerd
optreden
gevolgen
karakt
Twitter
gebaseerd
Pa
marketing
wind
##dering
one
regen
##aster
orde
##iften
##ommod
steden
politieke
tevreden
Bron
mar
##sn
##ict
##zo
betrouw
besluit
##middelen
Elke
personeel
.)
Port
Res
Vrij
Zie
inzicht
##schappij
detail
##kaart
Super
first
gang
your
##adres
daarvoor
gekregen
Prof
uiteraard
Aut
rom
##yl
##óó
##oper
leiding
##incip
gebeuren
mogelijke
##prijs
##kn
##vrij
##bes
##gebruik
technische
Sm
col
eet
##com
##jabl
##daan
##AL
##ID
##||
##ony
uitzonder
draag
##orgd
##ikking
stappen
ondersteuning
##kunde
sur
##ère
tem
sturen
##bert
gedrag
contin
##adem
Bed
Sk
##IE
##60
vooraf
##onds
afbeeld
##rank
vreem
##rijke
voert
beleid
jongeren
Ut
##oorte
##ices
tegenover
dergelijke
hoogste
creë
sterren
relatie
uitgebreide
Verenigde
Binnen
Jul
Via
abs
host
us
voordelen
##iks
bene
webshop
patiënten
Nieuwe
35
dragen
##erie
##stra
##onnen
##oes
##leerd
blauw
gezet
##ront
##chtend
grotere
bedoeld
tijden
verdien
##itect
##box
##gaande
corre
!"
##ting
##leet
album
##ici
content
beschikt
bu
ident
pakket
gepro
##roid
vooruit
toegev
##ations
##gelegen
kruis
verkrijg
Bo
Oosten
erop
hond
museum
neg
##gst
beveilig
from
verlie
bedrag
##inks
gelukkig
sym
Hierdoor
specifieke
berg
##tussen
##gere
##atische
##best
All
helpt
herinn
brow
John
Kar
tips
##wijk
verster
##vering
ontsp
volwassen
##osc
ervaren
##zijde
iPh
bot
sal
##cess
##kosten
##kamers
##vat
defin
opper
##acy
##kshop
smart
##ruimte
industr
Gal
jarige
titel
##ats
##ith
##beleid
noemen
##ret
##oeien
##reen
sneller
##centr
##tr
##baan
verleden
##oude
dienen
vliegt
wijzigingen
Kort
dub
##oint
mocht
jaarlijk
produc
vorig
inv
gewijzig
##rast
word
rechten
##ippen
Stichting
TV
winter
##roon
##nemer
verwachten
organisaties
##winkel
.[
70
zult
##ije
Daarna
voelen
Kijk
Nation
bracht
time
##vast
##ooien
plannen
betaald
##machine
sluiten
enthous
hyp
##ial
deb
##orn
ongel
##schak
afst
##achtig
##elsel
werkzaam
##udio
##ublic
Alleen
##ppen
##kort
##wiss
gegaan
##omin
algemene
Don
##enties
vertelt
gehele
digitaal
##sproken
no
rode
##VD
instellingen
##oeven
##aans
##ortiment
bezoeken
##loze
##eeks
helaas
vergeten
##vriend
Cons
nab
ret
vraagt
knop
onderscheiden
Pol
##mot
##dom
##atch
##ild
##esse
##raan
hierbij
verscheiden
gewen
modellen
##halve
ziekte
##elaars
##ara
vere
##waard
credit
witte
politiek
Zorg
##ram
##aarde
##igingen
##unst
schak
gevaar
elektr
reageren
tentoon
Ger
code
mak
##ugen
##imum
gezicht
##cedu
films
liefst
enorme
Eind
Log
nat
riv
tar
vlucht
##sver
##besch
##rukt
arm
snelle
beperkt
vroeger
##oensdag
Dag
dak
sign
type
vuur
##cy
##by
##ermen
opnemen
##elijkse
waard
##plaatsen
leerlingen
##haven
voetbal
platform
som
##eeld
##uch
opvol
##gez
commer
verkocht
arbeids
Lin
baby
dui
##hoog
##derij
aanzien
##sem
gebouwd
tool
denkt
effic
##bedrijf
noodzak
pak
##zigen
uitdag
reacties
##systeem
zulke
##woners
rapport
45
ca
##ton
vervangen
##ouden
##agne
hiervan
milieu
normaal
90
Val
lo
##huizen
##30
##outen
##slaan
2006
##ijfers
bewon
Internation
training
termijn
Wereld
Hand
##code
##reet
iPhone
Haar
Reg
##to
getal
assortiment
verkrijgbaar
Che
Dist
gas
##rekt
##rake
##akker
196
vrijwill
##urgers
twintig
##óór
CO
Mo
Pers
aute
douch
##ave
opv
##olie
gebruiks
boot
##ript
##verlening
US
just
kader
##mod
##schrift
Inst
ontb
##brief
voorbere
mate
##gl
##AM
opzicht
##000
##bijt
Sport
Museum
##IG
gewone
##eltjes
rustig
interessant
nad
##iam
straf
verkeer
##gebracht
Afrik
simpel
kilometer
Bru
doll
##onie
##oei
geboorte
##keus
koffie
gedeelte
Ma
Pas
club
donderdag
graf
lijken
psych
georganis
temp
overw
Chin
bereikt
brief
accommod
broer
schrijft
social
perfecte
Android
communicatie
Ab
dis
##iaanse
##ertijd
uitger
afkomstig
voelt
vrije
intro
apparaat
nationale
Misschien
09
categorie
nutt
##gra
##hoek
##stree
integr
##tens
China
speler
eindelijk
miljard
burger
hang
live
##wagen
##CT
##ktop
magaz
tablet
karakter
asp
typ
##ura
##wijze
goedkop
stukje
effectie
begrijpen
smartph
Sn
cm
dist
zuid
##AS
##isse
##ressie
verkopen
provinc
beneden
zu
##iner
##dek
##illa
Span
maatregelen
info
schild
##stukken
Ac
Com
Fil
burgers
shop
##ringen
##RO
ing
##alm
##leving
onderdelen
slacht
middelen
geslacht
maximaal
centraal
Iedereen
CD
dacht
winnen
##regel
welkom
toeg
##programma
bleef
downloaden
Kan
ess
##ek
inc
gebruiker
compleet
vergro
bevolking
Utrecht
Comp
Hal
nod
##gh
beoord
voorzitter
stro
recept
##sluiting
Rec
dun
##maakt
recl
##low
besloten
verandering
winkels
fys
fout
uren
##dieren
vertegen
##resent
hout
partic
sterke
terrein
werking
gezin
princip
##ally
Dankzij
regering
As
Mil
mor
vac
##hoven
##ilen
overl
afle
handig
prem
jongens
ideeën
materialen
Land
ph
##zers
##oorlog
##denken
groen
stukken
meisje
nou
ton
##dragen
##ana
stop
brood
fietsen
temper
bewoners
kerst
reeks
soep
##orr
##ella
wijzigen
##insdag
Isra
##derdaad
gelegenheid
For
micro
vrucht
##park
##kingen
##chte
altern
##rest
volg
gene
##voerder
zonne
liever
Fe
Mich
##ala
##leed
overigens
##zend
verloren
lux
feiten
gezondheid
Ele
VS
hoek
vre
vóór
##richting
##atures
sprake
##spraak
##achtige
##rend
verbinding
##namelijk
Mart
Ven
eisen
muur
noord
##ique
##riek
##aats
##ads
veranderd
Even
Park
York
circ
daad
##aders
##ieur
##arn
##verzeker
##aanderen
reizen
doordat
hieronder
vaker
Phil
eventueel
fantast
01
##fe
slot
maandag
##ateriaal
badkamer
Tweede
contract
OVER
Bi
Bre
Ol
Sw
krit
##PS
##ocol
hoewel
instru
##klier
Vandaag
fruit
##haald
##zw
##ona
hunne
Engels
proef
##lexib
Ve
VER
##iale
##urele
mening
eigenaar
manieren
195
besliss
oplossingen
Gelukkig
commerc
Bro
Nadat
##elat
##opp
##iens
zekere
zogenaam
geluk
achtergrond
kantoor
heerlijke
ontdekt
geweldig
professionele
##brengen
Product
Werk
cas
morgen
page
##hol
##stoffen
verf
stra
##rijving
##ada
##ema
groene
vrijwel
##ava
concurr
##kundige
methode
favoriete
##rimin
-,
Jac
dre
##put
##és
been
##test
welk
betaling
##eltje
Vlaanderen
,"
At
darm
est
niks
##OL
##stro
mezelf
bloemen
klachten
natuurkeus
jongen
gesloten
##ministr
eventuele
aantrek
##malige
zichtbaar
Natuurlijk
Kamer
leef
##press
##zus
##vertent
##ammer
gewicht
flink
techniek
control
##ownlo
aangeboden
cursus
absol
,-
Del
HD
god
##sers
##bol
ingericht
voornamelijk
bijdra
##imm
##ked
Vooral
complex
Tegen
apparaten
elektron
Zelfs
toevoegen
radio
Naar
journ
##roep
##kond
##way
##sters
##oorten
##ary
vervoer
stuur
ergens
volk
zwart
toegevoegd
huw
##uf
##vak
##vuldig
workshop
will
##duid
langzaam
bevatten
milit
initiatief
Paul
dollar
bijdrage
##stijd
aanra
steen
##oeding
##plant
##pport
##ontro
reser
krant
vijft
hoeveelheid
Gem
Mag
Mac
kwij
pakken
ren
viel
##ube
##vinden
##ummers
##acte
praten
aangezien
Universiteit
##risis
directeur
creëren
Kle
San
cap
kaarten
lin
##ior
##nummer
##itten
betaal
gevraagd
##volgens
ervaringen
bescherming
zwembad
##bliotheek
lage
pens
wou
wonder
##ament
##andid
##steen
terras
Sint
##aven
##gte
##eth
##etsen
alsof
gebieden
##onnement
olie
##yt
##ieuze
enz
##alisten
voorl
heden
2005
parkeer
##sluitend
traditionele
huur
##BO
##erland
##ded
##eenkomst
wereldwijd
IS
dé
lagen
serv
woensdag
##bro
beweging
aanm
beschreven
##ife
middag
mooiste
documenten
geweldige
Italië
##langs
Heeft
Peter
dur
##fun
##genen
##play
##houdt
Webs
##alisatie
Col
Sim
Soms
rood
wiss
##ping
##za
##zins
##itch
opgericht
televisie
president
overeenkomst
vlees
My
Russ
ding
##TC
##ijt
uitst
ontworpen
deelnemers
desktop
stads
ideale
gesproken
duurzaam
voeding
Hou
adem
##do
##onn
##rab
gebruikte
sluit
Frans
redenen
populair
ontvangt
Britse
veroorzaakt
dome
##yse
aanget
##...
eveneens
gemiddelde
Ser
del
sa
wens
##wet
stoppen
##schuw
heet
##uleren
leidt
ontbijt
193
sex
zwarte
rondom
EN
Mal
games
##12
##).
inzet
inderdaad
eenige
##oorn
##inger
Enk
....
syn
geef
architect
aanbiedingen
kat
##hof
rem
gebouwen
2000
exc
opties
kopp
lastname
hogere
firstname
kwijt
Hen
Sommige
pad
rand
sold
vit
geopen
nieuwste
werknemers
Ons
##meester
betreffende
iPad
faciliteiten
slachtoff
Vr
hum
##leggen
starten
##elende
##uters
blad
blader
##ranje
##adering
filmp
Antwerpen
Pet
fol
##ankt
##alingen
vernieuw
##elend
bloem
draad
wetenschap
Word
noch
sat
wijk
##riften
##mans
##hang
##EG
##iker
##ape
daarin
ontwikkelingen
beschikken
show
interessante
32
Fin
Sur
sens
verlen
ondanks
##rechten
verkie
univers
profiel
Unie
kiest
##duceerd
Bus
Colle
Med
cond
##ias
##lijst
##ano
##atr
zeg
toestel
beschouwd
bevindt
gekocht
zware
Willem
impact
uitvoeren
historische
browser
akk
##avan
##del
##wereld
daarop
belasting
houten
aanvraag
gerecht
ontdekken
installatie
noodzakelijk
Wi
bud
flexib
kust
vet
##ueel
##zaken
opst
##oker
ref
##waardige
oorzaak
##ynam
economie
goud
lijnen
sjabl
##ness
##orte
##reat
aanleiding
##rukken
schip
conf
##boom
snelheid
ondersteunen
aanpassen
Helaas
prestaties
behoefte
gewijzigd
georganiseerd
03
Kw
Tim
harde
maal
##chines
##gevers
##reis
##elect
process
##ctief
Jezus
Daarbij
##ensie
landschap
gevestig
nabij
Spanje
##ize
bewerkt
##unch
##iets
##ikel
##iër
Vervolgens
organiseren
Techn
liep
##streeks
Blu
Koning
back
kal
ware
##gaat
##gene
station
##ussie
meet
##onderzoek
dert
samenleving
##gestelde
verwijderd
variant
uitstekende
aansprak
##atalog
04
Co
PS
boord
wett
##80
verslag
##ims
##empl
##ossen
##stens
prins
Europe
##gestaan
trein
Wilt
Nieuws
schilder
momenteel
zogenaamde
Post
fi
item
keren
kab
##vrouw
##bar
##EM
##ysteem
##gekomen
##oging
zover
grens
geme
tijdper
Grote
draaien
##--------
route
36
75
Huis
ist
paard
veld
##uff
##ël
##ikte
##spl
Andere
aangegeven
##organisatie
uitvoering
onderzoeken
oppervlak
naa
nag
noem
eenmaal
##plicatie
vermogen
cel
dinsdag
##ca
##gar
##bureau
##erij
verzoek
persoons
generatie
positieve
vertegenwoord
Gron
Mer
Mus
Mad
Rober
zacht
##risten
dek
##iegel
##oma
overst
##apie
spannen
concept
##merking
werkelijk
geleid
Europees
privé
invest
Soci
##pan
##IL
##igers
verj
stim
stonden
##uif
vormt
ziekenhuis
Goed
banken
huizen
##ba
onmiddel
leger
wellicht
toestemming
vocht
##boven
Arch
apart
gebeurten
##landers
Let
SP
Tele
but
lot
vullen
##bord
gef
gewerkt
datum
##rust
##aalf
advertent
access
##atting
Parijs
afdeling
World
?"
Kies
Off
fa
hoort
##lig
##vd
##heer
bewijzen
##akers
##anties
##werker
##ertific
##schrijven
gevangenen
gezellig
complete
interactieve
toegankelijk
Will
kwest
melk
zagen
##oa
##war
##itte
##blijven
doch
Ondanks
beschermen
verrassen
onafhankelijk
reclame
##ownload
Gesch
Tran
bon
sier
winst
##izig
##ating
##gek
uitbre
onderhoud
##merkt
werkte
drinken
##cci
vrijheid
##ancier
##schrijving
Mensen
indrukwekken
twijfel
06
##ira
##fol
geloo
##arkten
sector
strip
relatief
dienstverlening
##kwaliteit
individuele
vogels
Enkele
08
Buiten
Part
Water
hangen
##kers
##ucht
stroom
##ooster
gram
slim
keur
Engelse
Tom
aft
sites
wint
##kamp
enig
inz
bewezen
spreekt
##gebouwd
Best
Char
systemen
##etting
##raagt
Tevens
stemmen
internationaal
privacy
ijs
selectie
luxe
02
Air
sol
##uv
gecon
bewijs
stab
wegen
ontwerpen
##ankelijke
##ultuur
##ificatie
verhoog
openbaar
openbare
aangepast
gespeeld
populaire
Centr
##beheer
ill
books
Ass
Zonder
bomen
trek
vonden
##no
##ueling
verdere
##verh
stoffen
klasse
verschijnen
slaan
##gebouw
##produ
onderzoekers
##ituut
elementen
gevolgd
Uiter
accept
aanpak
Home
cijfers
kandid
ss
##ror
##OOR
##ated
behouden
##ants
exempl
interview
behal
medic
draait
scherp
trouwens
invester
editie
rivier
gemeent
07
300
Doch
Gl
It
Out
bureau
kol
##aft
##vle
##UR
verle
##rem
aansch
uitsluitend
##beg
##proces
##ther
avont
nauwelijks
##kundigen
Zwits
Oostenrijk
nodige
behalve
Eén
Ken
da
fan
##ball
##elings
bekeken
##aker
##result
qua
voedings
fabrik
##cedure
Du
tij
##lt
##orven
verp
##asis
leider
##odium
geniet
sneeuw
##rière
gering
berichten
advoc
drug
accommodatie
schildklier
akkoord
Rad
melden
##gers
##ley
##schoon
erin
##icit
##kering
blik
terugk
geleverd
kool
trap
sleut
officiële
Foto
Mob
Up
drank
fra
luid
tab
tient
##zi
##ür
##stelsel
voorstellen
##unning
##idde
omhoog
##heb
gebrek
legt
wilden
Welkom
donker
honderd
ontmoet
##oken
##yc
erbij
ontstaat
vliegen
douche
Rijk
Sa
kast
ronde
voegen
##ward
##ör
##ilver
##schreven
spoor
ruime
##etters
redelijk
##oires
originele
details
Media
Zod
honden
##pat
##inten
##stan
##ales
##ulling
waarheid
schad
totale
##affen
bodem
##bsid
##vloe
functies
normale
Terwijl
pensioen
Acc
Bur
IT
Wet
lat
ochtend
zuur
##comm
##go
##Tube
dans
bladeren
##ocr
goedkoop
geloven
dagelijkse
2003
verlaten
trots
oudste
verzamelen
verkrijgen
wezens
Website
geopend
95
loon
leek
##kle
##enzen
##ieerd
inwoners
##ouders
overige
##zending
meub
##....
handel
2004
netwerken
partners
betekenis
korting
voorzieningen
Engeland
update
strategie
Hun
Londen
Mark
bod
ras
voren
##ham
testen
aankoop
##hem
ers
##ulden
plus
tegenstelling
##asteel
##pleeg
droog
toont
Gucci
YouTube
klassieke
tentoonstelling
Chinese
daadwerk
AD
Dav
Eg
bier
caf
##pas
##materiaal
##rok
aanbe
west
##atieven
onderwerpen
scholen
##veilig
##ipp
bedre
bedien
prett
probeert
vermoeid
Maria
schrijf
voortd
centrale
##mogelijkheden
tegelijkertijd
):
BE
Fr
Kom
bak
fles
lied
sing
##sbe
##rand
##ym
##genoot
##verb
overleden
##gelaten
voeten
oudere
150
##geleverd
mailadres
##lymp
##vormen
##vorming
Denk
Turk
!!!
##genda
##bbers
Koninkrijk
34
Bal
Eigen
Heel
Max
VAN
look
pc
zand
##iot
##inet
##roffen
onderling
vertrouw
##diensten
Marcel
business
restaurants
zakelijke
duizenden
behoorlijk
aar
wal
##mag
uitgest
waarvoor
schoenen
##ugh
gezamen
beschikking
verlies
emot
opzichte
ST
Verd
git
koud
kijkt
leert
##GB
##oorde
##verw
zijne
##indingen
##ellingen
##urend
levense
bevor
ingezet
lastig
twaalf
individuen
borst
lager
##lam
##vingen
##yr
##itor
very
refer
mode
hierdoor
gelden
##obby
ideaal
geregeld
kleinere
Play
haven
verspreid
Distler
Afrika
Act
gaten
noorden
##station
##aps
gevorm
##plan
management
gezonde
kwal
grootte
resol
opening
uniek
gerust
bergen
applic
groeien
geïnter
graden
vergelijken
meisjes
gezellige
updates
hotels
afbeeldingen
temperatuur
bang
ler
##wen
##bon
##ini
##verkeer
##plo
##ementen
geheugen
profit
gespeci
##matige
duurt
avonds
fijne
hangt
principe
cou
lanc
richten
##fect
##OO
##ature
voorsp
aangev
##amine
minstens
Web
compet
plekken
This
##daagse
##ustral
smartphone
crisis
hield
winn
##da
##ely
##onk
bem
##verm
##scherm
##ople
waarna
program
##spir
kansen
Nederlanders
192
##ologisch
aanvragen
Groot
Welke
ontdek
warme
industrie
gewenste
Cas
bord
card
rot
veert
zus
##trek
##oederen
##geen
schaal
helder
##luchten
bereid
inspiratie
Camp
Dut
Kn
Piet
Ro
Top
det
more
ol
tru
##son
##ih
##US
##atoren
##aarden
datab
review
schen
ontst
bellen
##voering
duurzame
##handel
relig
geslachten
Mc
Noor
has
vent
##mis
##zie
ingev
##alle
##ilis
waarden
klas
klinkt
minste
verbeter
Bijvoorbeeld
Hierbij
acties
telef
##uliere
##aptop
verliezen
Austral
IJ
Jer
Lim
Mocht
OP
fig
foc
festival
ven
##ao
##pten
##kr
##AP
##stijl
geste
##genoten
realiseren
##icus
schrift
afzonder
afval
##ume
##ieuwd
plots
daarnaast
##uizing
interieur
seks
slechte
Minister
##positie
provincie
budget
Uiteraard
Av
Bet
Gent
doos
taak
zaten
##selen
##hel
##bond
opslag
##une
##uwe
doorgaan
##iëren
bezocht
optimaal
aanbieden
##keurig
discussie
##lopende
begrip
55
Club
Nee
go
kranten
po
##iaal
##iber
##70
##BS
##itaal
##schriften
klikken
##houder
boer
Nederl
bevinden
gehaald
##alisme
##wijls
server
halve
verklaring
oefen
##film
Eerste
werkzaamheden
Robert
Cor
ner
rit
taken
##ilet
##elletjes
##uzik
onderzoeks
vierde
speelde
dikke
##malig
virtu
uitdaging
3D
Midd
PC
cellen
wetten
##deling
##él
inse
##urn
##una
##hebbers
derden
gedachten
vertelde
Vanuit
autor
Reag
jaarlijks
AN
ES
No
Rob
Vi
nummers
##aters
bewegen
toestand
hoef
herken
aangesloten
##azz
abonnement
##wijfeld
respect
huwelijk
Gra
War
high
talen
geë
opent
opmerk
##very
##aming
##othe
##aciteit
navig
##essie
landbouw
tenzij
verwant
##arming
getoond
vergelijking
verniet
Eindhoven
Israël
verjaard
Hy
Java
hopen
ment
##sd
##doet
##bus
##ory
aang
uitleg
##iere
##oods
ondernemers
menu
they
slapen
there
##oegde
woont
garantie
kunstenaars
05
Vor
golf
mal
vro
##dan
##vaardig
vertal
voorkeur
##verg
##esp
##ionale
toetsen
eigenschappen
##ays
##voeren
##erman
fly
##doende
gepublic
##entieel
vlieg
bedoeling
lengte
gevestigd
48
Doe
Geef
Pale
So
vaardig
zaad
##lijnen
##ves
##bere
##NA
overleg
schijf
schitt
##volutie
##activ
gereed
optim
medische
toekomstige
campagne
onmiddellijk
Rus
neder
tam
tick
##service
##comp
deal
##olang
onderstaande
##ution
hoeven
expl
##eemt
houd
##mede
##ology
teksten
about
##persoon
onderneming
afspraak
Artikel
toegepast
boodschap
Besch
CV
Ren
Red
Vis
ker
##fab
##14
##orde
bese
##versie
##ouder
uitdruk
##ulk
##oost
##apens
##spect
Albert
menig
verscheen
Daarmee
hemel
verandert
nieuwsbrief
schepen
uiterst
onbeper
lessen
Producten
zuiden
continu
Groningen
Ster
Was
huren
our
sug
wagen
##raaf
##mond
##va
teveel
eruit
##ruis
##ience
rep
nogal
wetenschappelijke
volgend
presentatie
vloer
Hoog
One
fris
kies
las
make
tax
##wacht
##anne
##eters
##stru
verre
versl
##genoemde
bestur
hiermee
##iefde
verdiep
gemeenten
afgesloten
archief
makkelijker
brede
draagt
Russische
AM
cir
dames
leeg
set
##nog
##feest
##vies
##blik
werkgever
weergegeven
Gew
toenemen
rechtstreeks
maatschappij
##rieken
behandeld
uiterlijk
fabriek
telkens
verdienen
ontspannen
Check
Licht
Site
dok
es
hare
tracht
##post
##zaal
##aaien
inkomen
beiden
alweer
Deel
##ulaire
##antische
verschijnt
##netje
recente
brug
dikwijls
Italiaanse
-'
Aange
Il
gun
pen
##aim
##dro
##etische
alvast
aandeel
lekk
##spar
totdat
##ioneel
##ommigen
fotograf
verzorg
geheim
sociaal
transport
consumenten
verantwoordelijkheid
vijand
seconden
select
kwestie
daadwerkelijk
Hong
Uite
laptop
##iff
##uste
##bi
##__
##staten
##onne
beïn
stel
reizig
schijnt
##osof
betaalt
toegestaan
comment
##weet
eerlijk
Stad
gedacht
##udi
##anciers
expert
functionaliteit
oorspronkelijke
darmkanker
99
Bos
Hans
ON
ei
fouten
hoof
pil
##eet
##back
##ye
##ét
deden
##leer
voormalige
onlangs
##verk
bijdragen
spons
blok
minimaal
tijdje
##handeling
zooals
Client
begeleiding
International
verjaardag
Uiteindelijk
banden
mont
raken
##kst
##ual
##bak
structuur
dieet
omvat
##rad
angst
##vest
boeren
kwaad
##izer
vriendelijk
Prins
maximale
aardapp
##partij
vermoeidheid
AL
Bent
Joze
home
lic
moed
rang
##han
##In
##aaid
inh
inch
opvallen
##oul
volt
werkelijkheid
doden
regelen
Hieronder
##middag
carrière
momenten
vreemd
gevormd
Jozef
Bad
Dien
Jon
Sony
wol
##passen
##MS
dep
hetgeen
opgev
bewaard
verdeeld
onvol
##iciteit
##ooid
##terne
administr
applicatie
creatieve
opgeslagen
eeuwen
##eeuwen
aanwezigheid
##zettend
##blemen
single
Cal
bran
cro
jammer
non
zelden
##ekend
##zuur
gepl
spoed
sprak
machine
them
2017
##uiden
benodig
Geor
positief
uitstekend
gemiddeld
##zijds
44
65
Mor
Oor
Vaak
ball
kasteel
##90
##RA
energ
##ité
voorraad
stress
zodra
gebleven
gemak
2001
##ontwikk
Gez
gehoord
gereg
##axy
luchthaven
rekenen
wijziging
blauwe
absoluut
voorlop
King
Later
Wal
ec
lach
noten
tand
wis
##pele
##vader
##aaie
##oloog
##ando
##essen
omzet
uitstr
uitvoer
##uwen
##oedd
##igend
interesse
voel
help
actuele
schrijver
lichte
zorgvuldig
visie
drukken
kilo
vereniging
cade
fans
velen
##nodig
##laag
##bod
##ziek
##zoeken
##OM
verde
Beste
trad
besloot
aanvullen
##clusie
Contact
##rastructuur
vereist
33
Hem
Lou
Mat
Sec
Tr
dipl
gisteren
nak
##ukt
##hy
##hankelijke
##EID
##13
onmogelijk
##geet
meen
wijzen
##voorzien
export
beschad
thee
Ann
zwanger
new
gerechten
dichter
coach
##stalige
dertig
Achter
Dire
Sal
Sol
agenda
##iezen
##umin
##groepen
##gevende
evenals
kook
instantie
hoofdstuk
duidelijke
##getwijfeld
finale
##AND
verdwijnen
##waardigheden
ernst
CO2
resolutie
Goede
Lang
cy
hon
hiel
use
##iro
##anda
##rijding
##aking
gevoelen
intern
verkregen
print
offer
succesvolle
meldt
woningen
betrouwbaar
##oscoop
tools
Alex
bra
buur
roep
##iast
##din
##vige
##VV
vanzelf
beurt
##raph
afsche
ontzettend
##aagde
klacht
##aamd
tijdelijk
Jean
behoren
suiker
Spaanse
apps
##schappers
paarden
gebeurd
##alistische
##pret
buitenlandse
Christus
jurid
goedkope
controleren
bewerktu
tijdperk
Aj
Olymp
##weten
##TS
##ata
##ital
##arden
##omas
##ams
##ago
bloot
belast
minimum
##ney
universiteit
levering
que
beleven
1000
bibliotheek
wachtwoord
honderden
Galaxy
uitgerust
hers
mer
##cont
##kten
##bron
##EO
##TEN
##olpen
##entiële
levende
gelegd
netjes
ontwikkelde
chocol
##ours
veilige
culturele
vleug
camping
Japanse
elektrische
vrijwilligers
##duidelijk
linker
David
nergens
Leg
Tib
dynam
heren
toren
##cle
##let
##ijsten
##geh
doorbl
onderhouden
prospect
volgde
190
staats
gelezen
arts
Belang
##aliseerde
Volks
concert
apparatuur
officieel
Berlijn
telefon
Em
Vueling
Zee
##rassen
##meer
##jo
##ér
opgel
onv
##verl
##rijpen
##pens
##reem
2002
binnenkort
##ohol
teams
simpele
nuttig
satell
persoonsgegevens
tijde
gepubliceerd
Drie
Kunst
Nou
Zoek
muzik
##11
##ée
erken
##ague
##ading
Informatie
mech
##onderd
bedden
prim
##board
##ayer
technieken
flipbook
verzekering
##auto
bronnen
innovatie
beslissing
soldaten
noemt
geïnteress
39
Midden
Norm
cal
vel
##ais
##eland
##oris
##machines
exp
Speci
zwak
luisteren
##wegingen
groeit
gemeenschap
anti
praktische
communic
chem
installeren
buik
effectief
64
IP
Roy
Service
fit
like
##kast
##oun
##eringen
##isie
weig
Inf
##slotte
hierin
Zeker
##zett
broch
combineren
gecontro
ontvangst
##meth
##ishing
Ontdek
nadruk
straks
bladerbaar
voortdurend
Rond
VI
Vraag
hom
long
podium
##ep
##eerst
##ctro
schuld
##ited
##range
Opt
geleerd
evenementen
##ommel
artie
publicatie
forum
maakten
Gods
zomaar
wandel
gevangenis
experiment
passie
auteurs
distrib
.,
42
?'
Hart
bol
##uc
##AG
##ommen
verschenen
##reedt
benieuwd
##cepten
handige
##iller
vermoed
##inning
actieve
##ernooi
##bedrijven
versn
toepassingen
##kundig
49
Dig
Just
Power
cit
catalog
haal
kabel
win
stelde
##iering
##eeland
spect
##landse
verschijn
behoort
vertoon
188
bestemming
maatschappelijke
verbetering
formaat
##stemd
status
Design
letterlijk
onbeperkt
'-
AZ
Echter
Wik
duren
edit
mel
oost
raakt
rente
##card
##mus
beant
islam
voorheen
##vere
stren
bijeen
##sector
Int
gras
grenzen
##datum
##blog
##gebieden
evenement
aangekond
##artementen
Groen
gebeurde
logo
Kortom
verscheidene
Wereldoorlog
##verzekering
indrukwekkende
Tibet
DVD
Mont
ag
fre
##pakt
##la
##fit
##dheid
##bur
##orpen
##informatie
##iten
ongetwijfeld
##gemeester
##iland
##utten
Algemene
##wedst
##pert
beziens
##look
##vante
voelde
sehr
##vloeden
##ohn
Univers
patiënt
succesvol
lidstaten
gecom
presenteren
geselect
items
Cap
Prijs
mus
nee
##kon
##di
##vatten
##Book
streek
##idings
##ogel
waaruit
mochten
kanten
##erming
computers
##ques
##appar
antwoorden
dichtbij
which
wedstrijden
warmte
magazine
concurrentie
Rusland
prospects
!)
38
EE
Eerst
missie
rob
rijst
ur
wa
wees
##vragen
##beelden
##basis
##ita
##onstr
beurs
##isk
##unn
waarschuw
confl
bestond
genoemde
tijdschrift
effecten
cloud
250
Expl
recre
bereikbaar
##model
introductie
Zodra
AB
Nat
Pvd
Rem
Zow
hop
raden
sem
zette
##szins
##kings
##boeken
##zinn
##IC
instelling
geï
##gewerkt
##raft
##ush
repar
onth
bedankt
Stand
##neden
samenwerken
hoogst
##geleid
geheele
gesprekken
blijken
vriendin
behandelen
uitgebracht
donkere
##ferentie
##liggende
Dutch
haalt
trend
##Point
##yle
##ract
##igende
hierover
##groeid
belangen
ther
##ifi
feite
bereken
Group
kritiek
journalist
##begrepen
sleutel
##magaz
applicaties
37
Az
City
HET
Jong
Tussen
Zeeland
every
raam
wapen
eng
end
##dert
stenen
ermee
wegens
spe
plast
##week
Str
Start
beschrij
##rong
support
##centratie
Hiermee
verwachting
hypotheek
Meest
fase
tak
##ric
##face
voorkomt
##omb
##omer
recent
toezicht
##rongen
Anders
##aving
huisarts
Arn
vloe
afspraken
Turn
aanbieding
adviseren
identiteit
vliegtuig
overlijden
Ajax
Zowel
Fa
To
bag
cr
gouden
lijden
leest
must
zaal
##ters
##gie
##beer
##OT
##onom
##leider
verwerkt
##ida
##schot
ofschoon
Intel
volop
##orth
toilet
##anningen
vertrek
handelen
##aller
subsid
plaatsvinden
verhogen
##erveerd
steken
Volvo
tekort
Samoa
gedeelt
afstamm
Linux
vergroten
gebeurtenissen
accessoires
medicijnen
fasc
##nes
##ochten
##40
deuren
inten
##derde
##ario
aandoen
anim
schr
Inmiddels
volks
klok
##houders
##ideo
##ifest
wetenschappelijk
geldig
Thomas
##ollicit
biologische
droom
menselijke
professionals
talent
analys
respons
toeristen
bevestigd
Der
Kun
Pan
bleven
fund
gelijke
luk
vieren
##cohol
##66
##aads
bewerk
vervang
##verslag
##ersp
ondernemen
prom
veelal
externe
##uster
##essor
Begin
handels
probeer
##netjes
Leiden
zekerheid
parlement
Gratis
##orpor
beperken
lossen
wandelen
wetgeving
specifiek
ernstig
produceren
oppervlakte
aardig
Aangezien
benodigde
47
400
good
hant
lamp
##pal
##uip
##vraag
##LE
vandaan
##onken
##ijkomen
streven
##wijde
##blijf
genaamd
zout
doelen
zijde
##rix
##ubliek
auth
aparte
##riter
rechtbank
doelgroep
locaties
beperkte
besparen
relevante
##gelegenheid
justitie
Edit
Mot
Nov
Pal
koude
miss
rac
tas
##rid
##ziet
##ining
##inke
ingesteld
##arische
verhouding
aanpass
metro
struct
uitsp
well
##acten
tocht
##afstand
Daardoor
##maals
##lubs
keus
geholpen
filosof
189
gestuurd
negent
##gaven
uitgez
Elk
##valu
onbekende
balans
kampioen
##knop
dubbel
enthousiast
auteur
##ördin
gespecialiseerd
uitstraling
gecontroleerd
##pol
##macht
##ues
##wicht
##bouwen
##PN
inbegrepen
voorstel
meten
##olven
##raden
uitv
##ierd
##agers
protest
modu
##lands
##wijzingen
Beide
verhuis
verlichting
##ypte
implement
##organisaties
kijkje
Indones
horlo
slaapkamer
onderzocht
overtuigd
correct
geproduceerd
reizigers
geregistr
''
BB
Ball
Ged
Sun
boe
dos
haak
##jarige
##wand
##IV
deelen
##ates
##igur
##arig
opgebouwd
ann
onderweg
spanning
##istiek
##key
voldoet
##slims
##abele
##duizen
gewonnen
verteld
##inaire
verminder
werktuigen
koper
modern
analyse
verdwenen
volwassenen
architectuur
##resultaten
focus
besturings
52
Oranje
Tijd
gij
taf
##mon
##St
##zamer
##15
geur
##dex
##ola
##tende
##elding
mini
armen
##uiven
char
gekopp
negen
kleiner
medewerker
client
betekenen
krachten
##plek
tekenen
duizend
efficiënt
Business
Office
avontuur
PvdA
Cre
Kore
Ob
RO
dia
lab
ving
ziel
##pte
##hu
##AC
##ypen
##elder
##inse
##ieme
ins
omvang
uitgang
promot
##umn
##ipt
gedownload
##mpath
Parlement
##ructies
garanderen
##igting
gezondheids
verzameld
hoorde
ministerie
comfortabel
lagere
tempo
##elateerde
wettelijke
Reageren
verdedig
Wim
##pijn
##maak
##loss
##AD
##zone
##eler
inr
##ariteit
##rec
real
zevent
ondertussen
##veen
klooster
verkeerd
vertaald
christen
##less
vlag
servers
vervolg
vijfde
##ificaties
trainer
financieel
ondernemings
verspreiding
Brab
wederom
negatieve
aspecten
tientallen
vaardigheden
aangekondigd
bezienswaardigheden
:||
Hoofd
ICT
Lat
cd
full
goederen
telt
vluchten
##ls
##lief
##RL
voordel
stichting
strak
##aleis
Star
##itieve
Rep
missen
##braak
sterker
Black
rustige
duister
Share
registreer
casino
,,
Go
Hot
Jos
Live
audio
rook
##pad
##kleur
##lich
opn
##leken
onrecht
alcohol
##ilj
##okjes
##ragt
##steun
any
spre
##irt
bedragen
koken
herstel
gestart
Klant
Onderzoek
cookie
situaties
Luc
kunstenaar
uitzondering
##vriendelijke
vacatures
slachtoffers
menigte
2e
NL
Ron
roepen
von
zeld
##som
##rin
##nacht
##club
intens
##asy
Inhoud
spullen
##orende
##loggen
gepresent
##iana
blijkbaar
ondersteunt
consument
India
Vlaams
roman
jaarlijkse
aanrader
Gemeen
database
1x
AR
Bach
Kerk
Sle
Weten
mater
vat
vracht
##24
##any
voorzicht
##omgeving
##unes
##ogd
meerder
toel
##bergen
genees
benen
##logen
verboden
houding
vertrekken
##ooth
vrouwelijke
120
krachtige
schermen
Canada
onafhankelijke
gelooven
##standers
cirkel
ernstige
AC
Bon
Jo
KN
Ray
koor
keek
lim
mig
muis
ring
tom
wiel
zachte
##cript
##lin
##fst
##AAR
##zee
degenen
##chen
##techn
##opdracht
##entijd
##ruchten
procedure
afloop
ext
##anner
##centage
compon
##ureel
bovenstaande
Marc
verzorgen
Griek
transpar
fantastisch
##stijds
Surin
kabinet
plotseling
dokter
46
Ru
Sen
Vier
Zoo
Zaken
crimin
gids
letters
sw
sen
##ko
##oeten
##zil
##steld
opgesteld
staart
##ulde
##ado
sporen
##spunt
##istisch
belof
##gemoet
vastgesteld
bewaren
neus
gaven
attra
verbeterd
verklaren
koningin
Portug
##trent
Login
aantrekkelijk
William
Famil
HTC
Sant
Vak
Vader
har
mm
mix
##ules
##MA
##KE
##streek
verse
verwerken
##schil
uitspraak
zoet
##sprek
afkomst
klin
gevuld
##iving
slaat
##aardige
chron
optimale
hoofdstad
##ights
krachtig
##belasting
Grand
##regels
Terug
##asterden
##wisseling
desktops
prettig
##spireerd
Victor
authent
High
Les
Mari
Nij
Pass
Serv
pur
##86
##TW
##atter
opzig
stor
##imenten
leidde
##bewijs
##utr
##kerk
concentratie
##houds
##alender
##gestuurd
wetenschappers
verminderen
##alisering
besluiten
organiseert
technisch
aanvaard
Center
rijke
massa
beveiliging
filmpje
##danig
lekkere
beantwoorden
41
Fre
Maast
WE
foss
hol
maag
##kopen
##laat
##fa
##hoe
##zige
##eelt
##tere
theorie
begro
gescheiden
vergader
getrokken
##ible
beroemde
##phen
##herapie
miljoenen
nachts
ondernemer
processen
opleidingen
oorsprong
release
uiteenlopende
Bank
Maur
Rich
Ts
Wol
Zwe
gal
haast
##cul
##KT
##ès
##orer
##dekt
##ijnse
meg
toestellen
terror
##stenen
mijne
verborgen
##boot
blijf
vrijblijven
knie
Heilige
trekt
##bry
Duitsers
kopie
docenten
publicaties
what
geïntegr
verklaard
##making
zoektocht
vreemde
##avanc
advertenties
##krant
,'
DER
Tel
branden
mit
rock
##riv
##voudig
##De
##anische
degelijk
aanmerking
##olatie
##eleinden
lezers
werknemer
Stel
weerstand
##renten
gezel
praat
handleiding
vergoeding
League
flinke
luister
aanvallen
sterven
patroon
vissen
##sprogramma
diff
mobiel
fraaie
efficiën
commerciële
processor
drugs
café
voorlopig
onvrucht
Maastricht
.|
??
Hend
Ierland
banen
ie
maten
tit
wapens
##keren
##ful
##dur
##inf
##itaire
##ards
verzet
stoel
overheids
schat
wille
weergave
arg
##formulier
##assa
##iveaus
180
ruimtes
commissie
minuut
##sproces
infrastructuur
grapp
##kwam
##celona
objecten
afbeelding
aanzienlijk
alternatief
gemeenter
geringe
gepresenteerd
"-
Bas
Cro
Fire
OS
Toe
Weer
ep
lens
muren
pour
##gangen
##dij
##wit
##bied
##ïne
##arbe
##iler
##urity
##ograaf
omtrent
##stein
##eleken
##immer
prot
Inn
2020
platen
zelfstandig
##periode
##bericht
gezocht
##ceaan
##oodse
##ptie
##odigd
vergeleken
verloop
Schip
publishing
##ateur
teleur
aanval
##zaamheid
##aille
##cteur
##minste
praktisch
Search
serieus
opdrachten
behoeften
Consument
Hallo
exemplaren
BV
Lo
Nav
basterden
dou
line
##dy
##xx
##atform
##denk
##aria
wein
onderhand
schulden
##istan
##gevoel
langere
koers
koelk
herh
Reis
stevig
##eefd
beleving
Priv
diagn
troepen
##wongen
onderscheid
toevall
afwiss
inspireren
Harry
##retaris
Film
workshops
would
domeinn
inzake
advocaat
gitaar
##pload
Limburg
opmerkingen
GT
IB
Kamp
Ou
Oude
Sj
bv
eraan
nicht
nest
riep
some
wisten
zanger
##riet
##ta
##waren
##SL
##iepen
tegemoet
voorwerpen
##gehouden
##gegaan
aankomst
aansluiten
##ologen
Dec
also
alsnog
besteed
toets
##wijzing
eigendom
interne
beschouw
##tijds
Verm
verschillend
##voet
School
Hiervoor
lieve
trok
geïnstal
burgemeester
Barcelona
veroorzaken
factoren
soepel
sieraden
##producten
##vlees
doorgaans
verdieping
Bay
Houd
Jaar
Mel
au
certific
viss
##niveau
##uck
##FS
##elp
deels
ingel
ingang
eenen
##ongen
##ros
##ikelen
spellen
meester
bedraagt
exclus
begins
beheren
##oeging
##andering
konink
lukt
verzorgd
##brug
##brand
college
element
##atorium
##pectie
student
##work
verrass
betrouwbare
##bestuur
versterken
##uraç
Swatch
licentie
56
Boek
Curaç
Grieken
Hof
Hoge
Pat
Tour
cru
dom
file
harte
lunch
pag
tip
vaders
##ka
##fr
##——
##etisch
destijds
gekeken
##alth
##eesten
aankl
##heim
##oph
overd
##ulatie
ploeg
bloe
Store
gedragen
##ronen
samengesteld
Beeld
regionale
Doordat
instinkt
##gangers
beslag
##eurs
gewoonlijk
##iano
webwinkel
redden
##maker
debat
elektronische
aansprakelijk
Palest
geïnteresseerd
AZC
Explorer
Dis
Frie
Kinderen
Lib
NS
Rom
Rode
Til
horm
nr
touch
##ré
##rel
##wat
##instellingen
##ches
gewe
geavanc
##ilde
##esc
Inc
wijst
elf
langdur
belangstelling
##iveren
geraakt
bepaalt
aanbie
##ianen
##athol
##keurige
##ventaris
embry
bespreken
Laatste
literatuur
hyper
ingred
fantastische
sjablonen
##otheken
AS
Green
Kr
Leer
front
katten
markten
oven
sommigen
zolang
##ael
##gn
##fs
##host
##erings
##leerde
verover
##ream
aangeven
##ammen
##ograph
omgezet
uitb
##elefoon
were
schieten
wild
##rans
box
kwets
Beach
vorming
gekleur
schrijvers
Plaats
Onderwijs
geslaagd
droge
##velop
##rediet
activiteit
zulk
ambitie
##krachten
object
oorspronkelijk
##tekening
zenuw
Bronnen
USB
fabrikant
rangsch
gedeeltelijk
gekoppeld
57
54
Bor
Berg
geren
if
lieten
pand
##ii
##paste
##lor
##fly
##bu
##OG
##ijm
##ijft
##oeders
##lev
bewee
vooronder
voornaam
only
##gekeur
work
##sequ
waaraan
##tert
spir
volume
cong
concentr
slagen
##rends
mann
gedetail
prior
##ifte
getroffen
##ssel
glad
zonde
licham
who
##eeuwse
flipping
beschermd
##geschreven
functioneren
Syr
constru
dubbele
Radio
vertaling
doorblader
Meestal
Portugal
gezelschap
Arab
Doc
Mos
SD
Snel
URL
cour
eBook
fen
##km
##osp
##beerd
##RE
##IA
##staand
inzetten
ineens
bedenken
verwezen
aangenomen
##verde
##teit
ofwel
##atiek
##isters
##ondition
grotende
genoten
##eca
exclusief
manager
gezinnen
##annes
benad
Vervloe
Bezoek
plaatselijke
indic
gemeenschappelijke
uitgever
relaties
beleg
formulier
download
geluids
gegeten
schakelen
##functie
WiF
ontstond
##oeddh
artiesten
grotendeels
1e
600
85
Econom
Form
sne
##pap
##gas
##drukt
##win
##wust
##zels
##TM
##eng
eener
verhe
stier
##schillen
zestig
level
spier
sporten
##aagt
hierop
bedacht
interpret
evenwicht
##waarts
ouderen
prevent
middels
eenvoudiger
losse
Brazil
Peir
ongeluk
fysieke
##panelen
##hebber
gezamenlijk
telefonisch
Bern
Cast
Gar
Tro
baas
cle
dalen
son
ye
zingen
##iŽ
##roepen
inkomsten
inrichting
eentje
##unicatie
sta
diepe
##acks
##house
tijdelijke
order
contacten
||€
##akking
geru
Leu
oordeel
leveranciers
Team
scen
creat
treden
##plein
when
rijdt
redactie
levensvoorwaarden
normen
papieren
Centrum
verzekerd
verspreiden
##ademie
##vriendelijk
Persoon
militair
sjabloon
chocolade
fascin
Vervloesem
Peirce
Bart
Blo
Golf
Teg
lenen
meren
nan
poging
sollicit
tur
wakker
##meel
eenig
##leidingen
vereen
voorstelling
##ijns
##scher
##entjes
overgang
##apje
bestel
##date
hierboven
derhalve
voer
##aya
##auff
##ervaring
vastgelegd
bewonder
kwaliteits
kaartje
woordvoerder
wenst
ogenblik
parkeren
arbeid
passag
virus
Instituut
beoordelen
vrede
vijftig
uitbreiding
Zwitserland
latere
levensechte
gunstig
Curaçao
WiFi
FM
Hall
Tor
Ur
Uh
Zou
bor
gu
koopt
##cellen
##gids
##wal
##EC
##TV
##17
##yd
##oegt
besproken
verzen
##oli
##amin
##schoenen
uitnodig
##apper
prote
schijn
##istorie
theater
werkdagen
##komende
broek
Volg
opgezet
leerling
class
oplossen
Afgelopen
veiligheids
wandeling
Org
Verenigd
illeg
Nationale
Tegenwoordig
Kwaliteit
##iërs
illustr
traditie
aanvullende
afscheid
plastic
43
FC
Ha
LED
Vit
gokk
lar
tor
##pot
##ml
##morgen
##jaars
##vant
##hi
##zin
##18
##16
##yen
##OP
##**
hetwel
##arie
##arande
opw
opsp
voorbe
aansluit
aansluiting
##verbruik
##schip
leiders
springen
spelletjes
ontw
graad
##ipedia
wijs
Wester
plaatst
landelijke
vermijden
getest
features
medicatie
know
doelstellingen
Brand
decor
decenn
geïnspireerd
Mex
overeenstemming
zwemmen
##aciliteiten
Smart
Veilig
Atl
services
maaltijd
Music
Nederlander
Turnhout
SharePoint
koelkast
53
Big
LE
aga
dim
feed
gig
lampen
sig
##paalde
##rig
##moeder
##ochtend
##hulp
##RC
##IK
##āh
vangen
oproep
##ilt
##idge
##ason
uitkering
##icar
##imeter
ondergaan
lezer
##splan
afger
##ellig
nader
gedachte
proeven
##diend
ligging
appartementen
Schot
##mmers
plein
verdient
Franc
veranderlijk
Duits
import
Andre
oef
registratie
##ginine
##onnementen
##schakeld
instrument
militaire
verkiezingen
Centraal
satelliet
spectac
Do
Loc
Mult
Zet
domin
eP
how
pure
ult
##ho
##AK
##ya
##OW
##-)
##stat
opbren
verpleeg
##route
voorgaande
overleven
##istent
##ocratie
##platen
##planten
##actor
koel
herstellen
deelnemen
##ource
##uzes
publieke
##tuin
zonn
verwachtingen
verblijven
brandstof
##bescherming
circa
Philips
vitamine
Financ
Egypte
referenties
kwalit
nakom
afstammelingen
Brabant
hetwelk
Ba
Druk
Doel
Kerst
Link
Moh
Vul
VOOR
Well
bio
let
##iat
##colle
##mar
##ford
##uvel
##bomen
text
stage
erger
##sted
##sens
##akte
spieren
##ista
play
betaalde
klassen
eerdere
##graaf
perman
laatst
##akkelijke
straten
Theo
oorzaken
zorgde
Groetjes
demonstr
##geschiedenis
Gebruikers
Eerder
sympt
investeren
winnaar
onvoldoende
roept
##ohnung
meerderheid
geïnstalleerd
ePap
88
Ag
BN
DS
Duur
Gast
GPS
Had
Imp
Wall
ero
kro
kok
##pakket
##vor
##25
hetzij
##ctoren
##ulieren
alsook
gebonden
onderv
##uits
##indust
##acc
##assade
##acter
evenwel
fotografie
wereldwijde
getrouw
misd
##leraar
beslissen
vriendelijke
##sprekend
##vereniging
##metingen
##gedragen
begeleiden
Geniet
Management
bezitten
vogel
Allāh
creditcard
uitdagingen
slachtoffer
Rijks
bevorderen
tamme
##tertain
59
Cultuur
Fort
Lode
Meg
Maand
VVD
aro
ban
his
komst
nut
pakk
vul
##rikk
##ua
##EB
##ystemen
##ün
##),
##stander
bes
##amel
##oute
##outer
##schal
##adijs
zoiets
welzijn
##gevallen
beschrijving
Verg
##intje
Bijbel
herkennen
reguliere
gekru
##ossier
##arissen
personages
check
gegarande
##besl
hedendaagse
Koningin
naauw
##vermogen
voorzichtig
Zweden
congres
##industrie
James
Kinder
dame
oosten
poort
takken
##rus
##cer
##tia
##ön
##ares
##iswaar
##isher
omzetten
heft
##speci
##bestand
groenten
gewend
Street
verbinden
information
trac
herfst
tenminste
gewoonte
##schappijen
broers
bezoeker
studeren
jongere
trainingen
studio
Vereniging
people
reageert
melding
gewenst
introduc
Martin
Delft
capaciteit
stimuleren
schitterende
juridische
gecombin
Joden
Wit
breken
ere
fac
other
sil
zaden
zilver
##oeld
##honderd
##bra
##AF
##VO
##stoel
##oornis
##igden
opname
bef
voorwaarde
##uring
stranden
uitgen
westen
##sper
made
blokk
zelfden
dringen
##iefd
##volgende
beschouwen
verkeerde
tenslotte
aangemaakt
magnet
getuigen
verzonden
beslist
##getrokken
ingewikk
Ondertussen
Afgh
##ashion
##uilen
hardware
professioneel
bestuurder
arbeiders
##gewicht
vroege
overtuigen
constant
Auto
boter
definitief
aflevering
College
aansprakelijkheid
kolon
zuurstof
branche
spoedig
opgelost
Festival
Gele
Oud
Video
ay
akt
air
glo
hoed
harm
ir
##poort
##prijzen
##mate
##UW
##rap
erkend
##ulen
afsluiten
ontsn
##osm
##ives
onzeker
Staat
verkoper
Verb
informeren
.....
chips
bekijk
regeling
ondersteund
##ahn
gemakkelijker
dial
begrijp
horiz
operatie
III
ontmoeten
uitstoot
verhoogd
kandidaten
flyers
conflict
responsive
Hendrik
uitgenodigd
800
BM
Est
Feder
Han
Voeg
free
jacht
obs
raak
song
vuil
##sing
##rete
##muziek
##fd
##foto
##uzen
opricht
##rede
zijner
##oke
bijbeh
overgenomen
Inform
conclusie
##irk
wijl
##oordelen
##ivel
##ivisie
doeleinden
##ments
plaatsv
##ovatie
##mmingen
brieven
##klasse
vierk
beschikbare
motiv
financiering
voorkomende
##goeding
##nelheid
scherpe
Gener
##INGEN
prestatie
aangebracht
##ellect
kwartier
Bosch
tarieven
voorbereiding
aantrekkelijke
##acteur
humor
prinses
bonus
competitie
programm
afzonderlijke
ESA
##activiteiten
University
beschrijft
doorbladerbare
Hop
If
Ide
Lie
Meld
Pier
Vel
Zeer
bond
dorpen
fisc
ramp
vee
zakken
##gier
##oung
##hoorn
##elie
##ores
##inal
##ato
##ito
gedeeld
##reur
##text
Dem
##tenaren
##schade
spreek
mount
consequ
klikt
toernooi
##ird
gemaakte
##gevonden
bezorgd
##ensies
##ertje
belangrijker
##mpel
Spelen
appel
##lessen
instellen
claim
gauw
consult
onbekend
##ittle
monitor
System
innovatieve
invullen
koppeling
Blue
Louis
##methode
domeinnaam
Bijna
BTW
Gi
Momen
Tru
Trek
bijkomen
hobby
map
mem
mits
##vee
##hangen
##xus
##Hz
##GP
##stip
##ingt
opger
opzet
opslaan
onop
##reizen
##aks
their
genot
##gebroken
Vert
ligch
respectie
bestem
jarenlang
sterf
Plan
##pectief
talrijke
talloze
verzameling
##ircondition
##CHT
Brug
zuidelijke
domein
said
spannende
investeringen
Turkije
offerte
extreem
Cook
Core
Mee
Pic
Wohnung
dure
diner
evalu
grij
lijf
moord
puur
puz
raakte
tanden
ul
wifi
zamen
##beren
##IF
##…]
##stoelen
##led
verstaan
storm
stelsel
werkende
waarb
##imp
##imate
daarover
tertia
Stuur
##neming
##aux
hoogwaardige
##anceerd
keizer
stevige
werktuig
regelgeving
offline
1998
schoonheid
Johan
Romeinse
beroeps
kwartaal
vooruitgang
negatief
herinneren
onderscheidene
overwinning
European
Trans
schaduw
aanbev
##riteria
weinige
Herman
Matt
Rest
Ruim
Shop
Software
fran
oranje
san
##aver
##gerecht
##landen
##wiel
##hoofd
##FD
##200
##ón
##ijp
##ijdt
gewest
voorgesteld
##ogingen
bijeenkomst
##apjes
##begr
nogmaals
##afari
gemeten
elders
minst
extre
##volution
behalen
langzamer
vertalen
##ijfer
##onenten
diens
keuzes
##chnologie
Sche
##achel
Plus
rollen
Groep
versies
gecre
platte
verschilt
subt
raadple
vermelding
voertuig
magazines
essentieel
##----------------
##gebouwde
ontdekking
venster
communiceren
geavanceerde
ingrediënten
##tertainment
gegarandeerd
vierkante
Da
Dub
Kim
Maas
Rab
cop
haalde
##front
##wol
##wend
##deerde
verstand
vergeet
voorjaar
##rechter
##team
##ray
##raven
spiegel
##bei
ontslag
master
grot
nadeel
slaven
terugkeer
##illy
Project
##management
geheime
specialist
1999
woonkamer
Appel
jongste
two
ongeacht
vergelijkbaar
vijanden
##makers
registreren
origineel
kruising
##strolog
kandidaat
bedienen
George
##uminium
Olympische
geregistreerd
duisternis
Schiphol
exclusieve
Momenteel
##irconditioning
Ath
Dora
NV
Not
Ple
Pop
SC
Tal
Vele
ein
fel
gunst
ht
hoopt
id
kond
mist
malen
market
see
varen
##iol
##rang
##niet
##uinig
##MC
##UN
##eloze
verkennen
##ility
stopt
stoelen
date
overt
ondergrond
kanalen
aff
conne
toepassen
Stud
tijdschriften
benoemd
moeij
Behalve
heldere
stralen
##zetting
Arbe
vlug
Thuis
##visor
maandelijks
drukke
##ups
uiterste
studies
vroegere
coördin
##bleem
politici
Nationaal
gevaarlijk
simpelweg
tempel
dekking
Jeroen
insekten
inheem
Royal
##wedstrijd
Uhde
%.
Dam
GR
Pap
Vo
Vers
[…]
lente
nal
qui
ramen
##pakken
##mijn
##zag
##19
inkt
opeens
##ural
##otten
##ouse
##rustr
realiteit
##ooft
geboden
kanaal
##been
conversie
gevoerd
besteld
exact
mannetjes
bezorg
Eric
Champ
huisje
vergunning
##ancy
aangekomen
instructies
##sieve
groeiende
scala
maatregel
voortaan
bekijkt
formule
namens
edel
ongeloof
##schakelen
elektriciteit
opvolger
ontbreken
integratie
Philip
schriftelijk
vrolijk
suggest
bijbehorende
Cop
Mod
Prem
Sil
Veen
ast
agr
batter
das
him
ped
##mann
##kaarten
##tage
##vlie
onduidelijk
##ilveren
##ury
##asie
##ags
planning
##osa
daaraan
mensch
##aff
ellen
examen
##orens
##tijdig
kende
artsen
christ
Schrijf
Mario
besteden
Extra
liepen
##kantoor
versturen
private
dataverkeer
opleveren
##maatschappij
1945
initiatieven
boodschappen
##cedures
categorieën
House
filmpjes
##yright
Ministerie
##voorziening
brochure
frequ
oefenen
Geest
IC
Laten
Romp
Trip
Vind
Zwee
coc
raads
##mo
##kap
##fox
##uderen
##velden
##bit
##IM
##erc
dev
metalen
##verandering
steek
##otische
##ases
##ersport
weblog
overheden
zodanig
##ctieve
Stap
##reep
plaatje
grooter
gelukt
Erg
bevoegd
Marie
##prof
##ENS
groeps
1990
1995
webpagina
##ixels
record
moeilijke
trainings
oogpunt
maximum
kapitaal
myster
vlakbij
stijlvolle
##verteren
afwijk
tevoren
Hollandse
zuiver
uitzonderlijke
voertuigen
Linked
duiven
spannend
faill
enigszins
Eigenlijk
uitgestorven
Noorwegen
cadeau
honger
Wikipedia
filosofie
uitgezonden
Griekse
gemeenteraad
);
AP
Bol
Hor
Host
Haz
Histor
Po
PR
Pay
Ret
Ton
Witte
Xbox
boos
gat
ket
niveaus
pal
pool
rende
woest
##sels
##neemt
##ban
##bor
##EK
##orig
##standen
vanavond
index
##ington
ophalen
onsch
aangenaam
metaal
stelling
##ogels
##okker
##ady
geboekt
danken
##istieke
Eng
Voorwaarden
achteraf
hoogleraar
Geb
verwar
bepalingen
publisher
##productie
hoofdrol
verdrag
vechten
stukjes
professor
##houdingen
zoekmachines
Klanten
gelijken
kortings
1993
##balk
dromen
tekeningen
verklaart
planeet
discuss
democr
##ringt
stamvader
bedrijfsleven
Contro
##winkels
jurk
geprobeerd
National
premier
complexe
fabrikanten
tickets
##ontwikkeling
gevoelens
erkenning
vermoedelijk
catalogus
vloeist
Richard
vrijblijvend
Fund
Mul
NFS
Rid
bund
cur
gift
kam
molen
oren
sj
tellen
zang
##ny
##cia
##kru
##juist
##tie
##vatting
##OV
##BA
##itische
inventaris
verstandig
verzend
aanmaken
metal
staten
##oga
omgev
##opleiding
bijv
##aalden
schone
schouder
##ists
weliswaar
##osh
##onderwijs
miner
##schapen
##ingsver
bezwaar
##ides
Verh
Vervoerder
therm
add
kocht
##rict
compos
##ades
Reacties
sympath
##gemaakte
##rekening
glazen
##usea
Nexus
luchtvaart
##auwe
verstrekken
roken
##kunst
##beleving
EUR
##gedrag
nationaal
##IJK
aspect
Michael
Venet
##folio
slimme
profiteren
boerderij
diploma
Firefox
!'
HR
KL
Lux
VN
big
kg
kaas
power
tun
vice
wir
##cker
##kijken
##zz
##enst
##ense
##inderd
##veringen
omtrek
uitkomst
##opers
heilige
dansen
schuil
##artikelen
tour
gewaar
##gebragt
gelopen
probeerde
achterkant
Real
system
##overeenkomst
##ERS
Probeer
##gaand
Americ
opgegeven
##temin
docent
##entegen
inspanningen
consum
moeilijker
verstrekt
generaal
room
outfit
verricht
beveiligings
drankje
##commissie
leraren
virtuele
autoriteiten
verzorging
meenemen
bewerktuigde
Suriname
Tilburg
creativiteit
Mohamm
gecombineerd
respectiev
gecreë
Et
Echt
Fer
Ho
Hard
Iets
Jack
Journ
RT
butt
golven
kathol
krediet
lift
sin
seg
vruchten
##ef
##my
##lange
##for
##uge
##PR
##IP
ingevoerd
geologische
bewegingen
aankond
##vergoeding
erfen
hect
doorheen
##ooie
##sec
##uurde
##ondon
##keuren
hierna
##gronden
bezorgen
##ppel
Daarvoor
cha
uns
gehoor
Argent
##klaring
maatschappelijk
##broek
digital
beschikbaarheid
bevest
beperkingen
##reda
telefoons
lichaams
##autom
##sprong
cursussen
verplichtingen
bewustzijn
oneind
column
Jullie
somtijds
##isseur
Klein
Kleine
sensor
Archief
toetsenbord
besef
lachen
##yenoord
Day
DNA
Koop
Kleur
Muziek
Nico
Niemand
great
mand
now
run
race
vaat
##ière
##mark
##gingen
##fonds
##uals
##TO
##OC
##ination
opzetten
besm
##unk
##andel
##schema
recepten
##icale
afwe
wassen
may
##edert
gewaarde
werkgevers
##voorzitter
##uiver
##lux
vermoeden
##sprodu
concrete
Centre
##uleerd
afwijken
vestiging
optredens
##vrije
ontspanning
salaris
ontbreekt
alternatieve
gods
##vakantie
Australië
figuur
commentaar
Belangrijk
96
Bouw
Cong
GE
ID
Kamers
May
Mail
Oh
Polen
Rijn
Vir
airconditioning
cover
ic
job
jazz
mg
nachten
##aj
##raat
##rice
##tro
##laten
##erent
##cho
##oniem
vermen
##gener
stuif
##schaft
##steking
bijl
##advis
legde
spaar
##mens
##berichten
najaar
Stu
beschrijven
##pping
benicar
prikk
vintage
##bool
staande
verlopen
creatie
eleg
gevolge
commiss
verwijst
beeldkwaliteit
##attingen
Cloud
bruik
laagste
breedte
goedkoper
vergroot
##putatie
##kleding
sponsor
vingers
rangschikking
raadplegen
erfenis
360
:)
Bes
But
Call
Cub
Es
Jose
Lab
OM
Werken
dachten
für
nas
sou
tachtig
wan
##ious
##obe
##SS
##SH
##zy
##zeer
##Be
degene
##eekt
voorop
##ika
uitdagen
uitgaven
##agon
overleed
##antal
lev
schol
##iaste
betw
##ello
##elletje
sloot
tegenstanders
drink
##lose
vertrag
##rive
geschikte
ontwikkelt
under
bovenste
verwonder
##gemak
##oefen
eeuwse
families
verwijzen
aandelen
bioscoop
##belang
stemm
lokaal
monument
geserveerd
Scient
ondernemingen
tablets
Vrijdag
##vrijheid
Internationale
receptie
beslissingen
Social
Mobile
##veiliging
Vorige
vliegveld
trachten
Griekenland
Bloom
Tegelijk
symptomen
Mohammed
Dol
EP
Fir
Ieder
Jij
Rock
Song
dal
drijven
fat
pijl
tu
##iaans
##cil
##core
##jor
##duur
##vlo
##bos
##LD
##ße
##chron
eenheid
opbouw
##ison
aanleg
sto
##ouver
##ietsen
##tewel
##ogram
omw
omgaan
##adel
##akel
gebakken
onderaan
spl
spijt
ontving
verschrikk
genade
Weet
dergelijk
perspectief
Chr
verwarming
treffen
160
glim
afgestemd
Aanv
quote
##ators
1994
##install
roze
##koper
bloeddruk
vervaardig
##stemmen
democratie
contrast
diepte
variatie
lening
relevant
bossen
effectieve
universum
Geschiedenis
Outlook
Casino
Gezond
wiskunde
##hydr
merkt
Arnhem
chronische
passagiers
again
Rompuy
")
58
Fun
Graag
Maat
Miss
Nor
Sab
Type
doek
eth
jam
kerken
rots
vielen
##ae
##rat
##naar
##ex
##anal
defect
gemen
##reffende
stay
steeg
##idatie
##oped
##spanning
##istieken
Alm
mevrouw
##irurg
bedoel
##ffe
##groe
##reng
gezorgd
behoe
event
Verschillen
fotograaf
ontwikkelaars
deelname
ruimt
verwante
toename
Markt
Leuk
Lekker
##oots
##problemen
boekje
##ailand
Amsterdamse
note
vergelijkbare
loopafstand
passende
Canade
documentaire
##aldo
stijgen
brachten
opvolgende
voorbereid
verkeers
grafische
dunne
vruchtbaarheid
aanmelden
wisselen
gelooft
exemplaar
gezamenlijke
religieuze
verbeterde
Vorig
chemische
therapie
fundament
besturingssysteem
attracties
voornaamste
nakomelingen
bestemd
LinkedIn
Dieren
Iran
Morgen
Pen
Pak
Young
bis
ev
educ
here
historie
its
lay
late
pet
traag
vres
##roef
##namen
##cap
##media
##ki
##tw
##ois
##TE
##orf
##stij
##strijd
##stroom
eenmalig
##igratie
opvang
opbouwen
beaut
veronder
##rog
stuurt
uitzending
##opslag
##aging
lege
prop
ontwer
##slid
Aller
Algemeen
daartoe
termen
##ugo
##ffic
##merkelijk
Stat
interface
vertrokken
Vanwege
chip
aangem
##ureaus
gehand
getekend
gestopt
neutr
##appy
duurde
##uinen
##leef
intellect
##bedden
##ografische
mobiliteit
automatische
kapo
Flash
Canon
##iplayer
richtlijnen
routes
dwars
klassiek
Vrije
Karel
enthousias
enthousiaste
toneel
vijftien
duurzaamheid
accepteren
##hebben
Account
bediening
Pieter
ingevuld
ticket
opvallend
fitness
voordelig
cruc
opbrengst
Bert
Cit
Dom
Kat
London
Master
Week
Wees
Zondag
count
hinder
koek
lui
label
tap
treedt
voeg
wél
##pon
##raaid
##nod
##nav
##ket
##hor
##itz
verpl
##gename
aluminium
##ted
omvatten
worst
##ulair
zoog
##terrein
##ondsen
##beweging
place
context
meegenomen
weergeven
##anners
##gevend
##iool
##oofde
thin
##nemingen
##megen
Anne
traject
vergadering
gerelateerde
bovenop
buitengew
specificaties
filter
veranderde
zoekmachine
uitgegeven
afgewerkt
gepland
##aterialen
beleids
into
1997
motoren
##plezier
##keuring
inspanning
sterkte
Anton
kijker
betrokkenheid
factuur
Koninklijke
display
durf
draadloos
Turkse
lancering
Middel
Diensten
Alexander
Slechts
Organis
respectievelijk
bevestigen
stuifmeel
Bull
HBO
Isl
Lief
Mooi
NU
Sar
agen
call
dol
dash
gan
iOS
jas
kou
mes
og
pa
pillen
rak
zond
##su
##sin
##markten
##ht
##bat
##bul
##98
##elux
##stijden
##atiën
##aarzen
opdat
vervo
onmis
##eerders
aanwijzingen
##urk
##ogh
##okje
##hed
##iki
bijgewerkt
##uls
alsmede
gebl
schiet
schijnen
ontv
##uma
klus
kleren
gevor
meegemaakt
##dation
##afdeling
goedgekeur
tijdstip
gedreven
verkoopt
gelov
gelanceerd
##oster
Voordat
these
##oepass
##ampagne
natuurkundigen
vormingen
aangehouden
187
flat
##thing
mails
specialisten
leukste
schep
law
garant
economisch
presenteert
##woningen
nauwkeurig
opdrachtgever
Openbaar
toeristische
##besp
Juliana
##wagens
Michel
instrumenten
Henk
terugkerende
levensecht
veertig
poë
expertise
hersenen
toevallig
##auffeur
66
Haw
Laur
Light
Mr
Nic
Oper
Sing
Tit
day
goo
letten
much
pay
tulk
weef
##mes
##llen
##fum
##festival
##uten
##usten
##HEID
##II
##enk
##ijker
##eerder
aannemen
##ogie
uitmaken
##ctron
##iene
doorlopen
zest
##speel
allebei
##accept
nieuwbouw
werkplek
Stra
slotte
percentage
geliefde
verbruik
##ardin
samenstelling
vertrok
##rekte
verhuizing
huishoud
huisdieren
kenmerk
trappen
verlangen
bovenaan
##ibr
verdriet
apotheek
Hoeveel
##azing
leverancier
bekendste
eindigt
treft
doelstelling
uitgek
onbepaalde
##instru
##halte
##alistisch
verzekeringen
kapot
ambassade
stammen
comfortabele
White
versterkt
industriële
##ressieve
beoordeling
Feyenoord
reserveren
verlenen
advertentie
##wards
investering
advocaten
religie
##bereik
toenemende
module
Korea
Nijmegen
scenario
Lodewijk
Ce
Fal
Kru
Leeuw
Life
MA
Poker
TU
Tip
gooien
noemde
pannen
xen
##iod
##nu
##museum
##keten
##ballen
##ëven
##KR
##55
deelt
##chem
inzien
geschapen
##dens
beë
beken
behoudt
voorziet
##iling
aangelegd
hecht
##enter
overtre
##adol
##icap
##vestig
##artsen
##elligen
##wijst
##bladen
##edo
##voort
boete
##ationele
##werkingen
plaatjes
verbrand
track
ontwikkelings
Prod
bereiden
gewoonten
zoekopdracht
script
amper
##pha
maandelijkse
liefhebbers
gepaard
conserv
##aafd
ongeëven
kruiden
academ
toonaan
steunen
##agnes
##tekeningen
Sports
CDA
PSV
schilderijen
files
meubels
navigatie
fotograferen
hanteren
##duizend
##strologie
gecreëerd
('
900
BR
Breda
CR
Cult
Disc
Gouden
NI
Nad
Patr
PVV
RA
Rel
Ross
She
Voet
Win
amer
cann
flu
frag
hals
haken
lood
need
piano
she
tol
tank
taart
zonden
##page
##cd
##wood
##hard
##bie
##LA
##erver
##star
engel
enzo
##itair
##arigen
oprichting
verdu
##iligen
meters
##ota
##ikers
uitverk
##opvang
heilig
##aanbod
waarover
gebleken
##spelen
waterv
##ereen
veelzijd
gewassen
nadenken
kleed
gezeten
##volen
##gebonden
orden
##boel
##anisme
componenten
key
verlagen
##ganger
##klim
kwaliteiten
behandelingen
##raktijk
Appartement
supermarkt
noodzaak
seconde
peper
##uldigd
balkon
ijzer
Vandaar
signaal
gebeurtenis
keurig
leraar
ventil
##persoons
##____
aardappel
##ziekten
belastingen
geselecteerd
aanbieders
stierf
gokkasten
feedback
ligchaam
zoogdieren
Bond
Glo
Ju
Mong
Pre
Time
WP
Wacht
XP
Your
agent
buren
feel
hip
iT
kampen
li
musea
pomp
sedert
trokken
trip
trends
une
##pels
##trekken
##faciliteiten
##obs
##22
##!!
##erden
##atine
##aturen
beden
verwel
ond
##eers
##iloft
aanhang
wort
##oploss
wed
gebed
onderd
##behandeling
##umm
##iche
plaf
conform
come
Energie
Station
##schaps
begrepen
##usters
droeg
snijden
##activiteit
##owies
Chi
Christen
##arium
aangewezen
Marokk
##armkanker
##quare
beslis
zoekresultaten
creatief
140
1992
stempel
garage
gevoelig
iPod
toevoeging
Ontwikk
Britt
##maatschappijen
bevestiging
surfen
vliegtuigen
vacature
flexibel
refle
mentale
malware
##oundation
mannelijke
##begrip
gunstige
AV
Download
Gisteren
Ierse
Joodse
Lis
Sand
Typ
Zal
clubs
evolutie
mut
maalt
pion
reed
smaken
écht
##ekende
##gor
##loon
##OU
##erten
##eterm
##elier
deken
##orter
##inie
##deringen
verlo
stick
##iking
##opper
hek
reist
##advies
schrik
##ugde
beland
##inkel
19e
moeders
handelingen
Anal
Angel
achteruit
vergoed
chlor
vakb
##constru
misbruik
verdachte
beweren
knoppen
aanvankelijk
aanvulling
scoren
kleinste
maandab
United
relax
command
commando
kortingen
zoowel
infl
Niets
Benelux
vijver
badkamers
secund
verrichten
opera
gevecht
historisch
produceert
retour
verscheidenheid
Moder
Vroe
referend
stabiel
fractie
##verbinding
Nederlanden
Gedurende
uitgangspunt
geruchten
getrouwd
enthousiasme
##owieso
EC
Fi
Fed
Ham
Nap
RW
Ul
ade
bakken
laa
piz
##richten
##vin
##banden
##zings
##DER
##45
##anistan
##aterdag
incl
##oordeeld
geass
##deur
beantwoord
vooraan
onaan
Def
uitgaan
##imens
spot
##umer
##arth
greep
meesten
gebruikmaken
##greep
eigenschap
gedwongen
than
##centra
##chniek
geroepen
milie
Marco
leverde
Thailand
gerealiseerd
centimeter
duurder
Overigens
geslagen
##attle
kindje
drukte
aanwezige
stemt
##uilding
Prima
Content
##ificeren
Mede
generaties
logisch
oorlogs
obje
varkens
stijgt
##design
Autom
Bedrijf
corresp
debuut
particip
absolute
sauna
synth
ontmoeting
could
aangevuld
exploit
frisse
flipbooks
Obama
ingelogd
verrassing
Friesland
Mexico
motivatie
verzendkosten
American
##chronis
Gold
Syn
Taal
Test
Yor
bidden
hack
ju
keel
kip
keert
nice
tum
thou
tweet
##ky
##jaren
##zine
##VB
##ieker
##sturen
##ative
intu
geel
##alings
opstand
veront
##okt
##zeg
uitgave
##usie
##entje
##ruiken
bijen
zeiden
##imes
##spart
##itecten
bestude
gewricht
snij
plaatse
##oegang
rubr
uurs
stadje
groeide
nek
gemeenschappelijk
series
upgra
att
zoodat
##systemen
scheiding
tekens
tekening
community
bestuurs
onverm
feestje
geestelijke
Wordt
ingrijpen
Server
configur
apartment
aanschaf
verpakking
Burger
uitdrukkelijk
taxi
beïnvloed
##bronnen
Normaal
reparatie
##onomie
intensieve
promotie
Services
##hoewel
grappig
beginsel
uitnodiging
iTunes
51
67
79
97
Award
Hugo
Immers
Len
Mi
Mount
NAT
Pu
Tem
bou
boten
coll
did
jarig
leeuw
mart
nol
vaart
##iaan
##pu
##pak
##delijke
##uum
##haling
##banen
##35
##PE
##EE
##TER
##ieerde
voorkant
##ami
schoot
ontl
machines
##indelijke
plug
##odart
conferentie
##orts
daaruit
##ellers
##afé
##ugel
Stop
vrees
tegenwoord
begraven
arriv
tijdig
gedrukt
gelaten
thans
Beat
Speel
verloopt
bestemmingen
party
indeling
##esearch
televis
vlot
tref
##ighter
##oefenen
avodart
afgezet
kantoren
speelden
intussen
1996
ontdekte
leuker
beperking
hoogtepunt
sportieve
chec
chef
dorpje
potentiële
ziekenhuizen
definitie
tarwe
typisch
smartphones
##planting
parkeerplaats
ISO
Simon
aangetoond
flexibiliteit
Madrid
verrassend
Saint
detect
Azië
Ballorig
diagnose
toradol
ultieme
gekruist
moeijelijk
rendement
beëind
')
78
;)
Bag
Baby
Cur
Creat
EEN
Ges
IM
KPN
Li
Liss
MS
TR
Tab
Veg
Zaterdag
boeddh
criteria
eis
hit
herk
hert
koos
mama
vi
##mas
##mir
##jan
##hen
##27
##yth
##DEN
##ati
inloggen
gear
opgeven
verslagen
verplaatsen
##omo
##reffen
##olo
still
##aman
omgek
omschreven
reputatie
doorgeven
naartoe
afgeleid
##kest
##ormen
##vey
groente
##oonde
Alpen
##aces
##ocort
bestellingen
gezag
Maarten
dagje
##alling
vormgeving
kenn
##gestin
uurtje
medium
knoop
aanbren
mededing
Amerikanen
gelijkheid
ingediend
Blijf
##books
vriendschap
concerten
##sprekende
adviezen
Conc
lidmaat
waardevolle
generatiën
rooms
blogs
##kwamen
passend
##breuk
begeleid
verdwijnt
April
Bedankt
buff
Gerrit
##regeling
morgens
##verhaal
veertien
verbeteringen
talenten
optimaliseren
Justitie
##apparaat
aanpassingen
implementatie
zeventig
IBM
spiritu
constructie
decennia
Afghanistan
aygestin
afwezig
--
Ah
Boer
DEN
Fab
Kal
Research
Ved
Zan
binden
ce
dod
lak
pick
poeder
##med
##melden
##kool
##lon
##oqu
##vade
##woning
##zam
##23
##CC
##ème
##ero
vand
inb
opstellen
isolatie
##kennis
##verblijf
strij
##venster
heuvel
rein
##icult
proc
moer
##beurt
meiden
daarentegen
##ffect
geweten
State
arrange
##formeerd
##formance
behuizing
Erik
mooier
verhuur
auton
##chtends
hersteld
reserv
##aliteiten
activeren
accu
Amb
scan
Wilders
amox
kopje
roll
##ategie
mensheid
##ificeerd
graan
verstuurd
diam
brandweer
veroordeeld
Gebruiker
multination
vestigingen
strategische
##kaartje
verliest
symbool
gewijzigde
maker
tarief
fysiek
zonnepanelen
Electro
##resultaat
##patiënten
liedjes
gestegen
dealer
selecteren
Dienst
hielden
recreatie
##magazines
bagage
subsidie
uitspraken
titels
##inalinks
html
button
##sproducten
Verschillende
maaltijden
geassoc
intuï
nolvade
Lissab
amoxil
nolvadex
D66
Gran
Gasten
Hum
Hoi
Iemand
Kong
Last
NAS
Tre
facebook
gord
lad
pk
ré
typen
zel
##ials
##pris
##roe
##mmer
##kranten
##loopt
##don
##dier
##dad
##doc
##doeken
##vaar
##IER
##BR
##streken
##atic
##desk
verwerking
##rose
voormalig
streep
##amingen
##aatsen
##opte
overname
##icle
procedures
volst
##slim
##elly
klopt
##mage
vroegen
expos
##digheid
##gebleven
prie
levendige
then
##koming
verhuizen
bevonden
tennis
aangepaste
gekl
verloor
bovengenoemde
onderzoeker
##houdende
##ossing
##manager
opgemerkt
klantenservice
afgesproken
patronen
##isco
nieuwsgier
##rypt
fietst
Class
menselijk
Conne
achtt
uiteindelijke
Johannes
##gebruikers
##IEUW
##cycl
volgorde
body
truc
schriftelijke
afzonderlijk
explos
kernen
represent
muzikale
geselecteerde
hopelijk
onvruchtbaarheid
paginalinks
Syrië
afgerond
erover
oprichter
Joseph
62
Ama
Cou
Fot
Gab
Hele
Kap
Moet
Nok
Ott
Ram
Rover
Select
Toon
Vin
bom
dossier
feder
grijs
lcd
touw
veg
villa
zwe
zone
##los
##field
##dse
##dorp
##bers
##bran
##TA
def
##itis
##onora
verded
##rob
##chters
##olin
##older
staal
##outs
##tev
diegenen
##scholen
##hedr
report
revolutie
zocht
platt
Altijd
zelfstand
##ivik
goedkeuring
##rachten
werkwijze
doelt
gaande
verbouw
geschied
bevindingen
##netwerk
##ksel
Lever
Leven
medisch
##ursus
eeuwige
ingeschreven
130
##iance
##bedrag
##screen
##vormige
schilderij
presentaties
##optim
algemeene
##STA
##STER
ontvanger
hoeveelheden
Gelder
entocort
frame
begrijpt
Romeinen
stijging
factor
herinneringen
armoede
Moz
shoppen
##apeut
after
Kennis
oefening
Gewoon
lichamelijke
sigar
ePapers
Aarde
Bing
Bud
Dark
Gil
Mas
Mooie
WK
cam
case
frustr
gam
kart
lobby
soft
wijken
….
##iven
##ries
##kring
##loc
##lach
##uige
##hart
##breken
##borden
##PC
##zit
##HE
##CD
##qui
##erry
##oratorium
inbegrip
bedekt
##rey
aankopen
##asp
oma
uitster
##eleg
spro
spont
afgest
afmetingen
##ved
onthouden
voldaan
convers
##weken
##eck
many
mannetje
arginine
bezuinig
Nederlandstalige
benadering
##essies
##idend
##owbo
##boer
##bodem
vermoord
Hierin
pleeg
neiging
mailen
gereden
basisschool
##icket
Brun
Advies
bruin
bruiloft
woonde
middeleeuwse
ongew
overeenkomsten
zulks
verzekerings
Orde
1984
onverget
##uleert
##verleners
klimaatverandering
##zorging
documentatie
multiplayer
paniek
adviseur
continue
soldaat
Update
vertrouwde
aangifte
beïnvloeden
Georges
##EIDING
Info
horloge
woestijn
kortingscode
hectare
##secretaris
Lissabon
69
77
Cost
Ferd
Geld
Herm
Juni
Ko
Llo
Oceaan
Pool
Wir
Work
bit
brak
corpor
dar
hat
held
life
mid
ox
pau
pict
view
voegt
wi
##ios
##jet
##ll
##lijsten
##wa
##witten
##boog
##OD
##üh
##ani
##itjes
verze
vergez
stre
stort
##ido
dieper
##zeggen
uitm
##icks
##antisch
moslims
##spot
##beste
##beveiliging
gran
##weeg
meng
Strip
drama
bescheiden
##asser
Verkoper
Voorbeeld
Daarin
##beelding
Anna
##rukte
landelijk
wegge
Reactie
186
pred
beroemd
bekendgemaakt
Then
##ubile
##schede
collecties
stapel
gave
winkelen
##ANG
##ahoo
studeerde
Mech
##gerichte
discrimin
1985
Geluid
myth
##ATIS
installaties
makers
arbeidsmarkt
duif
##glish
beoordelingen
verfijn
betaalbare
nagel
Sociale
Buitenlandse
Zwitserse
koolhydr
bladerende
##........
gereedschap
administratie
##ziekte
zwangerschap
Direct
weigeren
##magazine
negentig
gezondheidszorg
christenen
authentieke
Privacy
gedetailleerde
Mosk
eBooks
militairen
verzenden
bijkomende
ultra
GRATIS
Venetië
xenical
lidmaatschap
Nokia
)||
72
98
Augustus
Bob
Book
Back
Cle
CEO
ER
Fel
Food
Geert
Hi
Hu
Jord
NIEUW
Ox
OK
Ult
Volle
eg
eieren
hé
mark
pig
rat
right
razen
trib
##cor
##kaar
##delijk
##oire
##vorens
##well
##NV
##FC
##ycl
##erzijds
##inders
##itut
geaccept
##rof
##omeen
##reens
##under
##rager
##schop
uitkomen
uitgere
gebroken
onderhouds
sprong
##blok
##ffing
##iva
##graad
##groei
tweemaal
##voorstel
gedood
verbindingen
Beh
Bestel
sleep
regisseur
verlicht
##conc
##thans
eindigde
voortgebragt
Waarschijnlijk
visuele
trop
##ieleden
trainen
kruid
loopbaan
peil
stilte
technologieën
Ooster
traditioneel
##orrel
Products
##bollen
vertegenwoordigd
Airport
stabiliteit
aanschaffen
Verdrag
voltooid
Oorlog
vleugels
EE20
semin
Raymond
Tsje
langdurige
dialoog
horizont
Pierre
christelijke
gewaardeerd
Electrolux
Bu
Boe
Bul
Bio
Bureau
Domin
HOO
Kro
Lok
Los
Lage
Links
Nik
NRC
Pent
Prijzen
RE
Ub
aud
bijn
bug
cul
cast
dress
kraan
kalender
pir
pax
tin
tabel
zilveren
##cijfers
##ms
##uard
##vie
##via
##har
##hot
##EER
##44
##51
dezen
##ords
##aauw
##stoornis
invloeden
##dende
##isende
##olden
diesel
uitk
uitzien
world
##icten
zogeh
scheep
##spiegel
##bewerkers
##achter
##arta
##irl
tijds
##volging
benutten
Vergeet
voerde
binnenstad
rusten
##ontje
##lude
diende
##ances
##ooter
##plaatste
verdacht
France
leverbaar
scè
##ituatie
grondig
##oetsen
ups
shirt
bibli
publiceerde
##athon
Prim
Const
schilderen
##ussentijd
##etails
Flor
portret
erfelijke
dwingen
Profession
verscheidenheden
nuttige
genezen
universiteiten
tijdperken
##folders
Charles
meubel
onderlinge
oefeningen
Security
dynamische
##verlichting
primaire
##zinnige
Standaard
lukte
vervanging
tafels
Republiek
##papier
clean
fascinerende
voorbehouden
goedgekeurd
plafond
platteland
paxil
Cup
Dar
Das
Eten
Free
GS
How
IV
Kaart
NA
North
TE
Tar
Waal
Wash
cil
diversiteit
food
haat
mol
naald
sowieso
velden
vinger
wijd
über
##pa
##rond
##luk
##voud
##82
##etin
##ela
##elpen
eenigen
##arist
beca
alarm
##asa
##icles
zeilen
ontpl
##ionaal
##oda
converteren
toeval
##aco
sloeg
manifest
tegenstander
gezins
benader
verbazing
##voert
##rian
sectie
bevel
chirurg
gekn
Hierna
verzorgt
##ritor
gestelde
gestolen
gerekend
Allemaal
Express
recensies
middelbare
verklaarde
##ainb
ski
beheerder
adressen
Bergen
afdelingen
slaapkamers
jury
zevende
multi
lettert
behulpzaam
toegevoegde
botten
##gezond
Afrikaanse
particuliere
Breivik
nagels
Merc
olijf
vernietigd
hoofdt
montage
aandoening
benadrukt
harmonie
Controleer
Funda
ongeëvenaarde
zogeheten
because
("
-)
61
76
700
By
Blog
Drag
Dirk
Jans
Moeder
Public
Rut
Ros
SEO
dog
era
eiken
equ
fort
han
haren
keten
laarzen
mill
poker
saus
way
zijk
##ns
##cing
##lag
##lia
##lets
##oerde
##varen
##NL
##Script
##etooth
##chet
##itatie
invoeren
ingebouwde
##aler
##arken
verzending
##rome
##gesprek
##ils
##ili
aansprekende
stal
staf
##raw
really
overvloed
overwegen
##seizoen
##akes
##anta
##bezoek
##begele
##ump
##abella
compens
##oca
bestrijden
Studio
sloten
##nede
arme
drive
##annings
##elta
##identen
helden
slechter
##ova
getallen
aanvang
Amstel
##matische
Hein
score
smalle
lichten
Belgisch
Amerikaans
startte
lopende
rijtje
verbetert
ongewen
##itters
roer
##kopp
populatie
tuinen
ambtenaren
experimenten
##vertrouwen
Zwarte
##estivals
varianten
Apart
Control
implic
massage
erfgoed
bevolkings
zender
inzichten
Bedrijven
herinnering
sales
Person
disk
particulieren
##zwem
Jacob
journalisten
aangetroffen
conditie
geleidelijk
Glas
Prinses
##ANDER
##zinnig
lukken
Motor
belofte
vissers
verwezenlijk
##TML
Almere
##capaciteit
dashboard
Vroeger
referendum
Ferdin
Bat
Bang
Bow
Cam
Circ
Donderdag
EK
Holl
Khan
Lü
Lam
Merk
SM
SGP
Viet
Wolf
aqu
auf
biz
bons
ci
cab
ham
trouwen
ut
uzelf
##ait
##po
##come
##the
##laan
##fase
##fiets
##85
##32
##éd
##HD
##straf
##itiek
inle
behoud
##gedeel
##ilar
aaneen
##verkoop
##opie
ertoe
oftewel
##rug
##agram
realis
##ulering
prog
schema
spraak
most
##sprijs
##bewoners
##uting
plak
Alf
betalingen
klap
kluis
##mensen
gemakkelijke
English
##ival
nucle
Steeds
expositie
bocht
dram
orth
##aadjes
Ander
terugbet
producent
huishouden
trailer
compacte
organ
Mars
Prov
stadium
broe
##raagde
neuro
##appel
avail
modus
duo
scheids
scheps
voetball
hartelijk
rijbewijs
abonn
##schrijft
verklaringen
wennen
André
Phone
dankbaar
aanpakken
overzichtelijk
##vallend
opleidings
method
match
persoonlijkheid
##speler
gedeelten
##jablonen
##centrale
Politie
accommodaties
volgden
kritisch
rennen
##itchen
solid
aanbevolen
westerse
geplande
hielp
bijeenkomsten
##isky
inrigting
opzigte
Maurits
geïntegreerd
fenomeen
Leuven
spectaculaire
Zweedse
godsdienst
tulku
chloroqu
Washington
Ferdinand
chloroquine
3e
87
AT
Cat
East
HTML
Juist
Mogelijk
Os
Osc
Sin
Wave
daag
hof
langen
ov
sessie
turn
waa
##snelheid
##ipen
##kelijks
##tar
##df
##ualiteit
##voc
##hoop
##hagen
##how
##beek
##Ad
##AB
##éér
##DS
##IZ
##49
##46
##ijer
inner
innemen
opget
bekken
vermaken
sted
##outh
##asmus
##ieter
##ogn
omslag
##rapport
##schikt
##uwd
##ktail
##adrin
lezing
##spunten
##beurs
groetjes
meedoen
Eenmaal
theor
##geling
exec
##anka
##anna
Jeff
geluiden
##iforn
vertaal
plaatsing
echtgenoot
sectoren
geschil
bevond
fotos
Space
##ancer
geraken
vermelden
straal
##ERK
##prov
misluk
bril
125
uitgesproken
parfum
Exedo
recensie
where
Shar
twitter
Antwerp
##personen
bespaart
ambul
1980
##brengt
indienen
experts
##zakelijk
##verlener
varia
hypoth
losl
gebruiksvriendelijke
stromen
premie
##restaties
Jacks
aanraking
bladerbare
##ized
celadrin
emotionele
##verwante
vrolijke
aardappelen
opvallende
diplom
distributie
streng
animatie
analyseren
dosis
different
illustraties
pakketten
before
extreme
Champions
suggesties
vloeistof
Luxem
First
Lloyd
68
92
Ak
Aute
Jammer
Kruis
Pir
Riet
Rass
Tok
].
bars
bacter
cv
civ
hoorden
ml
mas
neur
oer
tri
tussentijd
##car
##gy
##fig
##frag
##borg
##zuren
##BI
##era
##ania
##elbare
##oring
##ieze
##structuur
##oever
beweg
bewijst
ongelijk
##oline
##verre
##unct
strijden
##vende
dief
diezelfde
##schaal
##opter
##ula
onderworpen
led
lezingen
afsluit
blokken
betalings
termin
##platform
##ivity
slap
##rijken
bezet
bezetting
##werkte
verkle
Jeugd
##tijdige
levend
Vergelijk
thro
##meub
plaatsje
herhaald
konijn
18e
getra
vastgoed
##azine
Tekst
##appe
opgepakt
bekw
179
##ordening
cliënten
gedaante
##sproblemen
schepping
##uild
telefoonnummer
kaartjes
##ART
##archief
schoonmaak
##financier
vervelend
onverwacht
dorps
trouwe
horeca
voorbije
matras
toegewezen
##gineer
varië
vestigen
bevestigt
Sky
hostel
symbol
##beschrijving
nadelen
typische
essentiële
vreugde
noordelijke
leefden
Times
kalk
fraude
JavaScript
flyer
##activeerd
vanzelfsprekend
editor
berekenen
verhuisd
Vakantie
begroting
geïntegreerde
##arbeiders
Brazilië
Maandag
##schalige
Restaurant
katholieke
vertraging
Canadese
Islam
geaccepteerd
="
Band
Bou
Cr
Easy
Ly
Lid
Mu
Marketing
NB
Rij
Sus
Tri
Vrouwen
Yahoo
Zon
din
ich
little
ochtends
paleis
uplo
##cr
##carn
##mos
##tse
##hond
##RU
##iest
##stations
##atib
inschrijven
##igr
##oeie
##aro
aanger
aanslagen
##unde
staking
##schat
##ikes
##ikke
##elementen
##uldige
schaffen
Inleiding
##ondanks
##bec
##vec
##wed
bestuderen
##afe
Enschede
exacte
sla
##ationeel
gedro
gedicht
behaald
orgel
##issies
##ills
Regel
verlang
konijnen
streeft
jarenlange
verzoeken
vraagstukken
110
opgehaald
uitgewerkt
amateur
koppel
Vlak
quest
biologisch
##cteurs
scheiden
troon
haha
plekje
archieven
klimmen
##ruimen
##woordigers
toonde
##IJN
ernaar
##partijen
continent
Karl
invulling
Dagblad
Computer
##ontrole
wettelijk
overstappen
Telegraaf
indrukwekkend
tiental
aangeeft
##vergadering
Geweld
vleugel
verschijning
aanpassing
boeiende
intensief
Familie
Hallberg
BMW
tertiaire
RTL
vervaardigd
wortels
aanbrengen
##prise
##ubileum
2x
DB
Dijk
Ep
EX
Fu
GB
Hert
Komt
Line
Maps
Mouse
Perm
Ra
Rog
Russen
Vrouw
Vista
city
feesten
kids
kippen
kroon
lijsten
nale
pu
pogingen
wiens
##sle
##gings
##doek
##oers
##uun
##vuur
##vir
##vogel
##handen
##breed
##LU
deeltjes
##inck
##stond
entertainment
gestaan
##igings
opkomst
verwer
verhoudingen
##genoeg
aankomen
aanslag
aangename
##verwege
zijnde
##rack
##iert
##send
##icaal
onderkant
onderteken
##keuze
graaf
##oday
beton
gevaren
eerlijke
gemeld
##gevol
dode
snap
##actoren
##udiment
heelal
search
bevr
opende
185
deskundig
##project
luist
##thers
##bruikt
##gelezen
##gelegde
Volgende
##etto
##matisch
gered
mededeling
Afhankelijk
drukwerk
kunststof
Show
##ielever
allereerst
notaris
gecertific
kameraden
monumenten
Stef
##leiders
serieuze
aardbe
ambacht
officier
gerichte
wederpartij
individueel
subst
stijlen
Koninklijk
Result
gevaarlijke
noodzakelijke
Milieu
Eleonora
elektronica
wissel
opstarten
nabijheid
Oostenrijkse
wolken
cross
cyber
auteursrecht
vertoont
##allery
vatbaar
Marianne
protocol
kwalitatief
plaatsvindt
aankondiging
stemming
zestien
verdedigen
schepselen
%)
86
BP
Bak
Cru
Hil
Hulp
Now
Nick
Pink
Punt
Sub
Tax
View
Wagen
Zand
aus
daling
eig
gut
ho
lust
oogen
put
rent
ruw
retail
went
##iform
##pop
##rint
##camera
##map
##moed
##gsten
##games
##links
##dingen
##voudige
##warm
##hn
##haal
##banken
##Off
##??
##ZIG
##ether
##eline
invoering
geken
##denking
##ijke
alvorens
aandu
##olis
##ouwer
uitkomt
##ruikt
##iends
reïn
legend
schapen
afsch
waterk
##utter
plakken
groet
mekaar
##elli
elfen
genomin
bezoekt
##ronken
gelatine
pré
##iful
handtekening
Chris
##rekking
koste
mijl
chat
charm
verliefd
magische
Leon
Leid
desbet
##undige
##cons
berekend
medaille
##izz
technologische
##vangelie
##brieven
Groene
speelgoed
verwijzing
behandel
Adres
geïntro
woonplaats
levensduur
Steen
planken
gesneden
tram
zesde
Succes
aantrekken
begeleider
campagnes
provider
contracten
radi
potten
potentieel
verenigingen
portfolio
definitieve
vereiste
psychi
Chinees
phys
##zendingen
##ytics
ademhaling
follow
draadloze
verkiezing
##rusting
Geschikt
gemeentelijke
hersen
strenge
horloges
certificaat
gekleurd
zenuwstelsel
gerenov
bewonderen
Gelegen
glob
irrit
##fronteerd
##wendige
Scientology
##vloer
glimlach
Brittann
volstrekt
Rassy
##Office
desbetreffende
-/
83
Aantal
Di
FS
Fijn
Krij
Koen
Mur
Mem
Mir
Magn
Naam
PL
Vac
Vijf
Wee
WTC
ak
cijfer
close
eine
fix
goden
harten
kuip
lip
pij
poss
pitt
palm
poorten
ruit
ritu
shou
saai
zijden
zons
##ng
##kok
##kust
##doel
##vi
##varing
##ïs
##zal
##zeren
##ypt
##48
##etr
##stu
intent
##onische
gegroeid
opmerking
opgeleverd
##levering
##unge
##tek
omschrijving
uitgelegd
##ope
##erson
overdag
onderb
##sporen
afgenomen
afwerking
##umb
##ipe
kloppen
Enter
werkten
werkelijke
express
eigenaren
boel
##reeuw
moeslims
verbindt
Verander
Maart
##oepel
Chic
helm
Recht
vermeer
stadion
waterstof
indire
vasthouden
##klaar
##klas
breng
next
standpunt
anderzijds
cliënt
grondstoffen
Nepal
topic
##atta
tranen
Parad
##athan
garn
gevoelige
professional
Italiaans
bestuurders
nationaliteit
##betes
Hebben
lijstje
##rollen
Help
antwoordde
hyg
Heerlijk
facilit
##grote
When
##bestanden
Kortrijk
voorbereiden
##ASS
VERANDER
renovatie
Vriend
Architect
Central
avonturen
goedkoopste
Sound
schitterend
uitdrukking
sugger
Californ
used
zwakke
modules
charme
efficiënte
onderhandelingen
gekleurde
illegale
Schotland
ontsnappen
Brugge
langzamerhand
ellende
toonaangevende
pizza
onvermijd
intuït
Vietnam
##gedeelte
Jackson
Luxemburg
.-
63
94
Bahn
BKR
Ca
Dou
Drop
Fred
Jaap
Joy
MP
Minder
NT
Pad
Psych
Son
SOOR
Toy
UW
Zomer
fo
fut
lading
mr
munt
nous
octro
rid
wier
##ju
##tocht
##day
##woud
##bureaus
##99
##PEN
##EX
##HC
enqu
##onte
geze
##album
oprecht
oppositie
beoordeeld
verte
verplaatst
##omstandigheden
##verf
sten
steekt
uitgeven
##icum
##ichter
Alpha
##iaz
##ipel
##elland
klaag
##abeth
gevierd
##irts
##ply
##peratuur
Energ
onszelf
elle
##grens
belooft
Staats
eigene
beginn
perc
Onlangs
##akkoord
##allenge
##illing
chauffeur
Rey
Review
##ateurs
##procedure
##vlakken
indicatie
rechtvaardig
There
profielen
blijvend
sms
gloed
gelijktijdig
##uisteren
Uitgever
ongeval
shows
scheppen
##redacteur
##half
overeengekomen
architecten
genereren
roy
draai
##STE
Communicatie
##meting
beschermt
breiden
seizoenen
schadevergoeding
##dringen
meldde
methoden
##loosheid
twijfelen
romantische
rivieren
love
twintigste
nodigen
Bibliotheek
commercieel
##stromen
middags
populairste
vernieuwde
geconfronteerd
ADHD
liedje
voorspellen
IJsland
Avonds
administratieve
bewerktuiging
brochures
islamitische
##liefhebbers
zeldzaam
tomaten
beweegt
observ
Mulisch
between
poëzie
Patrick
secundaire
Selecteer
Brittannië
350
Bere
BES
CT
Dro
Ever
Im
Lieve
MC
Nan
Publ
Sander
Sommigen
UN
Zonne
bakker
dir
felle
juw
jubileum
koe
keerde
leerde
mieren
nul
por
poot
wijnen
zood
##rr
##rich
##materialen
##telefoon
##gets
##doms
##het
##CO
##KB
##anon
##anke
##elo
develop
##ieert
##atz
##atiet
##item
inval
inschrij
geoptim
geactiveerd
##dend
##ality
opa
opeen
opgest
bede
bekl
voorouders
##ilanden
aankomt
stations
##iety
##rage
uitslag
erkende
##agra
##rijp
##ular
##icker
zeil
zoete
schouders
spraken
afnemen
##bevol
##oedel
mest
blind
##wijzer
managers
manuals
boet
period
gedichten
##iddag
##asso
verbod
Erf
Verk
Data
snelste
ruzie
##aude
bevoegde
ontwikkelaar
Georg
Gezien
verlaat
##class
Arm
deskundige
##mmel
vakken
vakant
problem
Fransen
oorde
##geleide
stuks
fung
maatwerk
fors
Klim
##ickets
leerkrachten
17e
patch
##haus
Vlamingen
Isabella
intellig
.''
vakantiehuis
Conf
sindsdien
geloofs
monn
September
drupp
feestdagen
Ontvang
gameplay
##iekenhuis
afspelen
zakelijk
firma
massaal
rapporten
surf
usb
symb
##bestrijding
pakte
georganiseerde
temperaturen
vruchtbaar
Jacques
##ministratie
huwelijks
reserve
##ething
##broch
aanmeld
koppelen
flexibele
confront
uitbreiden
reviews
CVS
blootgesteld
GroenL
##burger
willekeurige
Reisverslag
kwetsbaar
preventie
##collectie
aroma
onzekerheid
Hazes
ketel
levels
Tegelijkertijd
##installatie
rubriek
geassocieerd
Tsjech
Lübe
Ach
Audi
Dor
Goud
IK
Lee
Low
Long
Liter
Market
Palm
SN
Soc
Valen
bast
btw
fem
fashion
give
i7
lama
mn
own
rap
toed
##iels
##earch
##kar
##korr
##geeft
##lid
##lies
##wser
##zu
##Guard
##VC
##aapt
##inus
ingen
inlicht
bee
beoog
verslaan
voorsprong
onzer
##ometers
##kenning
##gespre
##gehalte
stalen
store
##amme
##steken
reus
overnemen
##ktie
zogenoemde
prooi
schot
schok
schimm
schatting
Indu
spam
##bestaan
##artier
##weef
toegenomen
klinken
besturen
geene
gemat
gemot
##groeien
##openhagen
hoes
##rente
gezichten
benzine
behaalde
##ronk
Voorzitter
samenwerk
houts
advert
autover
Leo
flash
partitie
##ENT
##ookt
##ragers
##arted
uitgeschakeld
videoc
1991
webhost
bruid
vaderschap
Denem
zeep
##archild
bouwt
1989
functioneel
oplevert
overtuiging
5000
favoriet
interactief
beveiligd
vluchtelingen
signific
vrijwillig
district
zuinig
phot
kritische
leiderschap
emoties
rotsen
ventolin
Hyves
optimalisatie
aandoeningen
##ifestyle
promoten
negentiende
##duizenden
opnames
##steuning
Santa
klinische
December
hormonen
Arabische
Studenten
agenten
weefsel
##tevreden
erachter
diefstal
should
GroenLinks
3000
AF
Aqu
Audio
AOW
Breng
FA
Hann
Island
Januari
KDE
Las
Loop
Leeuwen
Moor
Mic
NM
Ninten
Ok
Pres
Sens
Woord
Zoon
dvd
liber
neef
oceaan
pixels
##paar
##pre
##paal
##vaard
##woude
##zamen
##28
##On
##DR
##cher
##change
##atus
##itale
inkoop
##oordt
##oedt
onbruik
metingen
stoom
##andelen
##agraaf
overgebracht
overnacht
promin
schatt
schijven
Instellingen
mole
##speeld
##oende
##bestemming
ontle
plas
grof
conclus
toegelaten
##plannen
gebruikelijke
beloofd
genre
minimale
Stock
##inkomen
##ingsmogelijkheden
##uiken
intervent
perm
##gebouwen
verbaas
##aged
vertonen
handmatig
heleboel
plaatsgevonden
verhoging
herzien
landschappen
Spaans
change
Theater
Leden
##obiel
Belgen
optische
verdeling
##ache
##inny
eindeloos
smooth
digi
eeuwig
ingeschakeld
Uitgevers
oplopen
liefhebber
familieleden
zooveel
droger
kunstwerken
##roming
betrekken
kraak
##redivisie
combineert
redelijke
##itting
garande
cultureel
wandelingen
populariteit
automatis
##opties
##ELL
vleerm
Scand
1988
1987
1982
##behoef
Manager
pasta
##maatregelen
constat
Heeren
betrouwbaarheid
voorafgaande
##orno
signalen
##issement
##dekking
terreinen
circuit
Oliv
ingerichte
elektronisch
aanraden
stadscentrum
Series
##uvels
Associ
voedingsmiddelen
tabblad
figuren
##vergunning
nederland
##fabrik
beschadigd
Volkskrant
##wedstrijden
verdediging
Hotels
efficiënter
##flyers
##kmaar
interpretatie
years
Kwaliteits
veranderlijkheid
##routes
fiscale
##niettemin
segment
uitdagende
verschrikkelijk
Produits
discriminatie
reïncarn
Denemarken
;-)
?!
Au
CC
DJ
Details
Hit
Lange
Made
NP
OC
Rose
Woensdag
ach
bien
bitter
bless
cat
dijk
gokken
kaars
lof
pin
tim
##pjes
##public
##ced
##lines
##wart
##bell
##bels
##RIJ
##GA
##än
##alte
opberg
##lementen
beest
verste
onbet
##ila
##urch
##unstig
streken
##tenaar
omlaag
##heel
##eldoorn
waargenomen
ondergesch
schuur
schuiven
##wering
meerwaarde
ontzag
##kerij
##ipper
Eenvoudig
bedanken
##iveerd
genen
werkdag
werkplaats
Weg
dozen
##ustom
benoem
beheerd
grootere
samengev
##lieden
handh
ruil
##ermate
probeerden
##aute
research
bevelen
register
Rebol
Wijzig
verworven
strips
toenmalige
Marg
verderop
##atech
##obel
directie
verdelen
gestoken
actueel
rechte
##zaamheden
bezoekje
##itute
gelijknam
Next
gepass
productiviteit
bruine
bruggen
graven
overeenkomstig
gebruikersnaam
elektro
##ieping
Indi
onderscheidt
immuun
reageerde
veranderende
potje
leningen
verplichte
panelen
Ski
pakkende
USA
Academ
principes
Milaan
##resteerd
Parkeren
concurrent
dreigt
human
Wordpress
medicijn
flessen
gespecialiseerde
bemanning
afvalwater
Beschik
vertoonen
recreatieve
BBC
clients
laboratorium
transparantie
megap
hormoon
embryo
Atlantische
Hopelijk
waarborgen
astron
aangemeld
verdubb
Global
vandaar
reinigen
##branche
##hedraal
pauze
geïntroduceerd
Nintendo
':
650
:-)
AAN
Cin
Card
Ec
Eet
Eindelijk
FR
Foundation
Good
Graf
Jud
Kas
Kind
Kees
Mol
Mov
Por
Pra
SS
Sov
Tol
Tec
VLD
auch
bussen
brein
drum
kussen
lib
lippen
mi
ok
paren
pakt
rund
rudiment
sand
tag
tong
vzw
……
##aise
##eigen
##fot
##falt
##fietsen
##vet
##wonden
##horm
##bber
##bach
##baden
##xel
##Tom
##UL
##UUR
##21
##ieft
##stelt
##atra
enc
##itas
##oni
geacht
##lein
##lecht
beker
tegel
verwe
##ross
##iseren
##verklaring
##undig
##ents
##ftal
overb
overblijf
##lens
##icon
naarmate
schuim
afdruk
##besten
waterd
##uts
##osaur
convent
territor
##westen
hieraan
verschaffen
##berge
nagenoeg
performance
Ongev
evenveel
events
##meis
contain
vertel
Anderen
##oflook
##rekers
##aupt
achterhalen
regime
##ector
bovenkant
getuige
elkaars
vloei
aanvaarden
restaur
grondslag
Blument
##IND
kunstwerk
##verenigingen
collectieve
betrekkingen
gebaseerde
paneel
virussen
Haagse
innovaties
##kaartjes
Skype
volwassene
nature
aanzienlijke
gebruiksvoorwaarden
Elekt
##ways
Magazine
durven
Bluetooth
##kampioen
Bestuur
depressie
Digital
Faust
strakke
toelichting
##————
hyperlinks
sneakers
wijsheid
Wellicht
permanente
Vergil
opgeroepen
Hostel
##roefd
intellectuele
kennelijk
multinationals
Connect
##cycloped
Constant
broeik
Antwerpse
inlichtingen
garandeert
Blumenthal
750
Basis
CMS
Fat
Fra
Jazz
Kol
Kosten
Lig
Lamb
MB
Mass
Mens
Mack
Mah
Night
NOS
PM
Pok
Roo
Row
Sir
Tips
VW
Vragen
Wijn
Zul
dam
eu
eij
ets
eman
find
hoo
kosm
prij
paden
parket
point
raar
rib
source
too
vult
zó
zieke
zielen
##ioren
##pje
##meter
##last
##wind
##MO
##UK
##één
##är
##ijver
dekken
ingenomen
##arije
tekende
##isp
##iseerd
ong
##verst
stak
storten
Deense
omgeven
uitschakelen
##ops
wekelijks
##fter
##ienummer
##icip
doorbraak
##oosten
##sed
schatten
schuldig
afgeleverd
##utphen
mais
welvaart
##uiting
##ined
##afels
gebruikelijk
##blazen
##houderij
mindere
slaagde
1950
Onbe
##anny
verkracht
pret
Voort
langste
##waarschijnlijk
Anth
##alla
supp
adel
compact
compatib
verwarm
bepaling
Marina
Arth
##ochtans
vaststellen
##tube
##aza
##azar
##mannen
telecom
bewoond
##ettingen
vlooien
knuff
Wild
linkse
grondgebied
##nieuws
parall
Daniel
paspoort
Advoc
bios
biografie
duik
concur
dichtst
loket
News
friend
demo
##ringd
Zwolle
stille
##awa
##iplines
1944
richtte
1970
variëren
telesc
##atalys
Edward
##eloosheid
Resort
hosting
##gelegenheden
##glas
grafisch
VERS
folder
overstap
verhoogt
interviews
westelijke
bedreiging
prettige
winnaars
herkenbaar
Rena
Hongarije
juridisch
calorie
##apparatuur
everything
November
implementeren
ROB
##sprekers
Passag
Freder
double
overdreven
##levard
vooronderstellen
prioriteit
merendeel
permanent
cocktail
Liefs
gelovigen
uitverkocht
kernenergie
veget
sigaretten
koolhydraten
bibliotheken
%|
)|
82
Bir
Boeken
Battle
Cool
Fonds
Get
Game
Gogh
Hass
Irak
Liefde
Mats
Match
NO
PO
Ped
PAR
Rh
Rick
SSL
Var
Voed
aux
bleken
jagen
laden
muizen
pel
prenten
rommel
tik
vous
##nn
##neem
##cm
##mol
##joy
##lamp
##ws
##winst
##App
##WB
##Cl
##GZ
##ION
##47
##ête
##elten
##ston
enerzijds
##itst
##itions
##inge
##iggo
##arieerd
opgelegd
verrast
##geslagen
##reff
##urne
##oux
Deut
uitgev
##opart
erkennen
##steden
##atieke
##ulerings
##akf
##imab
onderte
Ins
##tering
moge
afk
afvallen
wasmachine
##vezel
##inea
blaas
meneer
##elsels
##berry
haard
kledij
##alsnog
werkgelegenheid
Starchild
explic
manual
##uizingen
geduld
benaderen
geleefd
##loven
handhaven
##erto
huisjes
liggende
hero
computing
keih
verminderd
##quest
##projecten
hoofdzakelijk
##aching
soortgelijke
##scheiden
uitgevers
uitgesloten
voortgezet
glans
Neu
zonlicht
videok
duim
webc
abonnementen
##ografisch
formele
arche
##wording
monte
monsters
##utting
aardige
Origin
kapel
secretaris
##jaarden
Netwerk
fraai
ijstijd
caravan
analoge
tests
Slaap
obst
Tenslotte
toegekend
gevechten
##spelers
What
vloot
personeels
Portuge
Profit
Smith
##straße
kruisingen
duiken
opvoeding
Februari
Martijn
leefde
Simpel
verhoogde
terugkeren
bedreigd
opmerkelijke
Beschrijving
Jonge
erkent
Indonesië
gerenomm
Document
indicatoren
aanbevelingen
kondigde
Premium
batterij
mysterieuze
afwijking
democratische
Ridders
mineralen
KLM
behoeve
vreselijk
Allereerst
buitengewoon
Gabri
Vincent
Oscar
bewegings
uploaden
SOORTEN
,...
?)
Bill
Box
Cell
Down
Fair
FIF
Hoorn
Jesse
Joke
Kh
Kir
Krist
Mach
Namen
Nost
Rood
Silver
Square
TSH
Wa
Wist
Woon
Winter
astrologie
avec
boog
duw
divers
emp
gif
gister
ict
kers
koeien
lint
pack
paste
paus
rank
roos
sich
take
voeden
waan
weld
wets
zalen
##pool
##cks
##kampen
##gal
##lers
##fighter
##daten
##dings
##droom
##oentjes
##hip
##huid
##bakken
##át
##anch
##order
##atier
##itsen
inleiding
inlog
##alog
##alitie
opgemaakt
##roerend
##roductie
onvoor
stitch
##other
##idaz
##tekst
omringd
uitleggen
overn
overdracht
overheer
doorver
waarderen
##aph
lek
schuif
sparen
##lijks
##beur
##umes
##ional
##achting
##iab
betekende
##acom
klagen
klank
gevarieerd
terreur
##menu
eersten
wijf
geenszins
Eens
##iël
##edel
Staf
Opvallend
##werkzaamheden
##ided
groots
prent
levensl
##ify
Daarop
##bosch
##cca
##inair
geschillen
landstreek
##lue
aanged
Schep
##overen
Mary
instituut
1500
hoofdpijn
rondreis
vrouwtjes
knoflook
##ovende
##oefend
##ekening
patent
vorst
etn
##istratie
##ernooien
##ctions
publiceer
##iximab
Welk
troost
kring
##portun
kruipen
culturen
monit
presenteerde
vervuil
Holly
Engelsen
peuter
skiën
Mini
Christian
sfeervolle
##enny
transactie
Heere
ruggen
correcte
browsers
retro
##motor
Dagelijks
overwinnen
types
provincies
Kanker
Company
##elateerd
remmen
gevestigde
Activ
Road
##ilisatie
insecten
##espa
René
##fabriek
beseffen
eiwit
eiwitten
##contact
staatssecretaris
distribut
uitvals
verminderde
efficiëntie
materie
argument
koninklijke
gewesten
##ography
dimensie
grijze
##volutionaire
ontwerper
##naval
verplichting
schepsel
##gorit
##constructie
maandabonnementen
Moskou
gerenoveerd
Valencia
gelijknamige
Ongeveer
.:
450
93
AI
Are
Beter
Hell
Kopenhagen
Moe
Mes
Nam
OR
Pracht
Rol
Sem
Tien
Tai
VA
Velen
Vast
Vespa
Wis
Zak
Zui
Zutphen
brouw
cash
drast
evol
goeie
ketting
lam
pater
pdf
sont
sau
ts
uris
zwij
##ept
##mand
##muis
##massa
##grepen
##famil
##here
##bund
##77
##EP
##Ex
##EEN
##zaad
##zucht
##yo
##DA
##VOL
##án
##etrie
##ijten
deksel
##atom
##aardt
##arre
##arning
##lever
bekomen
##rot
##eeper
voortijdige
##kent
alm
##verhalen
stik
##rax
##heater
uitpro
wortel
health
##ental
overk
overhand
werelden
anten
zowat
##imatie
schaam
##spraken
wateren
machts
##zender
##abis
##ocks
veelvuldig
wijten
##bloem
gemont
genetische
hoeken
werkers
##gelde
weers
##volg
##ppe
gedraaid
gelukk
printer
Erasmus
Datum
##mech
binnenkant
##isser
vrijgegeven
##ertjes
achtergelaten
achtergronden
zitting
mijzelf
bevrijding
##claim
##overzicht
Leger
vakbond
##sson
##vlies
hoofdstukken
##achen
##ossiers
beweert
##etteren
knap
knopen
artikels
blijvende
##schepen
mailtje
small
opgesloten
contactformulier
voortplanting
zorgverzeker
##phone
antieke
ingedeeld
clan
Bridge
vordering
Aanmelden
stapte
startpagina
Adobe
kortere
duel
concreet
##ixel
kleurrijke
whisky
##gemeenschap
##othing
zomers
Conclusie
achtige
monster
papa
beginnende
allerg
Totaal
ziekten
onverander
rijkdom
##proef
Britten
Trade
People
richtlijn
Rotterdamse
geestelijk
favorieten
volkomene
fantasie
voorafgaand
Handels
##modellen
Forum
Venlo
##brood
##browser
verkiezings
Partij
aftrek
vertrouwd
helderheid
Noorse
##films
##complex
pilot
##oeddha
##voorzieningen
cyclus
winx
zeldzame
ART
sollicitatie
Locatie
kwalitatieve
magnetische
inheemse
frequentie
uitgestorvene
chaos
stoere
Hawai
##vestiging
corresponden
though
Creative
ladder
zelfstandige
corporate
verzekeren
tinidaz
cilinder
gekenmerkt
Lübeck
overblijfselen
FIFA
urispas
tinidazole
Aren
BO
Bast
Bour
Beelden
Dinsdag
Eur
Gelijk
Kia
Lot
Math
Nacht
Note
PH
Ri
Sat
Som
UK
doods
gru
list
lacht
longen
mind
mappen
oce
oord
pract
soc
zwer
##shop
##soorten
##catalog
##mb
##moord
##journ
##gelen
##fi
##wapens
##MT
##zakken
##UB
##yan
##43
##ijssel
##orry
##aadt
##ieurs
insch
ingaan
##alem
##igranten
##ared
verou
alom
aanst
stere
strijk
##ough
##rapt
##schoen
##heven
uitoefenen
bijstand
regt
##icy
Inclusief
##spagina
##spannen
##itein
afsl
##uitje
##asters
groeten
grip
meent
##orting
toesch
##iekosten
End
gewijd
nadere
werkruimte
##gevangen
slangen
dochters
boomen
arrest
##uide
##rees
evenmin
##ifer
voelden
terugvinden
##inav
##voir
##akkers
verhinderen
hervorm
bevrucht
aantallen
Spec
Margr
verzw
instanties
medi
verdachten
basket
organisator
##strategie
vlakken
Teken
screen
center
medewerking
##handelingen
parken
##zekering
beeldscherm
##akter
halverwege
vervolgd
schooljaar
Graaf
##plekken
##register
##INS
##romingen
##ification
praktijken
verantwoordelijke
220
asiel
personal
très
security
kilometers
Engelstalige
opdrachtgevers
##ankenberge
assistent
passeren
zwaarte
hybr
dwang
Profeet
##gerekend
tentoonstellingen
something
Major
grafiek
##ringende
essentie
vertegenwoordigers
Israel
alternatieven
Brook
##functies
vitam
processors
Technology
nagaan
stimul
##product
drankjes
openingstijden
gesteund
##helm
JavaBe
functionaliteiten
ecologische
Hemel
catalogi
robu
Editor
materiële
transparant
beloften
terrorisme
Love
##flyer
Veiligheid
gigantische
misdaad
copyright
discussies
Nicole
icoon
Besl
omwille
academische
commandant
infliximab
gearresteerd
afwezigheid
Costa
nucleaire
geoptimaliseerd
concurrenten
uitproberen
3M
73
>>
CH
Dre
Dur
Dog
Draad
Delta
EG
Earth
Fly
Gaat
Gest
Jor
Kor
Kop
Maleis
Nano
PGB
Rand
Rub
Roll
Safari
Villa
Waard
Wouter
Zom
aber
away
buid
fondsen
gouver
kusten
nec
poten
rare
ruwe
sar
sent
um
vulk
yoga
zussen
ét
##ains
##point
##nie
##nummers
##cast
##kie
##kol
##kleed
##jas
##jarig
##lij
##loper
##die
##vy
##ville
##was
##hut
##bellen
##97
##UM
##UT
##UIG
##Blue
##quis
##Žn
##atoe
##atiel
hete
##leen
being
##iseerde
voorzeker
voorschot
onzicht
ongere
alt
##gewijze
##reiking
meting
##ursie
stijf
##asen
Defen
erna
##ersf
##agel
##kto
werpen
##akantie
zoontje
afgebroken
##uta
ontsteking
Ali
concepten
##orteerd
##ocus
bestrijding
Enkel
belicht
beloofde
##ingsvermogen
19de
bezwaren
kwant
##gebre
thr
Beg
Chrome
##avel
##anismen
109
Reken
aangeschaft
Schrift
##ERKT
prestig
Prote
Arts
##inson
vakanties
##conferentie
beroepen
organiseerde
bewuste
##apping
geple
param
minutes
modder
korter
Grond
feitelijk
ontdekk
krist
asfalt
Sea
vervullen
verzekeraar
ambities
##brekende
ontwerpers
downloads
gastheer
1948
imago
1975
transacties
adviseert
bereikte
##wekkend
strategisch
uitzonderlijk
verdiend
versterking
##kamers1
Donner
Consumenten
particulier
straffen
Peters
showroom
vertegenwoordigen
investeerders
Offic
Charler
BEW
aangevraagd
schenken
Australische
Hyper
fotografen
blootstelling
waarschuwing
##Station
WEZ
Navig
zangeres
beweeg
guest
##speriode
ingewikkeld
hoedan
consequenties
subtiel
Studie
elegante
Cuba
onmisbaar
##elligence
WPG
vakbonden
afgestude
uitmunten
##gezondheid
Amstelveen
Provinc
through
##korrels
Indiase
eijeren
uitvalsbasis
gemonteerd
***
4e
Aal
Berk
Count
Camb
EV
Emp
Eva
Fol
Got
Gas
Games
Hog
Kok
Karen
Lag
LCD
Nord
Nooit
Oe
Suz
Slow
Trouw
Tuin
Tony
VM
Vill
Wed
Way
With
binaire
crit
fee
fast
kelder
liv
pod
pup
riool
sort
same
til
user
vs
wr
wc
wast
wall
##cke
##ji
##li
##loo
##dijk
##vre
##woordt
##bis
##bem
##belen
##36
##Press
##LO
##zijnen
##26
##aaide
##ieus
##ieën
##itutie
inhoudt
ingreep
isol
voorwerp
voorkeuren
onrust
onjuist
##reinig
aanloop
##vergelijk
uitwisseling
uitermate
overkomen
overgangen
overgedragen
##oosters
##erence
##akels
waardering
##apende
ans
##imal
onderbouw
##eman
##spellen
##bep
##bez
##slacht
##inda
##arend
hiertoe
veelbel
zelfvertrouwen
##ivir
beleef
beluisteren
##ukken
##opende
##ranken
##gevings
##uift
snoep
bezicht
grootelijks
printen
Voorbeelden
three
samenv
persbericht
ziens
##ampoo
natuurstaat
such
rubber
helik
aangeduid
geres
##obank
##odes
installe
vlinder
eindigen
forse
lichter
anderhalf
duidelijker
groepje
finish
regelmatige
paradijs
stapje
atelier
Exp
geïnformeerd
##ructur
##uille
hulpmiddelen
graph
##ittingen
garanties
waardevol
versle
achtste
dikte
dikked
Steve
logische
accounts
nauwkeurige
rijks
kostbare
##gedaan
aantoon
breder
zetel
betrokkenen
beheerders
Apeldoorn
zuivere
##ennoot
gegooid
pijnlijke
gedefin
transfer
Smit
identificatie
Haarlem
nadien
strafrecht
overweld
integreren
dunkt
Asus
vruchtbare
stuurde
reservering
durft
deliver
##schuwd
##ortefe
stimuleert
verrassende
daugh
luidt
##ycin
overledene
PlayStation
Special
conflicten
geïmp
missies
langdurig
concentreren
puzzel
Arbeid
Copyright
TripAd
omgevingen
oneindig
commissaris
fundamentele
Human
Helemaal
sprookjes
available
legendarische
symbolen
##gesprekken
Scandinav
TripAdvisor
Agr
Blijk
Darm
Ess
Eredivisie
Gere
Gri
Golden
Hom
Istan
Jouw
Ka
Ku
KNA
Mün
Niger
Vlie
VAR
Ziekenhuis
cool
cogn
dor
daden
esc
fus
grijpen
joodse
pru
pist
riol
vaar
zend
zuster
##pakk
##cin
##cultuur
##clubs
##campagne
##lip
##lust
##fits
##vas
##vings
##vall
##wing
##buis
##AA
##PD
##EV
##LC
##RI
##zalen
##TT
##yre
##GEM
##erem
##sto
##start
gekend
geplaatste
vergt
vooralsnog
onweer
##eerbaar
##reich
stom
strepen
styl
##oton
##ogether
##esie
##head
uitkomsten
##opro
heads
wekken
##ageerd
##ienst
##aanden
reë
realistisch
doord
anoniem
##imilar
##angst
onderwij
leen
##eelde
schaak
schreven
Inloggen
##pende
mac
volmaakt
##slijn
Alkmaar
gronden
condens
blazen
##ellent
##irkel
##oordeling
##merg
##grenzen
beloning
mijnwerkers
zalig
1900
interactiviteit
##ppers
think
komend
adopt
kenbaar
tenten
Spir
deelnemer
ruimen
Reden
gerelateerd
verlaters
##werkende
vakman
158
rondje
based
##mande
steunt
gesticht
action
actrice
aanbiedt
Health
##ovend
science
without
basisinkomen
##ickr
170
duidelijkheid
##binatie
Overal
##oetin
updaten
visit
lastige
Adam
AdBlue
biod
publiceert
##cted
drogen
hulpverlening
combinaties
Anto
Steph
verzekerde
posters
acute
second
Zuidoost
fabric
zwaarder
gezelligheid
inspirerende
leeftijds
Contin
##waardigheid
erfelijkheid
Keuken
behoorde
Eddy
vloeren
marathon
albums
identificeren
##wisseld
vuurwerk
opvolging
duiden
1965
drempel
##ILL
kwesties
TomTom
winters
##uvre
Centrale
voedingsstoffen
##veiligheid
Reageer
geër
##udios
hoofde
dichterbij
##wetenschap
musical
analyses
fundamen
Edition
wellness
inrichten
Gemeente
harder
fossilen
willekeurig
herhaling
touchscreen
lichamelijk
heftige
airco
ongelooflijk
failliet
##ppelin
##oefening
raket
NIET
cannabis
autonome
spontaan
vergezeld
tropische
solidariteit
bacteriën
##ZIGT
Chicago
conclusies
Sovjet
Arthur
##akfast
Charleroi
.||
Aq
Actie
BI
Cour
DI
Dord
Diam
Great
Gallery
HP
HW
Lar
Manu
Mike
Sie
Sha
Twe
Wad
acteur
coh
gamers
gpu
happen
hitte
ip
jal
joden
kit
kad
laad
leed
lith
mant
masc
rout
sap
veter
wele
##ekt
##jon
##golf
##lau
##lander
##lampen
##uel
##vaten
##voeding
##vogels
##wonen
##huur
##hande
##37
##MI
##zoon
##zijden
##yes
##ées
##CA
##erkt
##anje
##ijgen
##aaa
##stoe
##atte
eend
heten
##arly
opd
opstelling
opgave
opmerkelijk
opportun
bekennen
verant
verval
##genote
##iday
heette
heiligen
heuvels
##uses
##aga
reinig
overgebleven
##administratie
##aaltje
anno
spits
spring
spijker
afzet
##ione
##slanden
##ody
bedr
##blokken
gemoed
gemerkt
##ffecten
##edie
##mages
eigendoms
verkond
orkest
mensenrechten
samenvatting
verticale
handelt
echtpaar
##mpeld
openings
artrose
Refer
##zichten
uniform
keken
gerang
strikt
straling
meesters
##overschrij
Hierop
##probleem
few
##ibar
##ibiot
hoofdredacteur
apr
1200
stedent
##etti
knip
leverings
bekendheid
anderszins
scannen
scoort
screens
special
paragraaf
##herlands
atmos
##ANT
visite
energieverbruik
vliegende
position
trainers
Mei
##instituut
sterkste
blogpost
verblijft
draaide
Jansen
vervallen
postcode
nauwkeur
1986
associ
##ORT
puntjes
afdrukken
oever
Lucht
plezierig
1940
Drent
##ected
legit
stijgende
valse
hydro
karakters
Professor
##oscopen
producenten
platformen
Chem
uitgeroeid
Academie
during
verlengd
##atrische
##atrice
PS3
onafhankelijkheid
Access
aangevallen
herkent
navigaties
keram
Speciaal
##zettelijk
##methoden
nadrukkelijk
verschijnselen
melod
oostelijke
supporters
subsidies
Kunsten
structuren
annuleren
vlaggen
vrachtwagen
geneesmiddelen
migratie
componist
koninkrijk
Disney
Economische
zonnige
demonstratie
raakten
##ledge
Rabobank
grotten
nalaten
tunnel
gewaarschuwd
bruikbaar
##sinr
boeddhisme
priester
bezuinigingen
uitgereikt
culinaire
gecertificeerd
intuïtieve
klaagster
broeikas
84
Ban
Bil
CS
Categorie
Dot
Diverse
From
Happy
Lord
Makk
MKB
NY
Pinny
Rod
Sac
Sara
Vent
Wen
XF
camer
farm
fair
festivals
hosp
kas
lit
lifestyle
mari
muy
nano
pou
panden
root
rijen
si
tassen
vacht
vennoot
xxx
##samen
##prestaties
##crisis
##ear
##kit
##fine
##vier
##buiten
##yer
##DD
##erveren
##orings
##orger
##orama
##staart
##atar
ineen
inschrijving
gefinancier
##derijen
opzij
bevoor
bewerking
voorganger
onw
once
##oman
algorit
##gewijs
##ilair
##verse
##vervoer
stok
steel
sticht
stoot
##rain
##heugen
uitbet
uitsluiting
uitlaat
##entw
bijwerkingen
rece
overheen
##ulpt
##sende
zodoende
ondergebracht
wordende
schomm
afgelegen
wasser
##pend
black
##aba
hiernaast
gemist
##iekem
tweepersoons
slaagt
begane
percent
Onge
Verwij
house
Anno
Châ
##reking
##avy
moois
kozen
verhand
regie
Gegeven
verliet
##ERT
dess
##gemakkelijk
##cona
zekerlijk
boekhouding
rechters
##inner
eindresultaat
scooter
creator
##aily
opgeheven
uitgegroeid
voortgang
voortbrengen
electron
ingez
##hands
##handeld
opletten
Platform
Overzicht
ruimtevaart
resulteert
Bloed
shirts
wieder
##risico
Excel
##esche
240
##minderd
location
woonden
hulpmiddel
Prin
reddings
formatie
##ettes
dict
Stephen
paprik
Phot
personage
interesses
##woner
coalitie
##skaart
looptijd
Netherlands
experience
collectief
##gewenst
beheersen
providers
kampeer
wezenlijk
functionele
barbec
##chester
##draaien
Travel
effectiviteit
Quick
##zijnde
overtuigend
Monte
koffer
constante
begrippen
Key
tevredenheid
besluitvorming
uitzonderingen
afstanden
return
schakel
opvatting
##graven
Eventu
WordPress
Technische
dertien
zachtjes
Willy
Transport
##communicatie
referentie
vernietigen
Israëlische
nederlaag
verdiepingen
dynamisch
trendy
schroef
bewerkstell
vermindert
koorts
teleurgesteld
schijnbaar
illegaal
spectaculair
BNG
aktiviteit
Ideaal
Cookies
Dubai
afwijkingen
bundel
cruciale
Organisatie
Nicol
horizontale
scheidsrechter
daagse
eigentijd
Mickey
monitoren
WEZENS
KNAW
weleens
##sinrigting
**
4x
81
Aar
Bom
Café
GP
Geller
Haal
Iris
KW
Lies
Letter
Male
Past
PRO
Richt
Ti
Tum
Toegang
Zes
bin
borg
buy
came
dop
erom
eitjes
fax
gold
ll
moorden
nar
noo
night
occ
pond
paas
posten
squ
tast
wid
##aud
##ssen
##retten
##nomen
##noot
##jarigen
##time
##gi
##oï
##wan
##bot
##bier
##OK
##öl
##DT
##BN
##ena
##erwijs
##ijmans
encycloped
ingebouwd
##arisch
ophe
opzoeken
##leiden
bewaar
versp
##rozen
voorgelegd
onweten
##eere
alert
althans
aanstaande
##otype
datac
##temp
omliggende
##ikaan
##ikker
uitmaakt
uitnod
hevig
##electie
##ienne
rev
overgaan
doorgevoerd
##aka
zochten
zozeer
onderdruk
legende
schoen
schoentjes
Integr
Intussen
spoel
spelletje
afsluiting
##oekomst
volhouden
Alhoewel
##onderdelen
##ipline
##abels
comité
##ocal
meemaken
##data
gebruikten
haarscher
##geval
##makende
##ingsrecht
##neur
##reeks
driet
##bijzijnde
##geboren
##atering
oriënt
Verkoop
##itieme
handje
handtekeningen
##kommer
##standigheid
huisstijl
trage
##mpje
##zigt
......
werelds
Ref
buitenkant
magie
flora
deskundigen
verzocht
##ookte
verdiepen
vrouwtje
bewonen
ervaart
andersom
forn
##ituten
##rekenen
europ
175
afgebeeld
jonger
resterende
clich
regelt
##alto
Blader
geslaagde
topper
short
shall
veiliger
vriendinnen
##orps
infectie
trotse
Shell
haben
kraam
##aafde
Meet
oogst
bijzonderheden
Sex
vervelende
nauwe
drukt
1983
Twente
corrig
kostprijs
balk
##ORM
Flickr
##paradijs
designer
berichtje
Monster
multim
leesbeleving
##wijding
ING
##groting
color
Binnenkort
Institute
integriteit
incident
stroomt
genezing
instructie
betaalbaar
Cola
katoen
Coun
Nieuwsbrief
Partners
flesje
profiteert
geëx
vernietiging
##vesting
geplakt
honig
##gehele
mechanische
beschrijvingen
Derhalve
hanteert
geregistreerde
senioren
???
argumenten
##engamme
Leuke
Vitra
opwarming
evaluatie
##PREIDING
beautiful
lawaai
##oplossingen
pioniers
RWN
tegenwoordige
mededinging
mengsel
HOOFD
olijfolie
zijkant
##zwembad
##gineering
##breedte
Enterprise
beesten
Zulke
Neuengamme
Waardoor
##ersfoort
prestigieuze
++
AAR
BS
B2
Bakker
Corpor
DC
Dome
EL
Fen
Far
Fall
Garden
Jes
Jak
Joris
Kam
Koos
MET
Nar
NET
Oktober
Pi
Rust
Ronde
Route
South
Us
Zeg
aw
acteurs
bub
borden
glu
kuur
keep
lol
lets
piek
rav
tape
timmer
veer
zonen
óf
##gische
##god
##lat
##leren
##fouten
##dre
##oir
##ogens
##var
##vakken
##wets
##hok
##boten
##95
##zaakt
##WO
##IR
##anker
##etitie
##ijing
##stud
##stri
##oningen
##alon
opgeleid
tegels
teef
##roo
##round
##genees
alpen
algehele
##verslagen
datgene
##venue
omstandigheid
##okke
##opgave
##aanval
reuzen
oversch
##ulf
werker
doorsn
waartoe
zoom
gebeld
##eeling
propert
##jectie
spanningen
afgev
##bewust
##utions
plicht
plank
##osmet
blonde
##iper
##acem
terrassen
##webs
verschuldigd
genoot
genoegen
##ecken
1920
gedaald
gedrukte
verbleven
laatsten
terugkomen
##vocht
##ega
huisdier
achterste
geschonken
Zoeterm
regionaal
Spel
##arius
verwen
gehakt
vakgebied
poly
polder
broeder
steiger
Belgium
Under
kopers
Overijssel
##nieuwe
##ceptie
quite
atl
##ryptie
visschen
locale
white
controles
kruisen
denkbeeld
road
##interest
schoonmaken
bands
logica
Commun
##ocket
outs
disciplines
Science
##ioenen
immigratie
entree
Network
##ousse
zichtbare
##geschoten
Canal
variaties
zuivering
statistieken
motorrij
Sindsdien
erfelijk
pijnlijk
tradities
regerings
compliment
##grootte
##wekkende
Gerard
Handleiding
Regio
vrijwillige
opvattingen
integraal
effectiever
Comfort
Filip
overlast
ISS
Wii
kabels
365
vertegenwoordiger
onmiddellijke
Telefoon
melkvee
##folder
geconcentr
schadelijke
##ught
IJssel
seksueel
pooten
##droger
homepage
##verlies
music
EE200
robot
structurele
diabetes
José
grappige
Cross
afwisselend
beginselen
Hogeschool
gedetailleerd
Bezoekers
Formule
besmet
blokkeren
ingewikkelde
mountainb
Meester
edelstenen
Journal
vermenig
Aanvankelijk
gemengde
##oppervlak
ademen
objectief
tweetal
Beatrix
gamma
pictogram
##concert
innerlijke
stedelijke
bekwaam
Vergilius
Hawaii
Margriet
dikkedarmkanker
##ortefeuille
Zoetermeer
71
ACT
Cob
Coh
Cry
Educ
Ford
Front
Fashion
Goet
Haak
Jav
Kem
Lum
Mij
Mand
Mess
Old
Pot
Page
Penn
RV
SL
TY
Vuur
Wint
Zit
baar
bout
boekt
cert
dd
dië
duist
drijf
eik
far
google
louter
mum
olymp
riet
size
tril
vaten
##cursus
##kocht
##lis
##lichten
##fre
##fran
##dal
##das
##oles
##hus
##histor
##haupt
##EST
##TB
##ZE
##65
##quid
##else
deugd
##oriënt
##iev
##ieure
##stil
##atiete
vanmiddag
invoer
gewezen
##alus
opstaan
oproepen
##isatie
iss
voorde
onont
onbesch
##ompen
##urkto
streef
stiekem
##tegende
##esen
uitz
uiten
uitziet
##agog
doorb
waarnaar
Hetzelfde
##spie
##spress
##onda
ontg
ontslagen
##benemen
bloei
meningen
##abit
##abazar
gevel
bestelde
toelat
hieruit
##oordelingen
##iëne
elftal
belach
gewond
##resh
kleink
werkstuk
##voorstelling
Stor
sluis
Westen
zalm
##orgaan
Verkeer
vertoond
##untu
snelweg
##ontsteking
tussendoor
echtgenote
105
kenmer
herhalen
##center
ontwikkel
Spot
vergeef
##ools
Zeven
verlaagd
Schade
filmm
##uzalem
##ypes
Franç
boeking
vecht
Ther
That
Amersfoort
Diep
zoekwoorden
voortt
bekleed
zorgden
Plant
Ofschoon
Elis
familiën
135
##daags
Expert
duivel
trof
whole
ongez
impuls
levensstijl
##burgh
tiener
verzamelt
Indische
ziektes
broncode
##breng
Hebt
inhoudelijke
Turtel
risic
##otechnologie
##geworth
trouwde
uitstek
bedrijfsvoering
operationele
fietsers
statement
straatjes
Samenvatting
##otta
literaire
beeldende
Edgeworth
regenwater
.).
Profile
##centrales
retourn
COM
##modus
burgerlijke
IsraŽ
Force
microfoon
microsoft
commercial
##holm
methodes
##OLOG
Magic
##amento
##player
aangetast
synchronis
excurs
##orteur
##verbindingen
ontstonden
Jeruzalem
ritme
verwantschap
continuï
Sterker
inkomens
laptops
crochet
Annie
muzikanten
##zettingen
experimenteren
citro
agress
repareren
intense
schroeven
kampioenschap
boeiend
vermindering
reality
##somstandigheden
##techniek
##sprocessen
afwisseling
veroveren
year
Multi
koloniale
Generaal
Planet
Athene
compositie
composities
consumptie
##automatis
besmetting
educatieve
cruciaal
vervoerd
##oepassingen
huishoudelijke
##instrument
overtreding
CRM
bedenkt
checken
Zanabazar
achttien
Mechelen
ongewenste
##ellandse
Literatuur
Heerenveen
encryptie
biosimilar
ondertekend
Profiteer
##iabatta
München
##tegendeel
Turtelboom
Burg
Boeddh
Dj
Det
Dynam
FBI
GO
Gert
Hoo
Hoop
Horst
Ir
Jas
LG
Pagina
Potter
Pict
Pinterest
River
Roemen
Roma
SU
Sign
UIT
VR
WA
Ziggo
bul
breekt
done
gad
hav
iet
keeper
lijk
nier
naakt
old
pala
rum
randen
ray
rauwe
sed
say
vaand
##sor
##prem
##rar
##nij
##noten
##mi
##uus
##uiving
##wachte
##hood
##FR
##öper
##etst
##oevere
opinie
beach
##roond
voorste
##ref
aanwijzing
aankomende
metaf
##olia
##ietijd
##tex
diegene
omstreeks
##rappen
##schermen
##opbouw
##agu
##ador
##adelijk
doorgebracht
waarnemingen
##ango
ondervinden
onderstaand
propos
spuit
spinnen
spek
##spoor
##kea
##oening
##bevestiging
ontbij
Alt
blz
betoog
toegeschreven
##acao
##ably
##abilly
##eenkomsten
##aflets
jaarverslag
##ouwers
elast
belichting
##ukas
werkomgeving
werkloosheid
slijt
slaapt
drivers
##agent
Opmerking
##illenn
##ronde
geladen
langst
things
those
vertrekt
handeling
handdoeken
##intjes
##ontwerp
ouden
achterzijde
autob
reglement
Rechts
magistr
Omschrijving
Programma
Arc
Arginine
##ENDE
optreedt
indrukken
verdragen
vastleggen
##ritis
##strand
accent
Hey
scrip
centra
##bridge
178
actieplan
afgewezen
Grootte
climate
Onderweg
resulteerde
heerschen
##ungle
fietsp
inspectie
middelpunt
Dennis
##schrijver
superieure
archipel
versus
achtereen
##adata
wandelt
##burgers
vergelijkt
toegangs
outlet
##reinen
gevangenissen
Laatst
corru
kostuum
feestelijk
friends
ijzeren
aantonen
area
Manchester
Slag
lenzen
1974
##filter
begreep
##groot
mondiale
Whats
kernel
kankerpatiënten
##comfort
##boxen
verliep
Johnson
Johnny
##wisselen
nabije
##semble
vrijwilliger
opzichten
fysiot
stopte
wonderen
parkeergelegenheid
##function
adembenemen
sexuele
excursie
Henri
Petpost
folders
vernieuwd
vernieuwing
condoom
grensoverschrij
solo
fanpagina
Active
Robin
beseft
departement
onvolkomen
Oorspron
uitvoeringen
Langs
##contract
Belangrijke
satellieten
verhuisde
opnamen
Jaarlijks
Palestijnse
aanbieder
Persoons
verpleegkundigen
Duurzaam
silic
dringend
magnetron
Please
oneindige
notebook
##nodige
BullGuard
Voetbal
Lisa
Analytics
vooraanstaande
Defensie
omgekeerd
arrangementen
nieuwsgierig
granaat
GSM
Auteur
akoest
onvermijdelijk
Industr
##weefsel
verbaasd
Passagier
Matsue
gerenommeerde
overnachten
Zuider
parameters
gerangschikt
##entwintig
Goethe
4000
AG
Aug
Bot
Bink
CN
Cond
Dans
Fac
Feest
File
FNV
Gesp
Haus
Ig
Jam
Ki
Like
Little
Maag
Opl
Oek
Pos
Pye
Prec
PVC
Rot
Ruy
Si
SE
Tan
Tosc
Toekomst
Winkel
XX
Zolang
cart
cerem
doeken
daalde
deleg
got
gans
gangen
hd
hing
kasten
lij
oh
oom
pall
ri
rod
twe
upload
vies
zinnen
##shuis
##norm
##cours
##gassen
##feld
##velde
##39
##31
##MB
##Sp
##Bl
##anië
##eton
##etine
##elbaar
degelijke
depress
##orgel
##orial
##iezingen
##chi
##iteld
inger
##dernis
opsch
##lek
verrijk
verbeelding
##rode
##roos
##ismus
voorstellingen
voorschijn
voorzijde
onvolle
aanvo
metam
##olgd
##vera
##uri
stunt
struik
##esis
##heat
uitwerking
##stest
##aandeel
##aanwijzing
bijhouden
bijbel
repl
##akeld
##apter
zegen
zojuist
##ichtheid
springt
##ormulier
##bew
ontelbare
##slaat
##artner
betover
##eende
##web
bestonden
toil
zelfmoord
bediend
Entertainment
gewigt
naged
tweeën
haardroger
klei
##maand
Stan
Stads
weersomstandigheden
slikken
manip
begaan
boze
##diging
bezittingen
Onno
verkozen
##iox
moeitel
geliefd
krijt
##lied
Anj
##diening
##zoekers
vormde
achterlaten
hoogwaardig
trakt
light
##mpos
##mpjes
landgoed
##illon
weggelegd
appels
child
chique
organische
gekke
Wijl
konings
syste
uurtjes
Schol
Martens
Program
##nissen
pleit
veiling
namiddag
16e
contactgegevens
glan
ingegaan
speeltuin
Broek
Blink
stapt
beeldvorming
vervolging
behandelt
##ijlstra
Exc
rekeningen
local
abt
impro
levenswijze
oogt
##auwen
plekjes
dikker
paper
230
gemeentebestuur
merkte
merknaam
loggen
vervelen
##STUK
verzamelde
besparing
##oxetine
kapitein
##ruimtes
ambiance
Scrum
Scott
Netmedia
skige
officieren
kinderopvang
zwaard
##show
Systeem
##CHAP
controleert
Queen
transform
sound
codes
makelaar
natte
signal
Internationaal
psychische
zuidelijk
afleveringen
première
Electron
controller
reserveringen
sensit
Bush
gerechtigd
nabijgelegen
PostNL
##splaats
illust
verleend
sleutels
walvis
Camping
vertalingen
Paleis
AMD
aandeelhouders
hoofden
opgevolgd
uitvoerig
buurman
##wetenschappen
weigerde
artiest
edities
semi
engelen
##ombarde
crash
structureel
##polder
Victoria
##biedingen
herhaalde
beschouwt
kwetsbare
borsten
larven
aansluitingen
Western
Schotse
Financiële
##account
around
puzzels
tertiair
##--------------------------------
ondergrondse
##profiel
Hardware
afwijkende
scholieren
Kruid
waterval
ligchaamsinrigting
aanhangers
Moderne
dodelijke
doeltreffen
camper
variabele
ondertekenen
UWV
Portugese
wijfjes
gruw
Draadloos
##ERKTUIG
jaloers
atmosfeer
TYPE
%,
89
A1
Azi
Awards
Bett
BEL
Besp
Boeddha
Cu
CBS
Days
Every
Fem
Gord
GRO
HIER
Ich
Ikea
Jen
Ker
Lip
Lumin
Mö
Mannen
MBO
Oce
Pri
SO
Sel
Sier
Sof
Sup
Today
Veld
Vogel
Waren
Wonder
Zion
Zilver
][
bok
custom
catech
dj
dorst
duinen
ff
fer
gooit
gaaf
green
hac
hét
icon
jo
jarigen
loy
mess
makkelijke
nos
pon
poe
pian
scept
ta
té
tout
vouw
vatten
vette
##sa
##nick
##mijnen
##teren
##gat
##gio
##gelijks
##lus
##uier
##vure
##valt
##vueling
##wijn
##75
##ïsche
##EF
##29
##HL
##ZW
##üs
##ery
##anders
##ijzer
##initi
##stelde
##stappen
##deerd
##igste
teekening
vervoeren
##eeee
##ising
##isering
voorstander
ongebruik
onnodig
##omycin
##kenmerken
##eerste
##ily
##versl
storen
staken
##ambo
##idia
omringende
##rac
uiting
uitvaart
read
realisatie
overge
overleggen
##icil
leken
##ichte
spie
speur
##oedigen
welbe
##zende
##sly
##oonstelling
##ered
Alvast
##weekt
betreden
toepas
klokken
klonk
##abor
##abinet
##ability
commande
##oco
gewrichten
##berts
hoeverre
minomycin
##edy
vries
samenhang
Bez
##meden
hands
natuurgebied
informatieve
geschoten
geschiedt
Spa
Speed
wereldber
Geplaatst
aangepakt
symm
verwoest
Schoon
magt
Leop
##quet
getracht
misver
medio
brilj
organismen
actu
neven
##innaar
scoorde
treinen
opgedaan
Klass
serveren
Belgacom
cluster
Plat
heerst
kindjes
Exper
conclu
infot
infect
kunstmatige
voetballen
hoogtepunten
##igtingen
versierd
ontwikkelingslanden
##archie
bouwde
##offer
##duceerde
gemeentehuis
middenvel
within
allang
##autor
Netfl
Ontspanning
weegt
##kanaal
##ATE
##ATIE
fabrieken
vlakke
Guy
beheerst
verdween
Konings
##ESS
1979
1973
vesting
Westerse
##EDEN
gedegen
toerisme
begraaf
Keulen
twijfels
faciliteit
zenders
##ommodatie
Porto
inzichtelijk
##gebruiker
##jabloon
webshops
##trash
1968
volgers
Veilige
delic
Vrienden
Petrus
Europeanen
wintersport
Charl
stabiele
zusje
going
hoefde
##computer
monteren
ecos
Lego
Intelligence
robots
crème
Panama
metrostation
Koreaanse
rockabilly
##voetbal
verrassingen
prioriteiten
Bernard
ePaper
introduceert
Picasso
evalueren
affaire
##adviseur
ruimtelijke
##klimmen
liquid
Puerto
spirituele
federale
Bruno
pigment
Ubuntu
NAVO
benaderd
hoofdtelefoon
loslaten
terminal
Wageningen
Krijg
Weekend
zonsonder
intentie
beginners
Society
gematigde
ontleend
Stockholm
ondergeschikt
##meisje
telescoop
calorieën
Hasselt
##oparticles
hybride
hoedanigheid
gedefinieerd
drietal
fornuis
HOOFDSTUK
Oekra
Luminus
Netflix
74
Akker
BA
Bell
Care
CON
Ein
EDF
Fant
G1
Heren
Here
JP
Kod
Koh
Korte
LA
Prakt
Sales
Tob
VP
Vos
VVV
Wag
XL
cens
div
evangelie
frank
folie
fyt
garen
hapje
i5
image
kalm
nomin
pie
peer
pant
roe
ringen
tante
tuim
woede
wielen
zur
##sma
##size
##sneden
##iy
##nst
##craft
##cirkel
##eind
##einde
##mware
##tas
##telling
##list
##link
##fsd
##ueren
##wald
##woorde
##hum
##hoeken
##bt
##38
##zuiver
##yling
##Cont
##IES
##52
##ück
##etijd
##eliers
##aaaa
##inrichting
##stab
##ather
##aarse
geform
gesc
geiten
gegener
##arter
opin
tevoor
##row
voorgeschreven
##omod
allo
##ollen
##verine
sticker
dateert
##idsen
jegens
##asi
##tekens
##venter
Dev
Dezelfde
Death
##tend
omgang
##iket
uitle
uitwerk
uitbrengen
ernaast
hechten
##entr
##aanwijzingen
reader
##icaanse
doorge
doorzoek
zofran
##imit
ondert
ondermeer
schouw
spa
spr
modem
##spectie
##istentie
##lijkheid
##bek
waters
20e
##zenden
##astie
##achtigen
Alice
blues
##acing
##acultuur
##landschap
toernooien
##derende
##blaas
##perto
elite
beleefd
nazi
##ransport
##gevaar
##geloof
slang
slip
sloop
eigenaars
tegenkomt
##ingssysteem
##formaat
gedoe
##ronom
##actische
grooten
##ardo
levendig
Beaut
handbereik
natuurkundige
##ission
##issaris
succ
##arkeerd
vrijstelling
##akkingen
verhuren
kenden
kenmerkt
resorts
bevrijd
##ervorm
verlichten
Lex
flits
##uzzi
##oney
feature
hoofdkantoor
appl
vrouwelijk
boekingen
##geleverde
##stralen
accur
gereageerd
sterft
afgezonder
antibiot
kantine
##handig
##havens
paras
##leep
beeldmateriaal
videob
bioscopen
publiciteit
webdesign
motto
##balans
Paris
Claude
dierenarts
allereerste
abstra
##ificeerde
financier
formeel
plekke
zeeën
Benj
Benieuwd
verantwoording
Antwoord
gecomp
rozen
##duceren
tiende
tieners
coins
neergezet
##ruiming
veroorzaak
Support
onverwachte
laagje
##reekbaar
ijsk
rechtszaak
##nelle
zichtbaarheid
Genees
testament
zakje
Sluit
meldingen
Perfect
Brain
aldaar
Werkt
Monique
Monkey
1972
##uimd
warmer
##ascript
valk
tafelten
Vrijwel
Supertrash
leidinggevende
absur
identiek
Boijmans
salon
afstammen
Consult
elektrisch
making
natur
verkochte
lounge
##onieme
uitgeroepen
magazijn
goedkopere
Snow
zuivel
Half
morfine
##restaurant
VERW
pension
Nieuwsblad
##garantie
koolstof
schadelijk
bedreigingen
gitarist
borstkanker
voorspellingen
competenties
Campus
McC
Gentse
zaadkorrels
besturing
energielever
Achtergrond
Director
internets
doorbladeren
velom
IPCC
##unny
engine
##huana
voordelige
Ronald
tomaat
Patiënten
##fried
Urban
opsporings
##IKEL
Francisco
biobrand
songs
Information
claimen
luchtvaartmaatschappijen
drijvende
##analyse
gemengd
##besparing
Opera
uitgekozen
bekenden
amerikaan
enzovoort
onderdak
Napole
configuratie
frustratie
##stoornissen
scène
##viron
luistert
possible
druppels
President
##bestendig
ARTIKEL
gefinancierd
noodig
duistere
Oorspronkelijk
.(
2de
3x
Aus
Abs
Aank
Brouw
Boris
Din
Dal
Dru
Derg
Dave
Dream
Fut
Fox
HA
Hunt
Hout
Ky
Kant
Mill
Molen
Make
Neen
OF
Pens
Press
Present
RD
Roe
Rou
Roel
Roos
SA
Summer
Soest
Trend
Upload
Vorm
WW
Zaal
Zoekt
ara
bid
bass
cell
flow
hair
krab
lelijk
noe
nost
rouw
sam
self
tint
tatoe
voc
vakk
##paard
##ci
##cante
##categorie
##ey
##tijden
##gaard
##gifte
##lette
##fles
##hab
##bast
##bische
##NER
##Media
##SE
##eteren
##stap
##stuur
##streden
##chise
inwoner
geuren
##igheden
opgelopen
beet
voorschriften
onzin
##kenden
metsel
##vertegen
##verzorging
##urken
##unen
stokjes
##ouds
##teau
##ogan
omroep
uitingen
head
heuse
##entrum
##elevisie
##agia
##aantal
bijgedragen
##lengte
doorgegeven
dansers
schoor
schelp
spin
spion
speed
##spons
afvragen
##bev
##beper
total
watch
##utz
ontste
##umber
##zenders
##iches
ditmaal
##inezuur
##keringen
mega
##ondersteuning
##ellow
##aci
kloof
##atenten
tof
##mend
##bloe
##aamde
##perk
minim
zaligheid
tegenkomen
##uizers
1910
dringt
Alsof
benaming
##acterie
verbranden
##idence
##udden
##meet
##sterren
##issing
##issingen
sup
##avaan
##stellings
##rium
verhoor
huiswerk
101
landverh
bevallen
bevrijden
##nett
article
Regen
Geïn
##urea
##ureur
gehant
buitenste
driehoek
institut
##these
##iza
rechthoek
levertijd
gemeenschappen
Heart
##endel
1600
##cky
doelpunt
##bril
Wilhelm
amino
##temperatuur
afgedrukt
jongem
kiezers
koppen
internetverbinding
zonnetje
##clusive
##outers
paroxetine
##leeft
##validatie
korrel
##spreker
poppen
##upunct
trommel
Click
hartje
allerlaat
allerhande
rijp
kralen
gewelddad
impos
verstopt
##person
presentator
kijkers
##ETA
leeftijden
poster
kapit
myvueling
Ontbijt
##uleerde
krijgs
beschermde
wachtwoorden
##roll
beheers
dorpjes
Zwart
afwachten
##ifties
oeuvre
opereren
Luister
canada
Qua
statische
##plicaties
Brusselse
portie
adviseurs
zenuwen
behooren
behoorlijke
klassieker
Autor
romantisch
creëert
using
##atsoen
##schakeling
commerce
Valent
Registr
1964
Acer
Accept
shopping
reclam
Assem
morele
esth
capac
ISBN
aanmelding
Houdt
Fransman
##...]
kathedraal
universele
opstart
##paneel
Geschreven
##processen
verpakt
##ocratische
uitgestrekt
##verwant
truck
##sduur
laser
ALGEM
exporteren
coaching
Volkswagen
mechanisme
exped
Digitale
urine
ABC
therapeut
##kleurige
onrechtmatig
migr
attractie
Williams
purch
Wolverine
onvruchtbaar
toevallige
ambitieuze
##buds
courget
uitgeverij
Francis
##besluit
horizon
Systems
overtoll
faillissement
verwarring
Congres
beauty
##hebbende
jasje
veelzijdige
verwelkomen
reflect
herkomst
inboedel
onvergetelijke
Poolse
Felix
##ycling
bijnaam
Rutte
Regelmatig
genomineerd
Tsjechië
Academy
restauratie
VERSPREIDING
expliciet
keihard
Nostra
vulkaan
##pakketten
vakmanschap
Antoine
geërfd
barbecue
##spresso
excursies
ietwat
palae
vaandel
scripts
heerschende
infoteur
tevoorschijn
##pertoire
allerlaatste
3G
91
Aud
Bran
Botte
Cra
Code
Dres
Dick
Face
Full
Gh
GL
Gij
Kent
Kenn
Lijst
Lake
Mode
Malt
Melk
Moto
Nab
Run
Rozen
Rudi
See
Sri
Tj
TO
Tand
Wiel
Yosh
Zen
Zoeken
apen
bè
buit
days
gist
giften
hul
kaar
kra
kitchen
katalys
lul
leeuwen
living
lijdt
might
naad
paal
pub
rauw
sale
side
sitem
taille
wraak
##aert
##soort
##iqu
##poot
##rd
##nood
##goederen
##lok
##lacht
##fra
##fers
##delingen
##draad
##ochter
##uchte
##vruchten
##wijken
##hs
##horen
##bussen
##bps
##zang
##zitten
##KS
##KOM
##G4
##üt
##ori
##staal
##stelsels
enter
enjoy
##iteren
input
##aards
##ingo
##dekte
##iga
ops
ophouden
become
verven
##ished
voorhanden
##rep
aanhouden
stuit
##otes
##asch
##ogt
Develop
omvormen
##okter
##race
##heorie
uitwendige
hevige
##usc
##usion
##agh
regent
reorganisatie
overeind
##ulle
##uline
##ulator
doorbrengen
##akije
##imo
##imin
onderstree
ledem
schem
Ing
spijs
sprekers
mosk
##spr
watert
##utive
volumes
##slot
##oons
grill
##oses
##osoof
##odox
meid
##weegt
meewerken
##gras
gewonden
nage
genood
minpunt
weerspiegel
slow
mijnen
##bson
snacks
beschuldig
Opnieuw
##ppro
bende
##cedes
verbazen
verbruikt
##oofden
##udo
staatsh
Beweging
Ang
Metal
##rekingen
vormden
##anish
achterstand
autof
chatten
gerucht
verluid
They
##overdracht
specimens
Lev
##obie
ergste
##training
rondleiding
pols
##bruggen
gestorven
##ettings
nep
never
Thy
gespannen
Tech
##ailles
##actief
voortvloe
leerkracht
Unch
socialistische
00u
grondwet
kennisgeving
Plots
gepakt
wieg
halal
attent
##rikken
lastiger
koraal
##ahr
successen
##scen
##script
hartslag
while
abdij
console
Meerdere
nota
sportief
Steun
schoongemaakt
geschiktheid
vlekken
kostte
kosteloos
##oseks
##print
kinderp
weeg
##oled
##oleerd
afspeel
OpenOffice
##ooiing
machtige
##parken
Syd
Youtube
horoscoop
stamt
Slim
Training
Perz
operaties
##ributie
Tener
jurken
wederzijd
varieert
gedekt
glasvezel
zenden
Edge
negeren
##raanse
vereisten
armband
babykamer
##hoogte
1969
Personen
gebruiksgemak
voorbereidingen
Spanjaarden
shops
incidenten
afleiden
kerstboom
zogenaamd
Jacobs
##vakanties
parkeerplaatsen
1933
padden
naaste
Sociaal
##verhuur
accepteert
verleent
Duck
##patroon
voortdurende
looks
lanceert
seksuele
Middellandse
ANP
verwantschappen
lekkers
##bibliotheek
wolk
eeuwenoude
Matth
mechan
mechanismen
Remote
migranten
Ruud
##streekse
opzigt
concentratiekamp
diagnost
Syrische
verheven
Persoonlijk
opsporen
Andrea
##specialist
tracking
Matthe
Klantenservice
##ingsverband
##myra
Kleurplaten
Virtu
Gezondheid
neutrale
ganzen
gevorderd
fragment
##________
Juan
##oplossing
ingrijpende
gordijnen
verfijnde
überhaupt
lettertype
Janssen
theoretische
geschilderd
##LUIT
VERANDERINGEN
BESLUIT
##behoefte
Madeira
ontzaggelijk
dichtstbijzijnde
friendly
##Cloud
stikstof
oordelen
Cambod
Dordrecht
mascara
Ongeacht
Gegevens
AARDE
IsraŽl
continuïteit
Persoonsgegevens
moskee
genoodzaakt
Acht
Aru
Aff
Bost
Bah
Brian
Cant
Daph
EY
Eeuw
Farm
Goor
Giet
Gec
Gene
Hat
Jim
Kick
Kaap
Kroon
Loon
Leen
Lyn
Law
Maz
Ner
Poetin
Rio
RAM
Stem
SAP
Vrede
[...]
bil
bac
cup
cake
dranken
fire
gsm
hui
hits
kus
kassa
low
lonen
mp
pik
rits
try
together
zwee
zadel
zusters
…..
##site
##paden
##kinderen
##jer
##til
##lop
##lichting
##light
##oien
##vaardige
##wil
##wang
##honden
##hotel
##PA
##WA
##DI
##64
##ül
##ères
##…)
##QL
##erve
##eless
##oram
vanille
vanmorgen
##ituur
##oordeel
gej
gever
##deed
##deelde
##aline
opdoen
beur
bedu
tea
teweeg
verveel
verplaats
verordening
##ision
voorgangers
onover
onna
onbelang
alfab
alhoewel
always
##gezel
##ilm
aangaan
aanvoer
##verhouding
##urger
##ungen
##unction
stelden
stoer
##otor
jeans
Deventer
omheen
omschrijven
omstreden
##racten
uitd
##ctr
##enteerde
##stechn
##element
revolutionaire
overkant
##oozen
anatom
anonieme
zege
gebogen
dankt
scheelt
spuiten
sprongen
##span
##spat
##spieren
afgeb
##bekw
##ioneerd
ploegen
grove
Alb
##osis
##oshop
better
##ables
##mende
##irls
##uggen
##mering
##ivo
##ivia
verschaft
naz
##uket
genetisch
Storm
Straf
##nest
1930
drang
dronken
##gering
plaatste
geduurd
beheert
grootouders
##organen
eventjes
verbaal
langzame
samenstellen
Bever
suite
supers
##inton
sein
herders
resident
landing
orgaan
aangedaan
aangesproken
bovenal
vermoe
filters
1800
desondanks
desgewenst
driemaal
##obil
Doorn
verzetten
Franken
basic
123
##ization
groeper
##azer
##etta
knippen
aanvaardt
Head
scene
smal
##vangel
uitgekomen
uitgedeeld
avonden
##yself
antiek
##airs
kopiëren
Uitgebre
2500
relat
gepre
marktaandeel
iemands
webbrowser
lichamen
drog
Mijnheer
kringen
able
financieren
sporters
##venture
overeenkomen
verwachte
wandelaars
lokken
bloggers
Steven
embedden
zoveelste
login
##wonnen
outdoor
##skosten
toevoeg
feestelijke
skel
puntje
British
vlakten
Helder
provided
functioneert
barak
Syl
##ersey
slaapbank
opleggen
Train
Track
presteren
Hollands
matig
verneder
immer
implant
1978
multicult
Desktop
##uimte
portretten
##ISCH
transitie
Raadpleeg
soun
Keizer
##zijdig
##zijdige
##DEAL
afhankelijkheid
Oostende
herinnert
##korting
##vriendelijkheid
##sverlies
opvolgen
Valley
briefje
Commer
geslachts
Milie
geneigd
luxue
Breuk
##immy
sluiting
aangetrokken
sexen
sensoren
vetzuren
Party
geconstat
illusie
trekple
luidsprekers
gebrekk
##verbod
aarz
emotioneel
Casa
focussen
Deelnemers
selecteer
reiziger
##verkiezingen
##hangende
voorlopige
Annulerings
linkerkant
beddengoed
weigert
Optim
versnellen
haalbaar
berekeningen
speakers
##idae
Indonesische
'',
##liefhebber
Onderzoekers
Gemeenschap
criminaliteit
zoetwater
galerie
Kampioen
Libanon
##relatie
Bernhard
global
Ruimte
Philippe
pedagog
giftige
Virgin
Functie
##analys
behoeft
##stijlen
gehandicap
goose
fragmenten
toler
Fedora
Bedrijfs
bestudeerd
roomservice
buffet
Vedische
uitsterven
uitsterving
onvergetelijk
razends
scheeps
Apartment
bonsai
cialis
inleveren
##providers
Rietveld
civiele
##figuren
Resultaten
Uitgeverij
problematiek
gemotiveerd
prominente
Olivier
##fabrikant
Porsche
vloeibare
Mackmyra
Renault
obstakels
Schepper
Hollywood
gepleeg
Istanbul
Spirit
Stephan
stedentrip
Drenthe
marihuana
Cohen
baarmoeder
##urktoilet
retourneren
Roemenië
WhatsApp
IgG4
moeiteloos
middenvelder
Dergelijke
arava
Tenerife
'?
//
BH
Beer
CP
CL
Cyp
Crist
Equ
Eth
Event
Fys
GW
Ghost
Hon
Has
Hind
Houten
IKE
Jenn
Kre
Kra
Kracht
Landen
Leef
Lars
Mid
Mond
Mans
Pur
Pow
Rik
RSS
Sé
S4
Spl
Sher
Swiss
Sjablonen
TN
Tam
Ted
Term
Tja
Tweet
Vas
Voordelen
Wy
Warm
Wandel
Zeeuwse
Zero
aten
cosmet
doo
daalt
durende
fur
falen
face
fonds
géén
hu
hè
hil
happy
iDe
kb
kerm
kolen
krok
ling
mun
nochtans
pale
pest
portefeuille
sind
sessies
soevere
telde
zong
zakt
èn
être
##pm
##pit
##pect
##ria
##ronden
##retjes
##cs
##care
##camp
##moment
##molen
##maakte
##koeken
##kader
##gig
##lab
##fore
##flow
##uelen
##ubsid
##vari
##vlucht
##wis
##wall
##Pal
##Sh
##FM
##FK
##ybal
##Cash
##KER
##41
##erijen
##etect
##oria
##instelling
ink
inbreuk
eenheden
##oner
##oneerd
##alet
##arl
tewerk
verra
verwaar
voordoen
onwaarschijnlijk
##gedeeld
aanhoudende
metadata
##verband
##verzam
stoornis
datzelfde
##ased
##ogo
uitzetten
heide
##ienke
##rijft
bijbaan
overschrij
overvallen
overgewicht
##ulaties
werkend
##ooide
zeppelin
##antse
onderliggende
ondernomen
Inge
spat
##ischer
afgel
##uties
ontkennen
##slo
group
Alas
granen
daarbuiten
betekend
toewijding
##acia
##access
##academie
klappen
nieuwtjes
##ockey
toet
took
toeren
##afem
bedje
##blr
##bloed
##merie
##berger
kleuter
##gelicht
extern
exotische
bochten
1914
interval
snack
geduldig
benut
grootst
grootvader
geleerde
##loot
Voorts
##udde
handicap
teruggebracht
Chine
admir
geleverde
Bijzonder
geschriften
herkend
hervorming
bevalt
##gestoken
Zoom
...)
Spe
organen
##clar
vermeende
##overy
flauw
Arcona
plegen
Belga
Belasting
hoofdverblijf
##klassen
vezels
##reventie
viert
Thanks
##onsord
##isterde
Heine
Teher
basisonderwijs
amus
zorgverzekering
speelse
##handleiding
kennissen
Overige
Overeenkomst
geperson
minute
stapten
##riem
geslapen
verwijdering
shutt
shampoo
belemmer
vriendjes
intrig
drukker
visu
visueel
##owski
##syn
Goddelijke
probleemloos
##velings
onbew
onbewust
##uilt
redacteur
ongekende
formuleren
sportschool
##kantoren
elektrom
Seym
Phuket
merkwaardig
##ropool
bezighouden
bedoelde
posts
coöper
gevangene
karavaan
##ski
immun
onverklaar
Carl
Carlos
Ontwerp
aantreffen
##stadt
specificatie
afspeelt
##gewoon
stijlvol
##gesneden
https
operationeel
gastvrouw
##tegenstaande
verenigd
1971
legaal
transformatie
ouderwet
Workshop
regeringen
##snijden
gangbare
Julia
absor
##gerechten
arbeidsovereenkomst
rapportage
Handig
opvalt
Instagram
ontbrak
uitgeruste
burgeroorlog
Assen
Events
OVERZIGT
Olden
beenderen
excellen
Petrit
vernieuwen
Technologie
kalf
fictie
vertegenwoordigt
SPAM
fauna
Mobiliteit
ADO
Egypt
cafe
schrijfster
walk
emotie
lanceren
##elystad
##filmd
##ierechten
##iereiland
##medewerker
trachtte
singleplayer
branches
Matte
offertes
buurvrouw
torens
##letiek
VIP
journalistiek
##wandeling
vonnis
vrachtwagens
geneeskunde
KNIL
Grieks
Family
##info
aanklager
Palestijnen
##gnose
beleggings
Persoonlijke
decoratie
deelnemende
textiel
Informeer
consequent
sterfte
Scheven
Arbeids
dalai
bisschop
propag
country
geblokk
##nuCash
Marokko
tumor
Babylon
arrangement
NASA
Mozilla
uitkiezen
rituelen
found
future
enquête
dirig
portem
monniken
vleermuis
Hitler
rudimentaire
overbodig
Poké
Anthony
parallel
ROBINS
videokaart
etnische
##bundel
sarafem
Blijkbaar
riolering
bedroeg
Verwijder
paprika
eigentijdse
Council
verwennen
geconcentreerd
Benjamin
##upunctuur
Uncharted
IKEA
Teheran
").
(=
+,
Aard
BL
Bac
Boot
CM
Cy
Cels
Cott
DX
Dun
Dell
Duid
Ev
Fle
Fast
Fiets
GH
Gall
Hul
Hub
Iraanse
Jay
Lem
Lut
Lisse
Mak
Mons
Ora
Rud
S7
SK
Sira
Siber
Toren
VO
Voer
VOC
Wood
az
buis
ballen
bott
bachel
core
divisie
easy
images
jan
jelly
kre
kick
krop
m2
mét
prag
roem
range
ritten
sab
tje
tanks
tikken
vage
wim
waak
wanden
wheat
zóó
zingt
##set
##partement
##nale
##cal
##col
##circ
##mil
##mix
##mapper
##krans
##jen
##gb
##gon
##goud
##lot
##lights
##fo
##figur
##vv
##voeg
##vrouwen
##wasser
##hh
##hib
##bracht
##33
##UG
##68
##610
##BC
##steek
##stone
##chmark
##itatieve
inbraak
eenzelfde
##aarn
##onna
gegr
geologie
geografische
##oester
opus
opgeb
opkomende
##lees
##leding
tech
vergeven
voorhand
onregel
##genamen
algen
##geheugen
##redit
##oling
##verv
##urige
##ogde
##vend
uitpakken
uitrusting
heart
ofzo
##iences
bijpassen
werf
geberg
gebund
onderwater
leent
lease
learning
scheur
schaap
##spoord
##spoort
##iteuren
afhalen
##uitkering
Algar
grand
##osse
blu
daaronder
##ellere
toestanden
##wever
##duin
bestelt
##irmerie
zelfgemaakte
gebruikmaking
##derend
##blig
theaters
##grend
naverwante
tweehonderd
klem
ministers
##gevel
##neke
##bijen
prikken
Verantwoord
##vangende
thy
samengewerkt
Bestelling
vertol
handwerk
handleidingen
handdoek
Annem
##issance
informele
Vander
suikers
Chief
Chron
##ofte
##ermo
vormgegeven
plaatselijk
kozijnen
huishouding
huisartsen
108
sequ
slee
mijlen
zonderling
compost
comprom
Rein
unit
Schl
pleid
##ssysteem
verzets
beruchte
##rafen
##klachten
veele
##izard
oorlogen
rechtstreekse
##innie
Thaise
Tex
gerest
America
voortreff
specialisatie
digt
clim
Brief
Plug
regelingen
gepraat
rolstoel
parad
verwijzingen
Daniël
##ANTS
rustiger
##raktijken
rekent
Admir
dual
##sprof
motieven
lekkerste
infirmerie
hogeschool
Appar
oudheid
moeilijkheden
grappen
onged
levensmiddelen
##halings
supermarkten
schilders
bloggen
periodes
##kopers
logistieke
##kwal
##kwartier
##ussels
bedoelt
discipline
1981
immigranten
##ulletjes
kinderdag
##kansen
##okkers
Gebruiks
onderzoekt
gastvrijheid
##ribute
Christmas
1947
1946
matrassen
wederkeer
1976
varken
glasbewerkers
INST
smaakvol
kerncentrale
eetle
##ALL
tegenovergestelde
kruislingen
beveiligde
vereisen
##bescherm
arbeidsvoorwaarden
1967
psychologie
toegankelijke
strook
morning
premium
##orrent
microsc
vrezen
1958
##BOOT
serveert
Russisch
1938
wetenschapper
budg
landschaps
Blues
##uffet
investerings
Verdieping
bevordert
##iliseren
Bescherming
wagens
geheimen
blokjes
##vesteerd
cadeaut
internist
Alexand
PowerPoint
bewerkte
Latijnse
##cription
criminele
criminelen
Vakbond
##KEUS
kliniek
authentiek
Innovatie
##gekeurde
Snelle
beleggers
Garantie
voerden
##aminaat
Turnhoutse
heftig
facetten
Esther
coördinatie
Model
batterijen
##vliegt
since
Argentin
sponsored
##oefeningen
monumentale
Gezondheids
Pakistan
##stijging
buitengewone
vervoers
Laurent
doorlopend
Chiang
##etermijn
stickers
uitgaans
televisies
Curacao
achttiende
Oxford
Florida
Bangkok
Hollister
herhaaldelijk
getraind
aangeraden
Stefan
pittores
ridder
Erfgoed
intelligentie
NMBS
schattig
Association
Movie
##osaurus
compatibel
drastisch
antenne
hervormingen
robuuste
uitmuntende
helikopter
daughter
HWBOOT
Dotcom
##studie
doorsnee
toelating
belachelijk
kleinkinderen
gadgets
slijtage
##mposium
##CHAPPEN
Ocean
Leopold
fytinezuur
veroorzaakte
Aruba
Annuleringsvoorwaarden
gepleegd
portemonn
Pokémon
Algarve
';
(+
Astrologie
Ble
Beek
Cab
Cars
CIA
DR
Duizen
Duin
Ede
Eye
Fit
Fig
GnuCash
Jur
Jaren
Ket
Khal
Ling
Loe
Lich
LET
Má
Ni
OG
Rhe
Room
Soul
Sardin
Ta
Tu
Ty
TC
VU
VPS
Wars
WAT
Xer
aug
award
bied
building
cut
cruis
dys
dyn
dossiers
each
fatsoen
kite
komp
maa
meel
mir
messen
méér
myself
nieren
naalden
panc
patenten
rok
rend
roest
ruiken
table
tintje
ui
vals
woeden
zaag
zolder
##ni
##cards
##koor
##kes
##kasten
##tafel
##gaten
##geest
##lim
##lagen
##fondsen
##ooms
##vuldige
##wich
##hm
##him
##hire
##baas
##bbel
##zg
##!)
##VE
##etaire
##inhoud
##stall
##itution
inland
inname
inhal
inloop
##online
geautomatis
opp
opmaken
opzettelijk
besten
bemidd
##romen
voorgestelde
voorrang
onm
onhe
ontere
onroerend
alvlees
##reid
##verdien
stief
street
jeug
zijnen
Defin
##schoten
##schoots
uitzoeken
uitkwam
heil
hekel
##entienummer
##ierp
rede
react
overkomt
overbrengen
overleef
overweegt
##ulteit
##sense
waarnemen
anker
gebragt
Inderdaad
afgevoerd
afloss
alledaagse
watt
ontvingen
##slijst
##ichen
Allen
blinde
blote
toeslag
toespraak
##abiliteit
##wekt
##oce
##irm
##afdruk
##blijft
belanden
##bergt
werkvloer
Strand
Studios
exten
1960
##ree86
gezonder
driek
droegen
beschaving
Opper
##annel
##essa
##lozen
verbond
verbleef
Vervoer
Verwacht
##uding
Bep
Bean
##oodschap
terugge
##sterf
##intage
Church
adapt
koer
huiskamer
huisvesting
geschieden
hernieuw
bevalling
##illingen
teneinde
##ervakantie
##ielden
gekost
Watt
verwiss
nodigt
magne
preview
ergonom
##ibil
broeken
##ritten
##klin
##bruin
##izier
gestructur
rechtop
##straal
vierkant
mailing
mailbox
scanner
creaties
kleinschalige
contactpersonen
Klaver
Willie
bekn
glorie
gevolgelijk
Duitser
Brussels
regelmaat
##alty
ruimtestation
vorderingen
henne
Blanc
paroch
parcours
toppen
vervolgt
vriendje
webm
##regio
##registratie
Welzijn
##minister
bruids
vakantiehuizen
geïnvesteerd
middeleeuwen
hulpverleners
redding
##legging
Mevrouw
##world
##workshop
Anti
##uldigen
##offee
##finale
##ELIJK
allergie
trig
Order
##coach
Indië
halfjaar
Brits
begeleiders
Guus
Guest
betrekkelijk
Berichten
##ship
tentamen
##draa
Tenzij
verni
##weergave
portmapper
erfgenaam
legden
geestes
##ground
behoorende
colonne
correctie
##inksels
oppervlakken
##waardelijk
makelaars
Valken
dollars
winnende
incass
Milk
soepele
noordelijk
##feh
##feud
1954
,-.
wonderbaar
1939
Finland
impactvolle
backup
##splannen
vochtige
keurmerk
verleid
ontmoette
Fried
##ymn
uitgestrekte
##yrus
kwalificatie
##opleidingen
oliën
McK
doosje
virtueel
ANWB
ESO
##vaardigheid
Jonathan
wiskundige
muzikaal
##unningen
ABN
hope
geïs
insuline
Jobs
KNVB
##technologie
vrijblijvende
knieën
douane
afwisselende
Ouders
Kroes
gladde
course
benadrukken
solliciteren
classificatie
large
importeren
General
franchise
PayPal
Hojo
Belangrijkste
bijlage
vreselijke
Laura
Leeuwarden
##elligente
verlof
vakbonds
FedEx
adequ
NATUUR
moeras
zelve
ERP
piram
scènes
chirurgische
progressieve
waaier
vertaalmachine
mislukte
Geweldig
##studenten
Joyce
Toyota
##bestaanden
Kwaliteitsgekeurde
##hormoon
conventionele
emanuals
##claimer
JavaBeans
été
Slowakije
##ivirus
bezichtigen
gereserveerd
fundamenteel
Tweakers
ipv
verantwoorde
nauwkeurigheid
onwetendheid
Elisabeth
agressief
Precies
doeltreffend
poncho
symmetrie
begraafplaats
Charlotte
landverhuizers
ALGEMEEN
Malta
ledematen
verluidt
Breukelen
Chinezen
Heineken
Seymour
ouderwetse
Oracle
Sardinië
alvleesklier
!).
(...
Ast
Agen
Age
Boom
Bird
Duch
Five
Flexib
Factor
Fietsen
Gill
GES
HE
Huur
Helen
Ident
Kris
Kalender
Look
Materiaal
Nott
Nienke
Oss
Ooit
Pil
Pyth
Ring
Raf
Sum
Sund
Soef
SCH
Sjabloon
Tik
Town
Um
Veer
XM
Zin
baat
borrel
cin
care
duit
daken
ever
ezel
fos
gamen
gulden
hiër
iv
i3
iDEAL
jack
jungle
kaak
kub
kweken
koepel
lon
laste
mok
mars
march
maagd
nit
py
pok
poes
ronden
setting
saldo
tags
trypt
vie
wonden
zaa
zint
##snede
##natuur
##cen
##can
##kat
##kind
##jacht
##top
##lossen
##lating
##lopers
##fys
##uer
##vij
##willen
##wanden
##wielen
##heren
##hav
##hoopt
##haalt
##baren
##bossen
##ïst
##ME
##zanger
##yon
##öhn
##HA
##GM
##BE
##……
##elicit
##ineerd
##atië
vang
inject
gestemd
gedenk
georiënt
##denkt
##debat
opzoek
opgetrokken
opzeggen
opruimen
verdenking
vergemakkelijk
##rooms
##rock
##eedt
##eeck
##isol
ongen
aanwinst
##verz
stru
##oup
Dead
##elijken
##oki
##ento
weiger
##ierde
resten
reading
repertoire
oversp
overslaan
overgegaan
doorgaat
doorlopende
##sex
##dtal
##apag
##antic
onderver
##emd
schand
Inspir
##spers
##isterd
afstemmen
toebeh
wils
klare
##abriek
gevarie
gevoeld
##afhankelijk
##place
##amenten
jaarverslagen
##ffer
Ent
##gtijd
belgie
##rane
##ranen
##gelo
Stones
sling
slaag
slank
slager
##rennen
manoe
begunstig
doctor
##uile
gezongen
##ostaat
verbroken
Verw
Voorheen
Bewaar
Beheer
Daaruit
dagblad
##boy
binnenkomst
##stermijn
snelheids
ruilen
ouds
##standaard
nett
resort
ontwikkelden
##aartje
Spring
Spelletjes
Sparta
deelde
ruimschoots
champagne
Gebruikt
gekleed
strikte
toeneemt
Schu
Hieruit
filosoof
18de
Ark
meditatie
broeders
vaststelling
##klok
##klaas
124
steentje
##straten
vlam
knut
116
smaakt
##vanger
basisscholen
##getrouw
##actieve
standpunten
177
afged
afgegeven
255
kennismaken
kennismaking
##iani
##iane
shoot
##ouche
videos
intim
intieme
nieuwsbrieven
##ryl
visum
##peil
##iley
##conomie
##sprojecten
conclude
recommen
bruto
kleurrijk
kroeg
inspect
vaderland
international
Print
ongeh
formules
activisten
verstoord
avondje
itil
Antillen
toepasselijke
##interklaas
lokatie
Stedelijk
automaat
draaiende
##verdeling
gesm
vervuld
verzamel
winkelcentrum
Commons
Indianen
secret
brons
onverminderd
Carol
rijkelijk
Newton
carnaval
##ullingen
weeke
Opening
barakken
##zorgd
stamboom
##enners
bepalend
verenigings
router
erfgenamen
##vlakte
verantwoordelijkheden
valuta
bereikten
dwaling
bevestigde
vlogen
hosts
verdiende
salade
schakels
Valk
gebruikservaring
##IGE
strafbaar
Bruce
karakteristieke
Utrechtse
Biografie
Brothers
Gemidd
Maggie
linie
sexy
syndroom
bladzijde
##hangt
##EGEN
verlenging
opstap
Timmer
##barst
##garije
inzage
privacybeleid
gemeentelijk
verleiden
Zodat
!!!!
##oordevol
##verwarming
profiteer
bemoe
##USS
virtual
ANV
herkenbare
Hoogte
##feestje
verzorgde
Clients
licenties
moedigen
Badkamers1
helpdesk
prints
printers
dynamiek
##bury
races
zeventien
opneemt
sprekende
Lucas
component
senior
storingen
##infrastructuur
beschouwing
aanklacht
Palestina
Kramer
preventieve
##asonic
Brabantse
##iatrie
Megap
aktiv
begrijpelijk
monitoring
extrem
stralende
coördinator
edelsteen
agrarische
vaatziekten
nasch
verwonderen
neutraal
gooide
Relig
participatie
upgrade
omgekeerde
Otto
softwar
##boerderij
Junior
Ultimate
Volledig
razend
tribune
Bulgarije
Pentax
Waalse
##voudigen
##begeleiding
verwezenlijken
ongelijkheid
##ARTNER
Roger
indirect
hygiëne
Californië
kraakbeen
##publicaties
Cinema
##verstrek
Battlefield
aangedreven
##familie
thriller
Petersburg
cognitieve
XFree86
wasserij
dessert
Tumblr
haarscherpe
corrigeren
ACTA
illustratie
Aziatische
zonsondergang
Kodak
Wagner
doorzoeking
capaciteiten
Daphne
##accessoires
Petritoli
Scheveningen
Sirach
##eliciteerd
After
BC
Borg
DA
DU
DAN
DAT
DIE
EH
Eiland
FD
GU
Gor
Gig
Gre
HO
Hang
Hill
IE
Joost
Jersey
Kit
Kids
LY
Lay
Lau
Lanka
ME
Mann
More
Messen
Pim
Pac
Praag
Path
RS
Rap
Rapp
Sud
Visser
Yes
Zag
],
bab
boll
bung
bath
bacterie
cc
cant
curr
eB
gy
gaar
giet
girl
ips
kaders
less
lapjes
nok
pse
puin
piep
pikken
rijken
romp
ratten
riem
riepen
sv
ses
tut
tinten
wolf
wiki
zum
zeed
zake
##nd
##nan
##cre
##contro
##café
##controle
##meren
##mund
##mode
##mars
##kg
##kruis
##tings
##toren
##goten
##letters
##fact
##dire
##dheden
##ove
##oach
##uper
##ueerd
##uage
##video
##wapen
##NE
##Time
##Unie
##ër
##IO
##ène
##erma
##anst
##ansen
##etourn
##oro
##stop
##stikke
##aton
##atur
##itra
##itage
##onale
geal
geën
gedem
##deuren
##arma
##arief
ope
verbergen
vooroordelen
voortijdig
oneer
##omstig
##ilatie
aanle
aanleggen
stelen
##amar
##schieten
##heffing
##aatje
##ikant
##opher
##iency
bijgehouden
requi
revalidatie
##ooze
##oose
waarlijk
gebreken
schaald
schors
schrok
Initi
space
spamb
moslim
##vester
watersport
##ioneerde
##omenten
##odge
##kerke
##ortel
mengen
##ellings
klanken
##wegende
##duiken
bestaand
toffe
##afi
##aften
bedrukken
##bly
##ffingen
beloond
##oogd
Stil
eigenlijke
board
snellere
bezinksels
dergelijks
gedisc
verkopers
dusdanig
##gebra
##ideg
grootse
groothandel
moeiz
prin
verbouwd
Ervaar
Very
Verzeker
Bedenk
##oegankelijk
persconferentie
##bourne
vertelden
##zelfsprekend
binnenste
Vanzelfsprekend
##ofaan
##omming
##auer
##kommen
huisregels
compressie
wegg
wereldkampioen
##oolse
Zegt
chain
Gear
Schone
##overlast
March
Level
prei
Proba
Arct
vakbekw
minderheid
verzad
broed
boekhouden
vooraleer
organisatief
stek
rechtse
beweerde
vloog
Thai
##istente
##aceut
Heijn
contacteren
##ignon
directory
tweedehands
Groeten
Union
Bram
149
256
Place
##uinige
Vliet
Ellen
##huishouding
Blankenberge
parap
##leept
leuks
Interact
krachtiger
voorziening
Add
biom
##iverseel
feitelijke
bruisende
Shad
stempels
posities
zomerse
zomervakantie
Conn
Concept
##kkers
overeenkomt
##words
##works
hardlopen
blogger
logistiek
winkelwagen
verzekeraars
Italianen
##metal
gevangenschap
##ruimten
##aires
onderscheiding
##brenging
Twain
mythe
##waterstaat
bredere
wachtte
does
Flora
##kenswaard
##pareerd
bestands
vroegtijd
##abyte
Periode
liefdes
Barb
Luik
##schoolse
1949
1943
1942
##IJD
1977
##ecteur
multif
vestigden
vrijdagavond
##spelbaar
aanspraak
##partner
herinner
dubb
Donald
sommen
Abu
integrale
1953
1956
Werkgroep
servic
koppelingen
Vries
verlengde
condition
gerechtelijke
Techniek
Coach
Mertens
investeert
##beheerder
kolom
##vleugel
##begins
meubelen
handelaren
daadwerkelijke
geldende
coup
programme
1927
Duty
Pieters
uitdrukkelijke
Sterren
verslaven
commentaren
voltooien
velgen
experimentele
Tibetaanse
berekening
vervangt
racen
uitgezocht
uitvinding
diafrag
BlackB
intensiteit
plotselinge
fossile
terroristen
teleurstellen
stierven
vereenigd
borstel
##sensor
introduceren
brievenbus
grijpt
aanbevelen
Voice
##ercetin
bevoegdheid
API
vloeistoffen
kamagra
souven
wanhop
##agonaal
Aanvullen
fitnesscentrum
raketten
mutaties
Angeles
exploitatie
##spartner
trefwoorden
beëindigen
Vegas
Classic
Amazon
##robben
verbouwing
Gelderland
##locatie
conversatie
##owboys
darmen
Clear
Jordaan
Boech
Kroatië
Mercur
dramatische
##tarief
variëteit
verwerven
octrooi
gloednieuwe
opgestart
##brochure
samenwerkingsverband
##tevredenheid
molec
smoothie
reïncarnatie
container
heroïne
Gabriel
vervuiling
ontdekkings
critici
wratten
graphics
Nigeria
headset
macro
Château
bewerkstelligen
Corporation
letsel
##drempel
nagedacht
Kruidvat
VPRO
##Control
velomobiel
Napoleon
Development
Sydney
Boston
mp3
Cyprus
Egyptische
gerestaur
->
:-
Agenda
Bie
Boy
Bally
CA
CE
Cord
DO
Dicht
Dia
Doet
Dokk
Dacia
Email
Fur
Fiet
Fore
Focus
Gren
Gust
Germ
Gister
HAK
HOW
Ieteren
Jimmy
Kad
KMS
Kuip
Lier
Linda
MM
Mut
Ot
Py
Pie
Pater
Paters
RIM
Ryan
SV
Soort
Sollicit
Tool
TED
Tower
UMC
Viv
Vereen
WS
WO
Wenen
Yu
Yv
Ziet
aarts
baard
barm
baden
bots
buigen
boost
bommen
burea
carte
econ
eiste
espresso
ful
gol
gok
holen
jp
kale
kwe
kaj
mouwen
ni
nor
noot
roo
rijd
rab
roof
rail
td
tou
told
vieze
zeef
##aine
##aims
##si
##sw
##swaardigheden
##iT
##iantie
##pc
##punk
##ramp
##cas
##eden
##muur
##jam
##juiste
##jury
##taal
##tische
##gooid
##fam
##fest
##fout
##dogen
##ogende
##villa
##werende
##winning
##blijk
##blee
##building
##83
##RR
##Safari
##zes
##óg
##Drive
##KA
##KEN
##IB
##42
##500
dead
death
##iteling
inhouden
gech
geper
##aliter
##igerd
opmerken
opmaak
teelt
verduidelijk
##isd
ongesteld
onjuiste
algebra
##geschen
aank
aangesteld
aanraak
aangaande
##urig
stuw
stip
stoff
stellingen
##amo
##amor
##aseerd
##teelt
##teiten
omgaat
omega
ombuds
##heide
##zem
##zeilen
uitvallen
uitgaat
eren
##elease
##aanvallen
##aansluiting
##aanbie
rek
reuma
overgezet
alsje
doorbreken
schuift
Inschrijven
spulletjes
##ischen
afgelegd
afbraak
##bekken
##bewegingen
totstand
watersp
ontkomen
volwaardige
##uitvoer
##astr
##indochter
##iesel
grenst
##ositie
blaadjes
nieuwere
nieuwkom
meegeleverd
##ugt
##ugger
Eene
##percentage
goeds
##grid
belt
belonen
nabestaanden
werkzame
##edag
Stijl
Stille
##rene
##ingsmiddelen
dried
##ondenten
beschreef
gedronken
behoeven
##bijstand
price
verbruiken
thing
##bogen
handgemaakte
binnenlandse
Child
##ermat
verhelpen
achterin
achterliggende
hooger
hergeb
enkelen
openlucht
regeer
.......
appart
champ
chore
Reyn
gekop
verlost
vermogens
wantrouwen
Schil
Schelde
##overd
filteren
getoonde
Promot
plecht
Naim
bergt
basil
##klist
groeiend
steile
gestree
gestreden
ervaar
Thijs
scouts
treinst
kleinschal
##ckstraße
opgep
doelpunten
uitgeput
##rekeningen
standvast
miljarden
colleges
amsterdam
##ogeen
finales
patches
##hai
##haha
Blanka
hotelkamer
Afge
verwijdert
quilt
##itsing
##versum
Interieur
kortom
thuisbasis
marktleider
Extre
Exchange
due
energiez
motief
##ructuren
allerbeste
rijders
krassen
impress
oogopslag
verstrekte
superle
zeewater
Samo
linksaf
225
assem
asked
nachtrust
generator
bijzonders
ondersteunende
merkbaar
uiteinde
parking
##ELD
aardgas
verzekert
trio
veroorloven
##uldigde
##gedraaid
##princip
uitvoert
##smaat
politicus
##pasta
stilaan
stilstand
##awi
radicale
afstandsbe
afweer
afwachting
##lopend
horec
##bbink
Apol
Applicatie
##udeer
designs
controleer
tusschenp
##geldig
canon
rechterkant
vernoemd
##amburger
roulette
##otto
Desondanks
wonende
pijnst
aanspreken
soja
jeugdzorg
##ITE
draagbare
Juli
Karin
versterker
schakelt
makes
rapportages
##codes
1966
Maje
Pasen
Comment
Comité
CDN
essent
##ekd
incarn
broodjes
##orrig
genegen
1955
casual
concurrerende
##vertenties
Paulus
1937
excellent
excuses
randje
Wordfeud
Surf
Collect
##lijstje
##garet
Mercedes
##izigers
Kenmerken
Wetboek
##wendig
voorspelling
1922
olif
databases
telefonie
mentaal
##vaardiging
gereedschappen
verslaving
dokters
beïnvloe
Stadt
##radio
Moré
beschadiging
Directeur
brainst
Olympisch
Norman
##zettelijke
homoseks
gevangenisstraf
##ucks
speaker
animaties
Kunnen
Panasonic
Latijn
Latijns
Wetenschappen
transparante
switch
opzigten
fossiele
Maurice
gemeenteraads
Ouder
bloeiende
##levings
voorondersteld
clear
##iŽn
nanoparticles
eenigzins
vereenvoudig
Rijkswaterstaat
banaan
naauwelijks
tracks
introduceerde
silur
consultant
Gibson
Transform
##wolde
inheemsch
trainingsschema
Ridder
thermostaat
schuilt
Ferr
Norway
ethische
conservatieve
Nadien
cannot
##starter
veelzijdig
ChristenUnie
Ontwikkeling
heksen
maandabonnement
Primavera
Mountain
collabor
hertog
explosie
ongewoon
NIEUWS
seminarie
Nikon
compenseren
Circle
voetballers
trial
afsluiter
##gevolg
aanduiding
vermeerdering
indirecte
##iazza
Publicatie
fungeren
Klimaat
##brochures
confrontatie
Lowlands
beoogde
interventie
handhaving
SkiSafari
megapixel
##fotografie
hooge
Voedsel
gisteravond
ruggenmerg
Activiteiten
##muisknop
overkoep
Handelsblad
zwaartekracht
Protection
Village
wastafel
##samenwerking
europesche
alpenhoorn
##website
grensoverschrijdende
granaatappel
toiletten
Anjou
sensitivity
Oekraïne
allocht
uitwerkselen
Brainport
biobrandstoffen
amerikaansche
##vironment
nostal
jongeman
##ISCHE
razendsnel
gepersonaliseerde
excellente
SPAMfighter
geblokkeerd
Celsius
wederkeerige
magneet
oudsher
diafragma
BlackBerry
alsjebl
').
(…)
*.
550
:[
Ay
A4
Ari
Ash
Abb
Base
Borst
Civ
Cari
Camera
CSS
Dak
EA
Eft
FT
Fern
FOR
GA
Geel
Gijs
Honden
Imm
Jun
Jess
KO
Kathol
Lit
Leren
LEG
Maa
Maan
Mork
Nass
Nest
Oct
RC
Rico
Sig
Sele
Side
Sah
TP
TT
TW
TH
Tay
Toer
TAM
Ticket
Vide
Vari
WET
WIJ
Yam
Yark
Ziek
Zuiver
ZIJN
aer
baai
cris
calle
dader
dise
dakter
eist
echo
efolders
gps
hob
hakken
hooi
huilen
kaal
linnen
lost
lov
luizen
mic
miste
nv
nur
nimmer
porn
rellen
sag
tactie
vos
wur
wik
wond
zweet
##aï
##iaat
##ires
##iologie
##iques
##pannen
##rikt
##rick
##naald
##cijf
##cade
##crimin
##mel
##kne
##kussen
##jaard
##jack
##jurk
##gs
##game
##dic
##drank
##oz
##vA
##wd
##hoff
##horst
##haafd
##halla
##bou
##borgd
##Ne
##LIJK
##MHz
##zuig
##xe
##xia
##DEL
##HN
##69
##VER
##êer
##eries
##anaal
##ijde
##strij
##ingham
##dekken
##igo
opzeg
##lead
##eeken
voorraden
voordeur
##reactie
##illo
aannem
aanverwante
##ols
##olië
##verster
##verschil
##uning
stamp
strekken
##otie
Deb
##raham
##schijf
uitgesteld
##elein
bijten
reiger
##eldraad
overste
overbod
##icken
##icul
##icia
doorstaan
##seisen
##dtijd
##apy
##apend
ang
##imuleerd
##anga
onderkomen
lead
learn
schiereiland
##termijn
##spas
##space
afget
afhandeling
afneemt
##beker
ontbrekende
plot
##erei
##weekend
blanke
betrof
gevoed
gevulde
terzijde
##stende
besteedt
##plet
geman
elimin
beloven
gewoond
naï
##ukaart
##opening
##rande
##baard
Stok
Stage
##neu
##nekk
##formeerde
interest
snappen
snapt
##gerelateerde
verkleed
benauw
orders
grootschalige
gelet
gelinkt
verbouwen
Ernst
Voorzien
##ikkel
Bew
Bewust
dagboek
Annel
##ensief
Chili
vrijheden
##avis
##aveling
107
achtervol
autonomie
geschoven
slepen
##ziena
fotosh
##ivering
##ervices
vergift
vergaderen
##ariaat
artistieke
##ieland
ruimten
challenge
Request
Gef
Geachte
units
until
Wijs
geretourn
vermelde
buitenzwembad
Schal
##overn
Marieke
##ootball
getiteld
Arden
stadhuis
please
##conon
misbruikt
instituten
155
##vloeien
vasten
Hoeven
geesten
##izon
beweerd
Volk
broertje
##onso
weekje
gerechts
scru
smak
eenvoud
165
opgesch
opgedragen
lichtjes
Klaas
klantenbestand
antrop
##oche
kiezer
koptelefoon
patient
##rechte
liefste
Elf
geprin
verwijder
quad
luchthavens
Isolatie
intelligente
webwinkels
##spreiding
inflam
infrar
##scomm
##ablet
dichte
why
reisgids
inspelen
##veloper
gelegenheden
sterkere
klaarblijk
##aaltjes
hardnekk
geco
##ausule
##architect
verblu
bloedvaten
precisie
merkwaardige
gesn
professionalisering
zinvol
Jane
##utters
accountant
wethouder
neergelegd
##reedom
acupunctuur
Indie
branding
busje
Suite
onversch
Carmen
myst
sky
carbon
##damus
Zuidelijke
hoorns
inhoudelijk
zetels
wachttijd
##smacht
kamperen
##ammoet
Japanners
Sym
emailadres
onderzee
##iplom
Brad
firmware
presteert
zaterdagavond
aangeboren
richtingen
zuiveren
Quest
statistische
breedband
##abled
panoram
gedeelde
marif
.),
Vrijheid
Vrijwill
##yll
##straject
versterkte
ongelov
Poly
##motherapie
Gerelateerde
Valkenswaard
1963
1962
douchen
Abraham
nutteloos
##ekhoorn
incre
Recept
Landbouw
broodje
Gemaakt
caps
humeur
wetenschaps
Collectie
Collection
bonussen
grammat
kolonie
##aftrek
##klep
biertje
cafés
##verwanten
trui
McL
figur
##danige
##vaardigheden
hemelse
onbeperkte
Deelnemer
Ilse
opgevangen
belevenis
##contracten
Emma
homo
versnelling
PowerS
citaat
haalden
Capital
Rembrand
reparaties
Faustus
toiletartikelen
gedeeltelijke
BBQ
zeventiende
##kleurd
onrechte
spreker
limiet
##koers
aantrekkelijker
storage
##witz
Innov
teleurstelling
GTX
Melbourne
domme
Castle
geruime
passagier
important
demonstraties
Gaston
songw
plaatsvond
True
memor
onophoud
subtiele
Premier
examens
Stapel
##profession
discussiëren
##kruid
##OVE
gewaarborgd
##forum
columns
Labs
Maatschappij
notebooks
layout
klassiekers
koekjes
NUTS
ganse
gevorderde
zoekopdrachten
SportsControl
Typh
Yorckstraße
plugin
dodelijk
procureur
autonoom
zelven
defensie
Gilgames
##locaties
NIEUWE
pigmenten
dramatisch
ambulance
diplomatieke
verkleinen
onverwachts
Susan
bevriend
Hilversum
Zandvoort
physische
##etrische
facilitering
suggereert
##bevolking
boetes
reusachtige
videoclip
significante
##Online
automatisering
benoeming
samengevat
Wijzigingen
##beurten
Roland
##fiction
Besluit
gouverneur
Empire
Referentienummer
après
broeikasgassen
Jakob
Narconon
werkervaring
Education
ontbijten
delegatie
catechismus
VERWANTS
energieleverancier
Drupal
Nostradamus
Mazda
toevoegingen
geconstateerd
pleidooi
Argentinië
portemonnee
dynastie
Messenger
spambots
paraplu
HOWTO
beïnvloedt
alsjeblieft
Yarkand
overbodige
geprinte
inflammat
Gilgamesj
!.
%).
(€
(!)
6000
Att
Bele
Belf
Buis
Balt
Buy
Cer
Camer
Cisco
Coca
CETA
Dé
Damp
Dubl
Downlo
Danny
E3
FI
Gulden
GARTNER
Heem
Hipp
JE
JO
Jol
Koe
Kost
Koster
Lijn
Lom
Leeft
Mix
NX
Neg
OO
Ps
PK
Pack
Ras
Roc
Raw
SOS
TS
Titel
UPS
Va
Vog
Versp
WB
Wes
Xper
Zouden
aap
akte
bind
balen
boren
boeg
bits
boordevol
cost
catering
dwer
dart
daders
emer
etal
einen
ether
flex
fusie
fifties
gooi
hak
hist
halt
honing
kwee
kne
kogels
loep
lav
loods
maps
naakte
nóg
pend
renners
sang
saaie
tunn
veen
veder
wine
wissen
zijd
Één
##aël
##sites
##iate
##pillen
##prie
##cake
##cijfer
##m2
##mma
##kwe
##kins
##kalender
##fiet
##feesten
##dun
##dus
##daad
##veer
##wy
##where
##hon
##bouwer
##balto
##Net
##AAL
##zocht
##ëer
##WIN
##BER
##anas
##etch
##ijpen
##oraal
##ieds
##staf
##stamm
##strepen
##studio
enf
##ités
inkopen
##onic
##ingschap
gead
##alogie
##oeft
##arct
##armen
opwekken
verouder
##rogen
##isolatie
voorwoord
##ijning
onduid
##omschrijving
##kenner
alre
##gehaald
aanzetten
##olders
##versch
##verwerking
##uningen
state
##idu
##rade
##iko
uitzend
erven
heim
##usse
##entuin
##steam
##agaz
##aande
bijge
reikt
reductie
recher
overduidelijk
##lenen
doorgang
##oole
angsten
zeel
zekeren
ikke
ikzelf
ondergaat
lepel
scheen
schets
schoten
schuin
schommel
schedel
##spraktijk
afzien
afronden
##bewerking
watten
##oedigd
205
##utje
major
volken
plassen
##artet
##odaf
confer
##arende
menschen
##ipro
##ells
toegeven
gevraagde
meesle
##aflet
##uga
##ugels
##blauwe
beleeft
nav
##uki
hoede
kleden
kleindochter
minibar
##eda
##oogst
##main
weerspie
exter
slib
managen
##ogelijkheden
gezw
##iefhebbers
##agenda
##volume
beschuldigd
##assin
##gebit
##idee
grootmoeder
verbinten
Verhuis
Vertel
##ified
##mest
##aadpleeg
terugdringen
Metro
Metaal
##iedagen
Chap
adj
##avilj
##aupload
104
kenteken
geschenk
nette
openlijk
##gestuurde
Spoor
vergunningen
##ielid
React
Report
Revolutie
universeel
verlieten
verlossing
Watch
gehoopt
buitenwereld
zwang
Proces
Arsen
Doorgaan
bedrijfsprocessen
vakblad
159
hoofdpersoon
medias
verdrongen
beslaat
##eurd
vasteland
##bruiken
128
1280
##azel
gestalte
houdend
brocante
scrap
opged
##geteld
##ohl
##ituin
##itude
specialiteiten
Wilde
##ochem
ingedrukt
##handels
##handleidingen
oplage
Nev
##voerders
Bloemen
Blokker
Afro
##zekerheid
luchtruim
share
beeldh
atoom
Interess
products
producties
drukvorm
pasvorm
Externe
Administr
##ahl
drop
infant
##scode
Shim
leugen
woonplaatsen
kritie
zomerm
middelgrote
onbeg
210
lidstaat
tekent
##kka
lesmateriaal
zakenreizen
kruist
toepasselijk
mobile
Sebast
Step
ondersteunde
emmer
Photo
zinken
waarschijnlijkheid
vlek
##kelijkse
neergeschoten
##airo
Geloof
peuters
##gedrongen
Noordzee
##beth
bankrekening
##stalig
demon
burcht
taalgebruik
wezenlijke
Japans
analogie
Berlin
##ESCO
comfortable
Tradit
oevers
meldden
designers
Luke
##OND
imper
edele
massale
##wijziging
##wijzigingen
toerist
vallei
facturen
raadzaam
rugzak
oneven
Reserv
yours
Author
##operatie
users
Boeren
invals
District
USD
Snap
essay
Recent
dunner
genealog
hoekje
Parkeer
##arnier
Brown
##oppy
Productbeschrijving
Werklieden
dreiging
Kamerlid
Sanne
Color
##doken
Serious
padde
Finse
Medisch
daaropvolgende
meeting
Groninger
##gekregen
solide
honderdduizenden
Accommodatie
Burgemeester
bedreigde
flesjes
vertrouwelijke
gitaren
3DS
autoriteit
herkenning
##vergeef
tamelijk
dealers
Vision
republiek
cirk
fabrieks
gunste
ONE
sponsoren
Badr
Second
Solid
minimumloon
Volksgezondheid
primair
Speciale
longkanker
Wiki
waarschuwen
Natural
annulering
avontuurlijke
##ACK
christendom
materieel
krachtigste
Maurik
megab
terroristische
Toev
Friese
geweigerd
##ographic
rangschikken
verheugd
spiermassa
nanotechnologie
##auffeurs
gokkast
decennium
dominante
zonnig
Linki
##college
Impact
krokant
##vordering
Megaupload
Verbeter
Estate
Hanoi
vuilnis
programmeren
felicit
connectie
raadsel
##profielen
palette
Geboren
address
sympathische
elegant
bedoelingen
ontwerpt
gehandhaafd
Sarah
##instrumenten
amerika
Mongolen
verwelkom
wedden
reflectie
Hamburg
Napels
##imensionale
synthetische
Testament
hackers
diameter
Bingo
Oxfam
Bulg
Primark
geknipt
voetballer
##ERKEN
gedroogd
bevroren
##teksten
royale
UNESCO
##ULL
verweven
knuffel
Deutsch
uitgevoerde
monteur
ranking
Prachtige
zwijgen
gelukkige
##gevangenen
vitaminen
Diamond
screenshot
algoritme
cliché
B2B
diëten
##frequ
metafys
improvis
misverstand
censuur
success
Absol
noemer
##ación
gehanteerd
courgette
sitemap
opsomming
onderstreept
##odoxe
kinderporno
kermis
ROBINSON
bachelor
##milieu
bijpassende
veeleisende
Friedrich
onderverdeeld
gevarieerde
Mercurius
gekopieerd
Morkhoven
klaarblijkelijk
VERWANTSCHAPPEN
Xperia
##baltoernooi
already
##odafone
!,
---
4G
8GB
Auf
Cass
Ciabatta
Did
Derde
Eag
Emer
Eco
Effect
Fact
Favor
Gon
Hond
Herken
Henn
Himal
Ivy
Joe
Kur
Kool
KEN
Kaz
Kern
LF
Loren
Lith
Mick
NE
NC
Nood
NDT
NWO
Ome
PN
Pel
Pure
Piazza
Qoer
Riv
RET
Rachel
Racing
SH
Sad
Soed
Sug
Sme
Soph
Source
SQL
TOT
Ulead
Vet
Vest
Vlucht
Vatic
Weder
Woud
XS
XK
Zaan
audi
bui
bief
cele
cum
cette
db
domp
einger
four
fokker
gracht
grachten
hamer
hong
hars
hapjes
hurktoilet
ii
kW
koord
koren
koker
lap
lym
lijm
libr
mê
millenn
pole
pony
rich
ruiten
rants
sans
sorry
teller
tja
vaag
voeder
women
yet
zins
zigt
zorgel
##sg
##situatie
##ialen
##iatrische
##pand
##pack
##poging
##pijp
##names
##mart
##marketing
##melding
##krij
##koek
##kuip
##tte
##lak
##disk
##ouren
##wire
##waliteit
##hoge
##halt
##hanger
##hoes
##8000
##34
##300
##UP
##ók
##DU
##HO
##ía
##erig
##angens
##anium
##ety
##etra
##orus
##iept
##stick
##atale
vanochtend
##iting
inw
instemming
integendeel
gewer
##ali
##alia
##oevers
opgevoerd
bedenk
verge
verdeel
verleiding
vermeden
##rov
##roer
##iser
##ises
voorgoed
ondenk
ongemak
##genot
##recl
aankwamen
##vergroting
##unie
##unnel
##unami
standen
statief
omh
omver
##ikh
uitslagen
uitgelezen
words
eronder
wekt
##agg
##aanvraag
##atiegraad
bijgestaan
overweg
weren
werving
##aals
##sence
##aki
waarmede
waarneming
anekd
zeden
leas
prost
schu
schö
schetsen
spee
##spullen
##splein
afhand
afgemaakt
afgevallen
afmeting
##vez
##bens
##benen
volgel
##uites
##uitbre
##ichol
grind
##kerken
##orton
##ortus
toestaan
klopte
##abonnement
##eense
gevlogen
##wei
toele
meebrengt
wijde
##afar
##blij
##aamheid
Enige
##ivels
##beraden
##ukte
##opend
##reserv
kleintjes
##gelang
Stone
Style
##alend
sloegen
slaaf
sluip
sluier
Weber
begrafen
##ingskosten
bow
1917
drift
drinkt
snuf
kwade
behart
##iov
##lower
Versch
Verhoog
Vooraf
Voorlop
Beiden
Beoordelingen
daglicht
##beeldingen
vertoeven
terughouden
binnenkomen
binnenkomt
##zoeker
adapter
koelen
koets
##erts
verhuist
##ublicatie
1080
1024
achternaam
netto
lands
weggenomen
..."
Rechter
Gevol
gekweekt
##akens
verwond
Schr
Scher
##overs
Left
Levens
##uzz
##uzzel
publish
partities
geldigheid
##alisaties
Nazi
verzinnen
instap
##ibi
verduur
vastgestelde
organisatoren
##izabeth
groeijen
##azzo
gestimuleerd
bewaring
vlotte
vloeien
knal
knappe
eerstvolgende
paars
115
eindeloze
##etera
doelgroepen
##ituaties
Belgie
glets
17de
sterretjes
afgezien
afgeschaft
Groet
##lyn
kiem
##uisterd
grondige
grondvorm
Overheid
Elizabeth
##altime
Blauw
topsport
beled
beleggen
office
Interview
lasten
##bouwers
##sprobleem
transl
schepp
lievelings
concern
##athyrus
popp
##scanner
advie
geïnfect
Shift
21e
##eeuws
familiebedrijf
Meijer
formaten
formulieren
garden
verklaar
versieren
achteren
nachtelijke
round
##kunsten
emagaz
##koppen
bandbreedte
tienduizenden
precieze
talrijk
bespaard
bedoelen
plataan
coating
acryl
ambt
##sluitingen
karamel
rijker
##reekpunt
pech
##vallende
##betering
##betaling
kerkmuziek
Guard
Floren
termijnen
radicaal
Manh
diepste
Barack
canvas
sfeervol
rechterlijke
vernomen
Neemt
verenigen
partnerschap
dwar
complimenten
mondeling
bewustwording
Reserver
romans
##combinatie
Galapag
debatten
Polyn
platforms
interessanter
grafieken
Snij
Combin
ingangen
##eki
Recensie
moraal
moreel
aflever
noordoosten
verfris
##puteerde
##strook
##immel
complexiteit
wonderful
voorlichting
voorloper
Websites
populairder
bloembollen
universitaire
condooms
reflex
Coast
##splaatsen
overstromingen
Telecom
gefot
gefrustr
fait
##blijvende
twijfelachtige
Airlines
070
verpakkingen
terugkijken
Mobiel
##commissaris
strategieën
Hunter
Eigenschappen
Player
gevormde
application
##wensen
respecteren
##espect
Ill
ALL
Morgens
ballingschap
lachend
beschadigingen
##preteerd
1908
telefonische
geïnteresseerden
VIII
Opties
auteursrechten
spectrum
agressie
##apparaten
journalistieke
Straat
hypotheekrente
afstamming
vervanger
Palace
misselijk
vingert
omvangrijke
##mpathische
##record
fulltime
Republ
Goal
Bono
##opdrachten
Surinaam
Vierhuizen
ondernemerschap
##arbeid
Bayern
certificering
ambitieus
opwinden
oproept
Andrew
dominee
overlevenden
Mega
befaamde
Veluwe
fiscaal
claimt
copy
idyll
marketeers
devices
democratisch
omgevings
bijlagen
##adviseurs
drinkwater
Sabeel
verondersteld
onmisken
##oepassing
huishoudelijk
verbranding
##klimaat
hippe
pompoen
belandt
Modern
including
boeddhistische
reserves
representatieve
karton
streaming
horizontaal
millimeter
compensatie
ongewenst
bevolkingsonderzoek
Personeel
Cambridge
##édé
realiseert
naleving
##sendaal
substantie
following
Paradise
schimmel
samenwerkings
webhosting
significant
interventies
permacultuur
samengevoegd
immuunsysteem
sauber
##VOLG
allergische
thought
PHP
##catalogus
##journalist
toeschouwer
verzwakt
veelbelovende
overweldigend
reële
cohesie
mantel
routine
percentages
datacenter
uitnodigen
honigbij
afgevaardig
Spelers
certain
kenmerkende
akoestische
gegenereerd
antibiotica
imposante
##verwantschap
Dresden
kaarsen
onbelangrijk
gehandicapten
gebundeld
Xerox
onmogelijke
onterecht
(...)
tryptofaan
souvenir
afstandsbediening
Apollo
dakterras
Stokvis
Werkliedenpartij
eingericht
emagazines
)?
)[
020
3FM
5e
Aand
Asp
Avenue
Bri
BIJ
Beth
Cut
Creed
Doll
Dhr
Daily
Eu
Eb
Edu
Esc
F1
Fruit
Glen
GGZ
Hee
Hab
Harde
Ice
Jones
Kook
Kasteel
LL
LO
Loo
Lost
Meeuw
Nv
Naties
Nature
Og
Od
Oil
Oma
PP
Pag
Pant
Paus
Pasc
Point
Quin
Race
Roul
Rosa
Rousse
Sven
Sau
Some
T4
THE
UV
Ubbink
Ueki
Vic
Wink
[/
borr
cort
categ
caus
diers
drager
dát
eraf
epos
foundation
fonte
fasen
herd
jus
jac
kel
kont
krom
kachel
kudde
lader
mur
muff
nom
nare
number
oet
pp
ping
pier
push
paauw
rangen
rooster
sé
sel
sie
slijk
sof
six
soul
tul
voegde
wes
…)
##sraad
##praktijk
##cam
##corpor
##momenten
##jö
##tz
##fan
##fib
##dans
##down
##drukken
##oeling
##ozo
##vigheid
##wogen
##boud
##buurt
##NEN
##xim
##IST
##etz
##elig
##ijse
##initeit
##stroming
##chan
##itje
##itatief
ingeb
##onië
gefl
geadvis
##dertijd
##arme
beoorde
beugel
beoefenen
teen
verstel
##ijkers
##ism
voorjaars
onuit
onger
ongem
onveilig
onnodige
##eerte
alwaar
##real
##ilo
meta
stoep
stallen
style
struiken
##oter
##otisch
##ously
Dekker
##rading
##schild
uitroe
##ctric
heat
heffen
##stechniek
wei
wekelijkse
##eleven
##iening
overhem
overgrote
overbruggen
##ulaat
werven
##ooch
##dtrack
##apeld
##antiek
onderuit
lef
leid
left
lederen
lekken
##emat
schön
schaatsen
schrappen
Ingrid
##teress
spoelen
##spark
##istics
kann
afmaken
afschuw
afrekenen
##beet
##umps
plichten
Althans
Alberts
gret
##osy
##odel
##kern
bladen
bloeien
##ellak
comb
gevoegd
##duif
tochten
##plank
below
believe
geweer
gewapende
nadert
##houten
##houwer
##resco
##gevingen
##makend
Stijn
Stella
excl
slaver
tegengekomen
##ingsgebied
doken
boden
tijdro
##digd
bezochten
##annetje
##werkings
benoemen
benchmark
behang
##rons
##ioden
groothoek
zijt
evenaar
verbanden
Verme
##vanced
langetermijn
##idende
##idents
##uitenant
##ikkers
##liep
Bekende
##boden
##boeren
contant
vertaalde
##eeksen
terugtrekken
binnenland
snelheden
ruige
##ption
vrijlating
tussenkomst
##ermond
##aval
achtertuin
geschat
##illers
tenen
Spar
Spider
##ources
Read
##anceerde
aangezet
verlossen
verlaging
symposium
beple
bepaal
gehalte
vermaak
buitenstaan
magn
Marion
Margaret
Levering
Omroep
1850
1860
##ootjes
##ateau
bedrijfsc
vakje
##concept
##ENG
misleiden
verzachten
rondlopen
polis
brillen
vastberaden
##klap
##bruine
##izers
rechtvaardige
gewoonweg
viering
##innedag
brom
brok
##scheid
Text
duidt
zoeker
##endingen
centre
contactpersoon
avoc
collect
digituin
1700
antwoordt
eeuwigheid
ingekleurd
duurste
groepjes
final
##antes
##handelaar
oplos
paters
Ondernemers
##oetst
##rechters
##voerster
##outing
para
137
verwijt
verwijderde
##ception
toppers
quant
marktonderzoek
toekomen
##athie
droit
##INKT
##vormig
betreffen
rijpe
Convent
launch
juistheid
##kkel
uitgebreider
version
geloofden
klimmers
planeten
bouwwerk
##offel
##kope
##verdrag
vervult
outfits
Italie
##cose
veroordeelde
komkommer
Two
balken
breakfast
chemotherapie
risk
##smissie
264
betrekkelijke
Zwem
analisten
Minimaal
Minimum
##paringen
##shire
barst
Artikelen
woningbouw
diepere
diepgaande
inspirerend
Lucy
Lucca
##ements
Christopher
Harris
##boeking
portal
vestigde
panel
toeristisch
gebouwde
twijfelt
glasarbeiders
dochtertje
innovatief
##groen
##groenten
Paolo
Supervisor
collo
stappenplan
Julian
Board
##gereden
##vatn
Galile
hypotheken
##aravan
schakelingen
efficiency
cao
1961
opvragen
gebruiksvriendelijk
Install
overwogen
Snijd
Snoei
##isseurs
provinciale
zucht
Acqu
Kanaal
Milan
overlijdens
##oorlogse
##fea
Bremen
Olaf
1957
Jacqu
Naarmate
enzy
servies
wisselende
Myvatn
uitstapje
uitstapjes
ademt
1931
1936
Henry
Medic
Willems
Kwak
beschermende
bureaublad
##URS
Radboud
spoorweg
Zodoende
##ippi
bakje
Maximum
1921
veertiende
schenkt
gesteenten
poets
mentaliteit
gepubliceerde
penis
kwaadaardige
helpful
Solar
1903
chemisch
Intro
gecomplic
waarschuwt
onthuld
Jongeren
Strateg
##Studio
muiskl
crimineel
concentratiekampen
##houdsopgave
begrotings
epide
Privé
Vermoed
bloeit
ASP
veroverd
Economie
Tromp
dalende
proteïne
knowledge
Veiligheids
against
naderhand
Kerstmis
##stedelijke
vulkan
harmon
Hope
opgeruimd
waarbinnen
sancties
Dubbel
NVM
[…].
History
onschuldig
Controle
sinaas
Maybach
##installaties
educatie
petitie
hindernissen
worstelen
##oghurt
Straelen
9001
Cultureel
ordening
Mongolië
relaxen
Ultra
tumoren
attrib
strijdt
gordijn
##document
Volledige
Lokale
##ocaust
terugbetaling
methodiek
opgetekend
##provider
hypothese
SkyDrive
konijnenhok
Hertogen
##gevolge
##ieleveranciers
aanduiden
globale
palmolie
##sporenslag
Sandero
zoodoende
ingenieurs
FAQ
blessures
Eenvoudiger
##ijverheid
Frederik
weldra
##leverancier
weerszijden
correspondentie
verouderd
basketbal
onzichtbare
Provincie
podia
beleefde
Essent
stylus
kadob
##stoestand
eigendomsrechten
hospitaal
dictator
bubbel
steigerhout
vermenigvuldig
RVS
Spotify
voortteling
Boeddhisme
Jasper
Toscane
ceremonie
loyaliteit
infecties
##autoriteiten
Roesel
vakkundig
##sponsor
naadloos
wederzijdse
Virtual
##üller
luxueuze
iDeal
paradox
INSTINKT
Duizenden
##oceph
Nottingham
Sunday
weekeinde
multifunction
bureaust
totstandkoming
##smaatregelen
tusschenpoozen
Jessica
LEGO
called
aannemelijk
Rembrandt
Guldensporenslag
##aadpleegd
zomermaanden
##vergeefs
Voorlopig
Florence
Galapagos
gefotograf
%),
430
Ara
Buck
CG
CES
Div
Darmkanker
Dokter
Eem
Git
Gru
GHz
GMT
Hui
Harm
Hamm
IR
IQ
IPS
Jung
Keel
Keur
Koude
Lap
Led
Ligd
Mast
Makkelijk
Mai
Non
PA
Pin
Poe
Pont
Pomp
Patt
Panda
Praktijk
Reeds
Range
REG
Seg
Soft
Sorry
Tent
Tag
Tul
TOP
VE
Vil
Vice
Voel
Vene
Vintage
Wr
Winst
Zicht
billen
banner
bingo
cpu
cancer
della
font
gre
gent
gib
hook
hype
iron
jl
jassen
jour
juf
kde
kikker
likes
natie
noden
nfsd
oase
pups
punk
smer
sets
send
summ
tact
till
tous
txt
vamp
wante
winden
windt
éta
##poten
##pages
##raam
##reten
##not
##nist
##cong
##cratie
##cape
##couver
##mie
##mit
##mont
##melk
##kem
##kist
##koning
##toon
##tran
##gaarden
##lad
##lasten
##fal
##dor
##disc
##oid
##oste
##uigt
##veerd
##vaders
##hopen
##bom
##bas
##bbijen
##89
##72
##AAT
##ïde
##Edit
##zelen
##zia
##zout
##Te
##TH
##yk
##DL
##Don
##Camp
##/-
##anie
##orator
##inic
##ieder
##stocht
##stream
eenzaam
eenmalige
eenzaamheid
##oorl
##oestel
##arigheid
opkomen
opgra
##lezen
##leger
begeven
verraden
##roz
voorgesch
onc
ontevreden
##geve
##ilingen
aangel
##oler
##urb
stokje
strekking
##oteld
##ouk
omhe
##schuim
##schelp
##ikin
##ikten
uitg
uitgel
uittrek
works
niettegenstaande
heu
heup
##stead
##rupp
realistische
ready
overgave
overleving
overdragen
overwonnen
werpt
##ically
##apro
another
zoal
zoge
##anti
onderin
onderzijde
leur
least
leave
leads
schaars
sprank
sperma
##spec
##istof
##uurlijk
afvoer
208
##uto
##utel
##uthan
main
mainst
welkomst
volstaat
##sluis
pluim
player
plukken
placem
Altern
Alfea
gren
##abo
##abase
wijzer
##affin
##afety
bedank
##bla
##blauw
##bladeren
##fformulier
ell
genet
genad
kleuters
werkplekken
minor
##voorraad
##gelden
Stamp
vrie
slijm
##renaline
##ustomer
arbit
arrog
##ired
kwast
##voland
gediend
benoemde
##ronten
Verklaring
##nemens
Bev
Beetje
##owa
##owers
##itiem
contre
verticaal
handmatige
handschoenen
Meth
Cha
adverteren
##aves
koele
##rique
autisme
hooguit
landstreken
##lukt
##netische
Spin
Spre
Rev
Reuters
##ancip
##ectar
verlangens
buitenlucht
Leider
filmen
bestek
##EREN
prepar
Probleem
Belk
minderval
minderjarigen
mislukt
verzoekt
waterpas
##vlam
hoofdkwartier
##ypotheek
##rits
base
actualiteit
rechtspraak
bewogen
##ettig
##aasje
vloed
brommer
gespl
paarse
##scheiding
112
##appee
##appers
168
opgesom
##eesters
uitgezet
uitgegaan
standaarden
collection
eurozone
afgewisseld
Unter
Unice
clip
speels
speeltje
145
grondstof
##binden
Neuro
Plas
path
##hakt
liefs
family
geprijs
vork
##huisje
Blood
Blanch
quality
##attan
vervolgen
Interesse
behandelde
nieuwsberichten
##rysl
##peace
Adri
##belangen
korten
duikt
schept
Parc
poppers
dienstverlener
volledigheid
##scontrole
voetafdruk
reisde
##incess
kras
krim
abnorm
projectleider
gelegene
hulpverlener
Convers
notre
grap
##ports
ongekend
ongedaan
gevoeligheid
ieders
woordvoerster
voorbaat
geloofwaardig
blogspot
Sehr
Sevilla
Steam
##AREN
##kunft
235
##offie
bloedsu
##optie
personaliseren
##zones
allerm
##oxide
platina
##autoris
Total
acuut
ambtenaar
verkrijgt
bronzen
bestuurd
schermbeveiliging
toevoegt
Noordelijke
balanc
national
carross
rechtsaf
kinderspeel
kerkje
bevatte
cheque
campings
Genk
Genesis
##oera
##amming
heerlijkheid
afdronk
productieproces
diepgang
##richtingen
bestanddelen
##draai
##CHI
gastronom
statuut
statistiek
Lauren
gegoten
Dries
gebeden
##mogelijkheid
legitieme
##aagdieren
industri
value
ouderwets
vermeldt
Edin
Edwin
marine
mariene
Smappee
cola
Skull
kruisband
oppervl
debut
##waardelijke
schakelaar
gezichts
bewoner
Wereldwijd
Instru
psycholoog
tempels
##loween
vaccin
afleggen
photo
vredes
1951
dreigen
Atom
vijftiende
Sanoma
aanmoedigen
##onnetten
wenselijk
##wetgeving
Malin
excuus
Hengelo
bladgoud
conditions
veldslag
Roberto
lotgenoten
winterse
acceptatie
Outfit
luidrucht
bodems
loont
##kleuren
meubilair
!!!!!
Balken
geïnterpreteerd
##vermout
bordje
Rooms
ingevoegd
vensters
Betaal
mentor
tammen
##medewerkers
Visa
kerel
Sterkte
verslaafd
selecteert
##iffe
##osofie
##yester
##été
sponsors
beschadigen
beschadigde
Solutions
cycl
##pension
distribute
Tibetaans
Arnold
lampje
filosofische
##knoping
dosering
Creëer
Lucia
Gemeenten
toelaten
geneesmiddel
##linie
##technische
Senior
purp
kopieën
##arbeider
prototype
weinigen
Limburgse
certificaten
##heimen
Display
Greenpeace
Arabië
SDAP
indicator
interpreteren
bewondering
##walk
opgezette
larve
Mexicaanse
gigantisch
opbrengsten
Duurzame
kroop
kropen
nutte
pakketje
bessen
erectie
dringende
getuigenis
Afghaanse
boterham
bondgenoot
zamengestelde
Shopping
##hoofdpijn
Papa
bezorging
Zweeds
device
Historisch
##borstel
##automaat
verwondering
Domino
Middeleeuwen
geblazen
verdrietig
ambassadeur
Produit
RAW
Wachtwoord
schrikken
laaha
Automatisch
marteling
Geslacht
Ambassade
fietstocht
doeltreffende
##STAAN
##ühl
Booking
Ultima
héél
dialoogvenster
Darwin
Dragon
Personal
Motorola
bizarre
huishoudens
abonnees
Sharp
masker
neurale
dineren
deskundigheid
aardbeving
cyberpunk
Punto
Dropbox
opeenvolgende
bedekken
vakantiedagen
intelligent
Configur
basterd
femin
adverteerder
verdubbeld
##eigenaren
territorium
Ligging
kosmische
webcam
Documentatie
wetsvoorstel
Taiwan
Zakelijke
brouwerij
##mechanisme
zorgverzekeraar
ongerepte
guesthouse
rioolwater
isoleren
versleut
delivery
Photoshop
Eventueel
widget
property
Verkeers
François
##reflex
##aguar
fietspad
kostuums
abtbbijen
wereldberoemde
absurd
ontstekings
Wilhelmina
Acceptatiegraad
overtollige
Yoshit
Matthijs
beduidend
##spatroon
lingerie
DX7
Flevoland
opgeborgen
kinderdagverblijf
pittoreske
aflossing
vernieling
toebehoren
LYELL
bungal
schaaldieren
vakbekwaamheid
algebraïsche
Reynders
silurische
Efteling
Nassau
##priester
Reactietijd
Himalaya
biefstuk
ondenkbaar
##reclame
Reserveringsmogelijkheden
eingerichtet
Nvidia
slavernij
Hertogenbosch
Roeselare
Ligdan
voorgeschoteld
320
AH
AK
Ade
Ale
Action
BU
Buur
Bab
Bug
BOS
Cee
Coc
Cees
Catal
Corn
Certific
Dort
Draag
DAR
DHL
EOS
Fris
Faw
Gam
Guide
HC
Hay
HER
Huy
Have
Ib
Jet
Km
KR
KS
Kü
Kunt
Katten
Kiev
Lan
Living
Lady
Mé
Mare
Mund
Muse
MAN
MEM
Nut
Noot
Niels
Nobel
Our
Orange
Prix
Qatar
Ric
SW
Sas
Sark
Sav
SMS
Sinterklaas
Toel
Tull
Trust
TEGEN
Ug
VL
Von
WC
Wonen
Wales
Wrang
Wouters
aper
akker
bree
bay
bull
bilj
banners
doop
eflyer
eekhoorn
fok
fik
fall
gips
gidsen
hash
kron
kisten
koest
kogel
kön
loss
laminaat
mbo
marm
piste
png
sme
sapp
save
singer
tan
uk
viool
wish
óók
##swaardig
##iw
##iC
##ielijk
##ped
##poeder
##nal
##mbo
##kam
##kra
##gracht
##lé
##lde
##lage
##food
##dd
##ozy
##uu
##vard
##wig
##bud
##ïc
##SP
##_c
##HOU
##ZI
##61
##VI
##BB
##anus
##elst
##elige
dement
dezer
##aab
##chin
##atro
##atings
engels
inschakelen
##onia
geanalys
gefilmd
##deelt
##deeltjes
##derden
##dernacht
##alniettemin
##arp
##aresse
opgaan
ophang
opgeleide
bei
beek
tezamen
##isel
voorz
voorin
voorgrond
##resp
##resten
##ilers
aanste
##olit
##verantwoord
##urf
stake
strekt
struis
sturing
stagia
##amon
##otica
##asure
##ietze
Deme
omgegaan
##scharnier
##hevig
uitsluiten
uitkijken
uitzendingen
uitreiking
uitoefening
uitwisselen
worstel
erw
heks
heavy
##steit
##stede
##ienet
##rijvingen
bijwonen
reconstructie
##eldieren
##eldraden
doorzett
doorgestuurd
##seh
##imeren
##imir
gebre
gebieds
##anghai
onderhevig
schreeuw
Invest
spannings
mosterd
afbreken
afhangt
##bezit
206
ontd
ontcijf
mast
##slang
##slicht
##uitert
Alfa
Alphen
##ineke
##iaire
##odale
blikken
daarboven
##onderneming
toezien
##acu
klager
town
eerbied
##plak
gebruikaanwijzingen
gemakken
gemarkeerd
##merkte
verschuldigde
belichten
naderen
navolging
##made
Sta
vreest
##alende
exerc
slok
slik
slakken
sliep
slinger
tegendeel
tegengaan
##ustin
##reeuwen
interim
snow
bezien
bezeten
bezetter
bezetters
Onafhankelijk
gedetin
Jef
orig
##uda
Beuningen
persberichten
Daartoe
houder
##boomen
##boards
##aadje
handschoen
##ayat
Any
natuurkunde
binnenplaats
##issa
Vancouver
subl
Chelse
ruh
##often
probably
##avik
verhuizingen
103
achterhoofd
traint
travel
herdenking
herbergt
fotot
fotok
Rebel
aangegaan
aangekl
gerespect
geraadpleegd
verwoe
gehangen
gehuurd
vermoorden
Schw
Hiertoe
##ovic
filiaal
zwaaien
##ootje
Army
##iënnale
bereidt
15e
15de
##ibal
rondleidingen
medailles
indianen
verdreven
##klich
groeif
##ragon
rechtbanken
bewaakt
bewakers
bewoonde
vraagtekens
##etty
vlinders
knallen
Think
Third
aanbouw
##matten
zoekfunctie
scores
sculpt
smelt
smokk
smelten
opgedeeld
##ignaal
##brillen
leerzaam
leerjaar
anderhalve
vindbaarheid
gelijkaardige
duurdere
Plast
Onderaan
Onderstaand
zonnen
Blair
parade
winkeltjes
luchtig
luchtmacht
##index
vijfhonderd
Exec
starters
Advis
korr
##bouwd
##sproject
Param
aanwezigen
droomt
recor
Clark
Claus
kleurt
vakantiegangers
geïndex
leugens
havermout
Apps
voldoening
consider
219
Proef
moeilijkheids
noteren
notering
##ittel
##ctors
zakenman
Andros
dikste
Steel
Stein
Steden
emissie
##offers
##offerd
##verdieping
doneren
##ussi
communistische
##ELE
##ELF
aardse
ontvangers
##wijfel
troef
output
Frankf
bestuurlijke
hoopte
restaurantjes
rijkste
kostbaar
feestjes
##prins
##proeven
##draul
##breker
##nelheden
##otechn
##geschakeld
Helm
Genre
zwaardere
potent
280
vallende
buitenlands
Peru
Lucky
Peet
Peking
##westie
zondagmiddag
rechtermuisknop
vernield
##ietechnologie
onafgebroken
Hero
verbondenheid
aanspreekt
aanspreekpunt
Keuze
Kevin
original
weekendje
##ylon
##onym
gedrags
continenten
##iciat
ongelof
##wisselingen
##atching
creditcards
arbeidson
pakje
Handdoeken
Distribute
twintigtal
Move
douches
gebruiksaanwijzing
bootje
Bruggen
##grade
aspir
infobox
schildpad
Records
foutieve
premies
stopcontact
Febo
proefschrift
1959
1952
aantrekkings
leefomgeving
journal
huurders
huurauto
overeenkomstige
stadsbestuur
saun
1932
nagellak
zachter
Goedkoop
vochtig
vochtigheid
accessoire
sieraad
##geka
##gekeerd
luidspreker
kastanje
##patitis
mailadressen
referent
Roermond
opslagcapaciteit
bezochte
ritje
landbouwers
##ierecht
nederzetting
versleten
vijandelijke
comments
Stadion
ONDER
wollen
benodigdheden
cadeaus
aanvullend
exports
news
Salz
belevenissen
calc
calcul
Infra
vertoonde
edition
beantwoordt
geïll
recentelijk
ARM
Wetenschap
cirkelboog
purper
##hoeve
vergaderingen
Wolff
##gevoelige
toetsing
meesterwerk
NSA
gewekt
preventief
vereenvoudigen
opwinding
Andreas
Financial
ondervinding
naauwkeurig
##cerem
blokkade
Federatie
Democratische
genoteerd
ongelooflijke
frequenties
coca
mysterie
onschuldige
luchtvaartmaatschappij
commissies
levitra
vertragingen
pijlers
Citaat
Middelburg
gelovige
payment
weefsels
MAE
pannenkoeken
ontwikkelingssamenwerking
scriptie
ventilator
Christenen
reistijd
boulevard
TROS
bindend
diamant
bagageopslag
exposities
Amazone
Budget
stortte
##................
seminar
##voertuig
##begeleider
cabine
realiseer
kalksteen
questions
Geweldige
Hertog
puber
Leidse
psychiater
verkiezingsprogramma
Fijne
ruiter
Veranderingen
development
##rijpelijk
oordeelt
SNS
autoverhuur
liberale
##vaardigen
schattige
vleermuizen
hormoonhuishouding
Judith
##hormonen
verkrachting
Machine
kersen
tsunami
Lotus
toeschouwers
organisatorische
onzichtbaar
Grondwet
kristal
Hogere
##bemidd
Griff
##vallig
adoptie
sciencefiction
Continue
DIY
legitimatie
Ventura
liturg
receive
Prince
encyclopedie
revue
autobi
fysiotherapie
August
Ruyter
skigebied
Electronic
Sierra
toepasbaar
briljante
Fantast
##vertegenwoord
gewelddadige
bèta
spijsver
staatshoofd
Cambodja
Nergens
Jennifer
dirigent
Duidelijk
compromis
##sprofiel
roestvrij
geïsoleerd
Soefi
recommend
Pacific
KMSKA
Extreme
Commentaar
Ferrari
sagde
Isolatiesteen
marifoon
yourself
##congres
Edinburgh
oppervlakk
Balkenende
Sarkozy
geanalyseerd
Chelsea
aantrekkingskracht
/.
:|
?).
Agent
BW
BK
Bit
Bons
Coe
Cart
Capt
Cors
Caps
Db
Drive
Deere
ET
Ey
Eff
Echte
Evangelie
EIND
Fro
Fib
Feed
Fix
Field
Freedom
Gy
GG
Gay
Gmail
Hoek
Hob
Kay
Kate
Kraan
LU
Lac
Lijkt
Lelystad
Mant
Mama
MEER
NK
Ow
OU
OB
Ober
Oslo
Pit
Pose
Qa
RK
Rasp
Slo
Smet
Tong
TER
Tient
User
UiT
Vanden
Vluchten
Vodafone
Wijk
Weter
Xen
Zijlstra
aas
ama
achten
aids
blen
beren
baten
bont
braken
cass
donder
dijken
dadelijk
drijft
eb
einer
gamer
given
hee
hab
jar
jobs
kist
kouder
kweek
kvv
lee
laur
lappen
linken
mw
mich
munten
noods
okt
på
pul
pill
poos
putten
ruis
roet
roeien
reeksen
sun
today
vom
vetten
vibr
vuile
wro
wangen
wunder
zan
échte
##akend
##see
##iop
##idere
##ians
##rier
##nm
##nl
##nia
##cules
##eus
##kas
##jassen
##toegang
##lay
##lakken
##fee
##feren
##falen
##factoren
##daal
##dje
##ditie
##doos
##ovo
##oice
##viss
##vluchten
##wie
##had
##bahn
##buffet
##Le
##LEIDING
##MERKEN
##Shop
##zog
##zad
##zonden
##yst
##yere
##éc
##Het
##Ch
##CE
##IX
##67
##VEN
##ève
##ân
##ťn
##ijzen
destru
declar
##aaft
##inte
##stichting
##store
engineering
##itste
indoor
inwerking
inzendingen
inwendige
##onse
geil
##dente
##derwijs
##alles
##arings
##arrange
##lect
beu
tevergeefs
vervorm
##ijkerk
##iso
voord
voordoet
voornemens
ongest
onsterf
onkruid
##omme
allow
##ileren
aanstellen
aangrenzen
##olu
##veral
##unter
##unds
stroming
styling
##amelen
##amour
##aseerde
##tec
##teen
##tech
##esher
##oka
##oku
##zeit
##ikanten
uitwerken
uitstellen
uitgevonden
uitkeringen
ertussen
hechte
##ently
##eleine
##ienen
bijwerken
reu
rect
reum
rept
rebellen
overweging
overmacht
overdekte
overlevings
##uwde
werv
##lening
##icure
doorzicht
##seg
waarnemer
##apte
##applicaties
gebr
danwel
ondergang
prostaat
##emy
spins
##sprak
##splicht
afgeven
afkeer
affil
aflossen
##lijken
##oena
##bedekking
##oedig
20ste
##slapen
##astro
##ichamen
##ereik
griff
##odo
##odon
##onderhoud
klar
[...]
